{
  "version": "1.0",
  "truncation": null,
  "padding": null,
  "added_tokens": [
    {
      "id": 0,
      "content": "<pad>",
      "single_word": false,
      "lstrip": false,
      "rstrip": false,
      "normalized": false,
      "special": true
    },
    {
      "id": 1,
      "content": "<unk>",
      "single_word": false,
      "lstrip": false,
      "rstrip": false,
      "normalized": false,
      "special": true
    },
    {
      "id": 2,
      "content": "<bos>",
      "single_word": false,
      "lstrip": false,
      "rstrip": false,
      "normalized": false,
      "special": true
    },
    {
      "id": 3,
      "content": "<eos>",
      "single_word": false,
      "lstrip": false,
      "rstrip": false,
      "normalized": false,
      "special": true
    }
  ],
  "normalizer": null,
  "pre_tokenizer": {
    "type": "ByteLevel",
    "add_prefix_space": true,
    "trim_offsets": true,
    "use_regex": true
  },
  "post_processor": null,
  "decoder": {
    "type": "ByteLevel",
    "add_prefix_space": true,
    "trim_offsets": true,
    "use_regex": true
  },
  "model": {
    "type": "BPE",
    "dropout": null,
    "unk_token": "<unk>",
    "continuing_subword_prefix": null,
    "end_of_word_suffix": null,
    "fuse_unk": false,
    "byte_fallback": false,
    "ignore_merges": false,
    "vocab": {
      "<pad>": 0,
      "<unk>": 1,
      "<bos>": 2,
      "<eos>": 3,
      "!": 4,
      "\"": 5,
      "#": 6,
      "$": 7,
      "%": 8,
      "&": 9,
      "'": 10,
      "(": 11,
      ")": 12,
      "*": 13,
      "+": 14,
      ",": 15,
      "-": 16,
      ".": 17,
      "/": 18,
      "0": 19,
      "1": 20,
      "2": 21,
      "3": 22,
      "4": 23,
      "5": 24,
      "6": 25,
      "7": 26,
      "8": 27,
      "9": 28,
      ":": 29,
      ";": 30,
      "<": 31,
      "=": 32,
      ">": 33,
      "?": 34,
      "@": 35,
      "A": 36,
      "B": 37,
      "C": 38,
      "D": 39,
      "E": 40,
      "F": 41,
      "G": 42,
      "H": 43,
      "I": 44,
      "J": 45,
      "K": 46,
      "L": 47,
      "M": 48,
      "N": 49,
      "O": 50,
      "P": 51,
      "Q": 52,
      "R": 53,
      "S": 54,
      "T": 55,
      "U": 56,
      "V": 57,
      "W": 58,
      "X": 59,
      "Y": 60,
      "Z": 61,
      "[": 62,
      "\\": 63,
      "]": 64,
      "^": 65,
      "_": 66,
      "`": 67,
      "a": 68,
      "b": 69,
      "c": 70,
      "d": 71,
      "e": 72,
      "f": 73,
      "g": 74,
      "h": 75,
      "i": 76,
      "j": 77,
      "k": 78,
      "l": 79,
      "m": 80,
      "n": 81,
      "o": 82,
      "p": 83,
      "q": 84,
      "r": 85,
      "s": 86,
      "t": 87,
      "u": 88,
      "v": 89,
      "w": 90,
      "x": 91,
      "y": 92,
      "z": 93,
      "{": 94,
      "|": 95,
      "}": 96,
      "~": 97,
      "¡": 98,
      "¢": 99,
      "£": 100,
      "¤": 101,
      "¥": 102,
      "¦": 103,
      "§": 104,
      "¨": 105,
      "©": 106,
      "ª": 107,
      "«": 108,
      "¬": 109,
      "®": 110,
      "¯": 111,
      "°": 112,
      "±": 113,
      "²": 114,
      "³": 115,
      "´": 116,
      "µ": 117,
      "¶": 118,
      "·": 119,
      "¸": 120,
      "¹": 121,
      "º": 122,
      "»": 123,
      "¼": 124,
      "½": 125,
      "¾": 126,
      "¿": 127,
      "Â": 128,
      "Ã": 129,
      "Ä": 130,
      "Å": 131,
      "Æ": 132,
      "Ç": 133,
      "È": 134,
      "É": 135,
      "Ê": 136,
      "Ë": 137,
      "Ì": 138,
      "Í": 139,
      "Î": 140,
      "Ï": 141,
      "Ð": 142,
      "Ñ": 143,
      "Ò": 144,
      "Ó": 145,
      "Ô": 146,
      "Õ": 147,
      "Ö": 148,
      "×": 149,
      "Ø": 150,
      "Ù": 151,
      "Ú": 152,
      "Û": 153,
      "Ü": 154,
      "Ý": 155,
      "Þ": 156,
      "ß": 157,
      "à": 158,
      "á": 159,
      "â": 160,
      "ã": 161,
      "ä": 162,
      "å": 163,
      "æ": 164,
      "ç": 165,
      "è": 166,
      "é": 167,
      "ê": 168,
      "ë": 169,
      "ì": 170,
      "í": 171,
      "î": 172,
      "ï": 173,
      "ð": 174,
      "Ċ": 175,
      "Ġ": 176,
      "ġ": 177,
      "Ģ": 178,
      "ģ": 179,
      "Ĥ": 180,
      "ĥ": 181,
      "Ħ": 182,
      "ħ": 183,
      "Ĩ": 184,
      "ĩ": 185,
      "Ī": 186,
      "ī": 187,
      "Ĭ": 188,
      "ĭ": 189,
      "Į": 190,
      "į": 191,
      "İ": 192,
      "ı": 193,
      "Ĳ": 194,
      "ĳ": 195,
      "Ĵ": 196,
      "ĵ": 197,
      "Ķ": 198,
      "ķ": 199,
      "ĸ": 200,
      "Ĺ": 201,
      "ĺ": 202,
      "Ļ": 203,
      "ļ": 204,
      "Ľ": 205,
      "ľ": 206,
      "Ŀ": 207,
      "ŀ": 208,
      "Ł": 209,
      "ł": 210,
      "Ń": 211,
      "Ġd": 212,
      "Ã©": 213,
      "es": 214,
      "Ġl": 215,
      "en": 216,
      "on": 217,
      "an": 218,
      "Ġde": 219,
      "Ġp": 220,
      "re": 221,
      "er": 222,
      "ti": 223,
      "Ġs": 224,
      "Ġc": 225,
      "is": 226,
      "in": 227,
      "ar": 228,
      "ou": 229,
      "Ġa": 230,
      "or": 231,
      "le": 232,
      "qu": 233,
      "te": 234,
      "et": 235,
      "ent": 236,
      "Ġla": 237,
      "ur": 238,
      "ĠC": 239,
      "it": 240,
      "Ġm": 241,
      "un": 242,
      "il": 243,
      "ie": 244,
      "ĠÃ": 245,
      "al": 246,
      "ĠL": 247,
      "Ġet": 248,
      "Ġ1": 249,
      "at": 250,
      "tion": 251,
      "om": 252,
      "Ġle": 253,
      "Ġf": 254,
      "ĠÃł": 255,
      "Ġen": 256,
      "Ġ(": 257,
      "Ã¨": 258,
      "ra": 259,
      "Ġt": 260,
      "ĠS": 261,
      "que": 262,
      "Ġ2": 263,
      "us": 264,
      "ri": 265,
      "rÃ©": 266,
      "Ġn": 267,
      "el": 268,
      "Ġdes": 269,
      "ĠM": 270,
      "our": 271,
      "Ġdu": 272,
      "est": 273,
      "Ġun": 274,
      "ĠP": 275,
      "ro": 276,
      "ch": 277,
      "ce": 278,
      "ĠA": 279,
      "ant": 280,
      "ment": 281,
      "as": 282,
      "au": 283,
      "ĠB": 284,
      "ol": 285,
      "Ġv": 286,
      "ans": 287,
      "Ġpar": 288,
      "ne": 289,
      "Ġ:": 290,
      "ĠÃ©": 291,
      "Ġles": 292,
      "Ġau": 293,
      "Ġ20": 294,
      "me": 295,
      "ĠD": 296,
      "ation": 297,
      "se": 298,
      "Ġest": 299,
      "ont": 300,
      "ag": 301,
      "Ã©g": 302,
      "Ġ19": 303,
      "ĠR": 304,
      "si": 305,
      "ve": 306,
      "de": 307,
      "Ġb": 308,
      "ci": 309,
      "ai": 310,
      "res": 311,
      "ais": 312,
      "Ġqu": 313,
      "ĠT": 314,
      "Ã©e": 315,
      "li": 316,
      "am": 317,
      "ĠF": 318,
      "Ġcom": 319,
      "ĠdÃ©": 320,
      "âĢ": 321,
      "ĠG": 322,
      "Ġg": 323,
      "ĠE": 324,
      "di": 325,
      "Ġdans": 326,
      "oi": 327,
      "tÃ©": 328,
      "atÃ©g": 329,
      "orie": 330,
      "ran": 331,
      "atÃ©gorie": 332,
      "Ġre": 333,
      "ĠN": 334,
      "Ġj": 335,
      "ĠCatÃ©gorie": 336,
      "ain": 337,
      "ĠI": 338,
      "Ġcon": 339,
      "ĠrÃ©": 340,
      "ĠJ": 341,
      "ot": 342,
      "op": 343,
      "Ġune": 344,
      "ers": 345,
      "Ġpour": 346,
      "os": 347,
      "ĠH": 348,
      "Ġin": 349,
      "ig": 350,
      "ul": 351,
      "Ġse": 352,
      "Ġsur": 353,
      "ac": 354,
      "ter": 355,
      "ic": 356,
      "ale": 357,
      "Ġe": 358,
      "Ġch": 359,
      "mp": 360,
      "âĢĻ": 361,
      "ĠLe": 362,
      "les": 363,
      "ĠÂ": 364,
      "ab": 365,
      "Ã©r": 366,
      "ĠV": 367,
      "Ġpl": 368,
      "Ġ|": 369,
      "itÃ©": 370,
      "ist": 371,
      "Ġpro": 372,
      "og": 373,
      "ut": 374,
      "Ġque": 375,
      "ille": 376,
      "ait": 377,
      "Ã¨re": 378,
      "and": 379,
      "vi": 380,
      "ux": 381,
      "pe": 382,
      "Ġh": 383,
      "ff": 384,
      "Ġr": 385,
      "Ġqui": 386,
      "ue": 387,
      "Ġ201": 388,
      "Ġo": 389,
      "ort": 390,
      "ui": 391,
      "elle": 392,
      "Ġ=": 393,
      "ge": 394,
      "ques": 395,
      "ion": 396,
      "Ġ[": 397,
      "20": 398,
      "mb": 399,
      "ure": 400,
      "ĠLa": 401,
      "Ã¨s": 402,
      "tre": 403,
      "Ġ-": 404,
      "ces": 405,
      "ique": 406,
      "ien": 407,
      "Ġil": 408,
      "st": 409,
      "aire": 410,
      "..": 411,
      "teur": 412,
      "ouv": 413,
      "Ãª": 414,
      "age": 415,
      "vec": 416,
      "mi": 417,
      "ap": 418,
      "end": 419,
      "ĠK": 420,
      "ĠCh": 421,
      "ĠW": 422,
      "ine": 423,
      "Ġ200": 424,
      "ction": 425,
      "ph": 426,
      "Ġavec": 427,
      "une": 428,
      "ct": 429,
      "ad": 430,
      "Ã©s": 431,
      "19": 432,
      "ub": 433,
      "Ġex": 434,
      "ois": 435,
      "Ġdi": 436,
      "Ġplus": 437,
      "onn": 438,
      "oc": 439,
      "ĠIl": 440,
      "),": 441,
      "Ã©es": 442,
      "Ġson": 443,
      "ous": 444,
      "che": 445,
      "Ã§": 446,
      "Ġpas": 447,
      "ati": 448,
      "Ġ3": 449,
      "pr": 450,
      "Ġan": 451,
      "ĠEn": 452,
      "Ġ,": 453,
      "ill": 454,
      "ĠO": 455,
      "um": 456,
      "ay": 457,
      "ert": 458,
      "Ġcomm": 459,
      "ir": 460,
      "ard": 461,
      "ette": 462,
      "Ã©n": 463,
      "Ġou": 464,
      "uis": 465,
      "ĠprÃ©": 466,
      "ance": 467,
      "im": 468,
      "lle": 469,
      "ĠÂ»": 470,
      "ord": 471,
      "he": 472,
      "ons": 473,
      "urs": 474,
      "Ã©ri": 475,
      "pp": 476,
      "iv": 477,
      "Ġpr": 478,
      "\"]": 479,
      "ond": 480,
      "Ġ[\"": 481,
      "ob": 482,
      "Ġ.": 483,
      "ĠÂ«": 484,
      "Ġar": 485,
      "ĠÃ©t": 486,
      "Ġpe": 487,
      "ors": 488,
      "Ġsont": 489,
      "aux": 490,
      "00": 491,
      "nes": 492,
      "oir": 493,
      "Ġ18": 494,
      ").": 495,
      "ĠLes": 496,
      "iste": 497,
      "Ġav": 498,
      "Ġ;": 499,
      "av": 500,
      "Ġparti": 501,
      "ier": 502,
      "ise": 503,
      "Ġce": 504,
      "Ġtr": 505,
      "ing": 506,
      "ĠU": 507,
      "Ġ4": 508,
      "Ġsu": 509,
      "entre": 510,
      "od": 511,
      "Ġsi": 512,
      "Ã´": 513,
      "Ġaux": 514,
      "id": 515,
      "Ġcomp": 516,
      "Ã©c": 517,
      "ĠPar": 518,
      "Ã©t": 519,
      "ib": 520,
      "oire": 521,
      "ence": 522,
      "Ġsa": 523,
      "Ġnom": 524,
      "remi": 525,
      "ĠMar": 526,
      "Ġne": 527,
      "tin": 528,
      "Ġtra": 529,
      "ences": 530,
      "all": 531,
      "raph": 532,
      "ĠÃī": 533,
      "ens": 534,
      "ĠFran": 535,
      "tique": 536,
      "oy": 537,
      "du": 538,
      "fÃ©r": 539,
      "ign": 540,
      "Ġ199": 541,
      "ĠAn": 542,
      "oin": 543,
      "orm": 544,
      "Ġcont": 545,
      "out": 546,
      "Ġra": 547,
      "Ã¢": 548,
      "ĠÃ©tÃ©": 549,
      "Ã©m": 550,
      "tic": 551,
      "ace": 552,
      "Ġ5": 553,
      "18": 554,
      "Ġ||": 555,
      "ations": 556,
      "rit": 557,
      "Ġmar": 558,
      "amp": 559,
      "par": 560,
      "Ġal": 561,
      "Ġfran": 562,
      "ang": 563,
      "Ã©d": 564,
      "Ġdeux": 565,
      "ograph": 566,
      "ru": 567,
      "tit": 568,
      "sion": 569,
      "Ġ0": 570,
      "Ġte": 571,
      "Ġpremi": 572,
      "mbre": 573,
      "rou": 574,
      "ĠJe": 575,
      "Ġ\"": 576,
      "ĠDe": 577,
      "cu": 578,
      "ĠAr": 579,
      "Ġcomme": 580,
      "erm": 581,
      "cip": 582,
      "tat": 583,
      "Ã§ais": 584,
      "lÃ©": 585,
      "Ġmais": 586,
      "ĠâĢ": 587,
      "tt": 588,
      "Ġ202": 589,
      "aint": 590,
      "ass": 591,
      "Ġmon": 592,
      "ĠdÃ©c": 593,
      "tif": 594,
      "iens": 595,
      "Ã¨me": 596,
      "aine": 597,
      "omm": 598,
      "Ġcl": 599,
      "CE": 600,
      "fÃ©rences": 601,
      "Ġac": 602,
      "Ġses": 603,
      "ours": 604,
      "ĠfranÃ§ais": 605,
      "oci": 606,
      "ron": 607,
      "tres": 608,
      "Ġ6": 609,
      "ubli": 610,
      "alis": 611,
      "olog": 612,
      "Ã©ra": 613,
      "ite": 614,
      "ments": 615,
      "lis": 616,
      "Ãī": 617,
      "ants": 618,
      "alement": 619,
      "ussi": 620,
      "ts": 621,
      "Ġdis": 622,
      "ud": 623,
      "Ã®": 624,
      "ss": 625,
      "Ġentre": 626,
      "Ġ198": 627,
      "Ġje": 628,
      "co": 629,
      "Ġcons": 630,
      "ong": 631,
      "tions": 632,
      "ann": 633,
      "enne": 634,
      "Ġfait": 635,
      "Ġann": 636,
      "ov": 637,
      "otes": 638,
      "Ġme": 639,
      "Ġcar": 640,
      "Ġfin": 641,
      "aiss": 642,
      "oit": 643,
      "fr": 644,
      "ww": 645,
      "Ġ{": 646,
      "th": 647,
      "ilm": 648,
      "ec": 649,
      "ich": 650,
      "aires": 651,
      "prÃ¨s": 652,
      "ĠSt": 653,
      "ĠAl": 654,
      "ales": 655,
      "ia": 656,
      "Ġ7": 657,
      "Ãªme": 658,
      "ik": 659,
      "rand": 660,
      "la": 661,
      "able": 662,
      "Ġam": 663,
      "ex": 664,
      "iques": 665,
      "imp": 666,
      "bre": 667,
      "ref": 668,
      "ographie": 669,
      "po": 670,
      "min": 671,
      "ĠQ": 672,
      "ip": 673,
      "Ãł": 674,
      "alitÃ©": 675,
      "rois": 676,
      "Ġapp": 677,
      "Ġaussi": 678,
      "Ġst": 679,
      "Ġ}": 680,
      "tiques": 681,
      "mes": 682,
      "Ġ197": 683,
      "tes": 684,
      "ĠFrance": 685,
      "Ġ8": 686,
      "lan": 687,
      "oli": 688,
      "12": 689,
      "Ġor": 690,
      "man": 691,
      "ourn": 692,
      "use": 693,
      "Ġcette": 694,
      "onne": 695,
      "ĠY": 696,
      "Ġ%": 697,
      "rie": 698,
      "ouve": 699,
      "Ġ17": 700,
      "pop": 701,
      "Ã©di": 702,
      "ate": 703,
      "if": 704,
      "Ġes": 705,
      "Ġju": 706,
      "Ġinter": 707,
      "ĠIn": 708,
      "Ġelle": 709,
      "Ġser": 710,
      "Ġfor": 711,
      "uer": 712,
      "ĠNotes": 713,
      "Ġ},": 714,
      "ak": 715,
      "sent": 716,
      "Ġexter": 717,
      "ateur": 718,
      "Ã¯": 719,
      "ern": 720,
      "ĠSaint": 721,
      "ĠrÃ©g": 722,
      "Ġont": 723,
      "aissance": 724,
      "ins": 725,
      "ante": 726,
      "ĠRÃ©": 727,
      "Ġsous": 728,
      "sid": 729,
      "ĠLiens": 730,
      "10": 731,
      "Ã©rie": 732,
      "ĠÃ©c": 733,
      "ven": 734,
      "Ġcol": 735,
      "Ġ15": 736,
      "Ġth": 737,
      "Ġexternes": 738,
      "ente": 739,
      "Ġter": 740,
      "uti": 741,
      "Ã¨res": 742,
      "ĠElle": 743,
      "Ġ9": 744,
      "itu": 745,
      "ĠÃ©g": 746,
      "uite": 747,
      "ĠRe": 748,
      "Ġof": 749,
      "ĠrÃ©fÃ©rences": 750,
      "ode": 751,
      "Un": 752,
      "px": 753,
      "Ġmin": 754,
      "ps": 755,
      "Ã©tÃ©": 756,
      "ow": 757,
      "ris": 758,
      "oue": 759,
      "17": 760,
      "uv": 761,
      "ath": 762,
      "ampion": 763,
      "tis": 764,
      "ĠgÃ©n": 765,
      "vis": 766,
      "jet": 767,
      "ures": 768,
      "elles": 769,
      "ages": 770,
      "cl": 771,
      "igne": 772,
      "Ġy": 773,
      "Ġ196": 774,
      "rib": 775,
      "ĠParis": 776,
      "Ã©v": 777,
      "ersonn": 778,
      "em": 779,
      "Ġ16": 780,
      "Ã©ric": 781,
      "ton": 782,
      "agne": 783,
      "are": 784,
      "ug": 785,
      "Ġtrav": 786,
      "15": 787,
      "ell": 788,
      "asse": 789,
      "ach": 790,
      "Ġ10": 791,
      "ution": 792,
      "Ġche": 793,
      "200": 794,
      "az": 795,
      "ire": 796,
      "ĠUn": 797,
      "Ġpuis": 798,
      "ari": 799,
      "ST": 800,
      "Ġcommune": 801,
      "Ġpubli": 802,
      "Ġti": 803,
      "14": 804,
      "tement": 805,
      "ivers": 806,
      "ĠmÃªme": 807,
      "erv": 808,
      "Ġans": 809,
      "agn": 810,
      "Ġcommun": 811,
      "puis": 812,
      "ieu": 813,
      "Ġlui": 814,
      "aison": 815,
      "16": 816,
      "13": 817,
      "ĠX": 818,
      "Ġlors": 819,
      "ĠCar": 820,
      "Ġrec": 821,
      "ays": 822,
      "Ġprin": 823,
      "Ã¹": 824,
      "Ġnation": 825,
      "ĠcrÃ©": 826,
      "cien": 827,
      "lement": 828,
      "ĠCl": 829,
      "rig": 830,
      "ĠZ": 831,
      "ture": 832,
      "endant": 833,
      "qui": 834,
      "aut": 835,
      "Ġad": 836,
      "ust": 837,
      "Ġph": 838,
      "Ġdont": 839,
      "Ġdiff": 840,
      "insi": 841,
      "iss": 842,
      "emp": 843,
      "oh": 844,
      "ouver": 845,
      "Ġpos": 846,
      "Ġsp": 847,
      "ĠTh": 848,
      "Ġmil": 849,
      "ges": 850,
      "ĠJean": 851,
      "riv": 852,
      "Ġjus": 853,
      "lÃ¨": 854,
      "Ġimp": 855,
      "Ġleur": 856,
      "onc": 857,
      "CEST": 858,
      "tiv": 859,
      "istoire": 860,
      "ade": 861,
      "Ġob": 862,
      "erg": 863,
      "oute": 864,
      "Ġro": 865,
      "ric": 866,
      "aient": 867,
      "ense": 868,
      "Åĵ": 869,
      "art": 870,
      "yn": 871,
      "ĠÃ©galement": 872,
      "Ġtout": 873,
      "ess": 874,
      "fin": 875,
      "ils": 876,
      "omp": 877,
      "Ġ12": 878,
      "roupe": 879,
      "ah": 880,
      "ĠÃª": 881,
      "ĠoÃ¹": 882,
      "Ġmus": 883,
      "lection": 884,
      "Ġtrois": 885,
      "Naissance": 886,
      "Ġma": 887,
      "Ġpoli": 888,
      "Ġ14": 889,
      "gn": 890,
      "ats": 891,
      "orte": 892,
      "tats": 893,
      "Ġret": 894,
      "Ġcou": 895,
      "Ã»": 896,
      "ies": 897,
      "ĠÃªtre": 898,
      "ĠThe": 899,
      "one": 900,
      "ĠaprÃ¨s": 901,
      "//": 902,
      "prÃ©": 903,
      "ry": 904,
      "ues": 905,
      "Ġder": 906,
      "Ġ195": 907,
      "att": 908,
      "Ġ13": 909,
      "pl": 910,
      "utilis": 911,
      "ĠNe": 912,
      "its": 913,
      "eau": 914,
      "ĠÃ©tait": 915,
      "ĠsiÃ¨": 916,
      "Ġnombre": 917,
      "An": 918,
      "Ġsec": 919,
      "aille": 920,
      "ature": 921,
      "ĠnÃ©": 922,
      "Ġainsi": 923,
      "://": 924,
      "stru": 925,
      "Ġnil": 926,
      "ore": 927,
      "Ġpeut": 928,
      "iel": 929,
      "urop": 930,
      "ole": 931,
      "Ġcontre": 932,
      "Ã©p": 933,
      "Ġsc": 934,
      "Ġsitu": 935,
      "istor": 936,
      "gl": 937,
      "Ġres": 938,
      "ĠdÃ©b": 939,
      "pos": 940,
      "cher": 941,
      "Ġtemp": 942,
      "teurs": 943,
      "ail": 944,
      "enti": 945,
      "oul": 946,
      "Ġpremier": 947,
      "uc": 948,
      "ĠamÃ©ric": 949,
      "ĠCe": 950,
      "ains": 951,
      "Ġ194": 952,
      "vier": 953,
      "iÃ¨me": 954,
      "Ġ--": 955,
      "ok": 956,
      "ticles": 957,
      "Ġalors": 958,
      "enn": 959,
      "Ġthe": 960,
      "up": 961,
      "nement": 962,
      "11": 963,
      "form": 964,
      "anis": 965,
      "Ġon": 966,
      "ents": 967,
      "Ġpersonn": 968,
      "ĠÂ»,": 969,
      "ieurs": 970,
      "esse": 971,
      "Ġpartie": 972,
      "ĠpremiÃ¨re": 973,
      "uel": 974,
      "rim": 975,
      "ble": 976,
      "omme": 977,
      "Ġnot": 978,
      "Ġville": 979,
      "Ar": 980,
      "mand": 981,
      "Ã©rÃ©": 982,
      "Ġdepuis": 983,
      "Ġ193": 984,
      "mar": 985,
      "Ġbas": 986,
      "atis": 987,
      "uerre": 988,
      "ose": 989,
      "cle": 990,
      "ici": 991,
      "Ã©ral": 992,
      "omb": 993,
      "Ġno": 994,
      "port": 995,
      "Ã©lÃ©": 996,
      "Ġsoci": 997,
      "ĠCon": 998,
      "Ġman": 999,
      "dis": 1000,
      "Ġtrans": 1001,
      "Ġaut": 1002,
      "enc": 1003,
      "ticle": 1004,
      "ĠPro": 1005,
      "www": 1006,
      "int": 1007,
      "Ġvers": 1008,
      "Ġfut": 1009,
      "ĠÃĢ": 1010,
      "ĠrÃ©gion": 1011,
      "ht": 1012,
      "Ġprincip": 1013,
      "sp": 1014,
      "Ġperm": 1015,
      "elon": 1016,
      "25": 1017,
      "quipe": 1018,
      "Ġdire": 1019,
      "...": 1020,
      "orti": 1021,
      "Ġsep": 1022,
      "ĠÃ©p": 1023,
      "lin": 1024,
      "Ġmonde": 1025,
      "Ġgrand": 1026,
      "ĠannÃ©es": 1027,
      "Ġacc": 1028,
      "Ġremp": 1029,
      "ix": 1030,
      "In": 1031,
      "ĠSe": 1032,
      "CET": 1033,
      "Ġcor": 1034,
      "ĠMe": 1035,
      "ori": 1036,
      "ĠÃ©v": 1037,
      "Ġdonn": 1038,
      "Ġesp": 1039,
      "Ġw": 1040,
      "ĠSh": 1041,
      "Ġprodu": 1042,
      "23": 1043,
      "ttps": 1044,
      "Ġfilm": 1045,
      "ĠâĢĵ": 1046,
      "ignette": 1047,
      "atch": 1048,
      "aul": 1049,
      "Ġsui": 1050,
      "nex": 1051,
      "Ã¨ne": 1052,
      "avi": 1053,
      "Ġces": 1054,
      "itÃ©s": 1055,
      "ĠAu": 1056,
      "rier": 1057,
      "Ġcour": 1058,
      "Ġsou": 1059,
      "ampionn": 1060,
      "land": 1061,
      "ler": 1062,
      "Ġ|-": 1063,
      "ĠQu": 1064,
      "anc": 1065,
      "Ġutilis": 1066,
      "Ġsol": 1067,
      "ke": 1068,
      "oins": 1069,
      "Ġconc": 1070,
      "Ġab": 1071,
      "ze": 1072,
      "ae": 1073,
      "ver": 1074,
      "aur": 1075,
      "Ġprof": 1076,
      "Ã©cÃ¨s": 1077,
      "lu": 1078,
      "ĠPh": 1079,
      "ten": 1080,
      "ption": 1081,
      "opul": 1082,
      "Ch": 1083,
      "Ġjusqu": 1084,
      "Ġoff": 1085,
      "||": 1086,
      "ierre": 1087,
      "Ġform": 1088,
      "Ġdern": 1089,
      "vel": 1090,
      "Ġfond": 1091,
      "ves": 1092,
      "Ġnon": 1093,
      "see": 1094,
      "Ġsans": 1095,
      "Ġfam": 1096,
      "Ġconn": 1097,
      "riÃ¨re": 1098,
      "Al": 1099,
      "nation": 1100,
      "Ġmort": 1101,
      "aÃ®": 1102,
      "onde": 1103,
      "ieux": 1104,
      "ice": 1105,
      "Ġgroupe": 1106,
      "Ġavant": 1107,
      "DÃ©cÃ¨s": 1108,
      "ram": 1109,
      "Ġk": 1110,
      "ane": 1111,
      "cuter": 1112,
      "ĠrÃ©s": 1113,
      "ouvelle": 1114,
      "Ġeff": 1115,
      "ana": 1116,
      "tel": 1117,
      "Ãªte": 1118,
      "Ġper": 1119,
      "Ġplusieurs": 1120,
      "Ġbien": 1121,
      "sition": 1122,
      "ĠDans": 1123,
      "ast": 1124,
      "rix": 1125,
      "ĠrÃ©p": 1126,
      "Ġâ": 1127,
      "ĠdÃ©par": 1128,
      "199": 1129,
      "vient": 1130,
      "ax": 1131,
      "Ġdro": 1132,
      "Ġcin": 1133,
      "alle": 1134,
      "sc": 1135,
      "Ġass": 1136,
      "ĠMont": 1137,
      "ĠtrÃ¨s": 1138,
      "oot": 1139,
      "uss": 1140,
      "ball": 1141,
      "org": 1142,
      "oph": 1143,
      "24": 1144,
      "Ġ?": 1145,
      "ologie": 1146,
      "yle": 1147,
      "oueur": 1148,
      "oÃ»": 1149,
      "Ã¡": 1150,
      "Ġpays": 1151,
      "vers": 1152,
      "ĠChar": 1153,
      "ome": 1154,
      "ĠrÃ©alis": 1155,
      "Ġvignette": 1156,
      "anvier": 1157,
      "cc": 1158,
      "io": 1159,
      "ĠCol": 1160,
      "fic": 1161,
      "Ġmod": 1162,
      "50": 1163,
      "Ġ2010": 1164,
      "illes": 1165,
      "Ġcel": 1166,
      "Ġfois": 1167,
      "illet": 1168,
      "Ġand": 1169,
      "II": 1170,
      "rice": 1171,
      "lo": 1172,
      "aines": 1173,
      "30": 1174,
      "Ġ11": 1175,
      "Ã©b": 1176,
      "amment": 1177,
      "mble": 1178,
      "https": 1179,
      "eu": 1180,
      "nexes": 1181,
      ".,": 1182,
      "ame": 1183,
      "Ġz": 1184,
      "vant": 1185,
      "ĠBi": 1186,
      "ril": 1187,
      "22": 1188,
      "atistiques": 1189,
      "val": 1190,
      "Ġconf": 1191,
      "ĠVoir": 1192,
      "ls": 1193,
      "ital": 1194,
      "Ġpoin": 1195,
      "erie": 1196,
      "Ġpopul": 1197,
      "tive": 1198,
      "amb": 1199,
      "Ġlong": 1200,
      "Ġjanvier": 1201,
      "ourg": 1202,
      "aill": 1203,
      "mis": 1204,
      "vin": 1205,
      "Ġsy": 1206,
      "uit": 1207,
      "Ġpolitique": 1208,
      "rande": 1209,
      "Ġfaire": 1210,
      "ive": 1211,
      "uni": 1212,
      "dre": 1213,
      "discuter": 1214,
      "ett": 1215,
      "Ġvol": 1216,
      "ĠCette": 1217,
      "Ġpo": 1218,
      "Ġport": 1219,
      "core": 1220,
      "rent": 1221,
      "Ġmai": 1222,
      "ĠDes": 1223,
      "ibli": 1224,
      "ule": 1225,
      "ulture": 1226,
      "ctions": 1227,
      "tÃ©s": 1228,
      "ĠPour": 1229,
      "21": 1230,
      "Ġcap": 1231,
      "Ġloc": 1232,
      "Ġ+": 1233,
      "26": 1234,
      "ĠâĢĶ": 1235,
      "yp": 1236,
      "arg": 1237,
      "ienne": 1238,
      "ret": 1239,
      "tembre": 1240,
      "lig": 1241,
      "ĠÃītats": 1242,
      "iÃ¨re": 1243,
      "rait": 1244,
      "Ġautres": 1245,
      "obre": 1246,
      "endre": 1247,
      "Ġprop": 1248,
      "Ġmont": 1249,
      "CO": 1250,
      "Ġri": 1251,
      "ĠfranÃ§aise": 1252,
      "ches": 1253,
      "chn": 1254,
      "=\"": 1255,
      "app": 1256,
      "Ã©ro": 1257,
      "ĠBar": 1258,
      "insee": 1259,
      "Ġjuin": 1260,
      "Ġsorti": 1261,
      "Ġatt": 1262,
      "ĠreprÃ©": 1263,
      "udi": 1264,
      "Ġquel": 1265,
      "Ġcert": 1266,
      "Ġsite": 1267,
      "Ġnouve": 1268,
      "ĠCor": 1269,
      "aque": 1270,
      "ft": 1271,
      "ĠAm": 1272,
      "iversitÃ©": 1273,
      "ack": 1274,
      "des": 1275,
      "Ġoct": 1276,
      "Ã©ration": 1277,
      "lim": 1278,
      "Ġtour": 1279,
      "ĠsiÃ¨cle": 1280,
      "vision": 1281,
      "ĠPl": 1282,
      "ral": 1283,
      "ict": 1284,
      "bum": 1285,
      "Ġlib": 1286,
      "mande": 1287,
      "ide": 1288,
      "lex": 1289,
      "cteur": 1290,
      "ĠsÃ©": 1291,
      "Ġ/": 1292,
      "Ġquat": 1293,
      "oÃ»t": 1294,
      "Ġseptembre": 1295,
      "ĠdÃ©p": 1296,
      "Ġent": 1297,
      "Ġfem": 1298,
      "Ġavoir": 1299,
      "umb": 1300,
      "rÃ©e": 1301,
      "ĠpÃ©ri": 1302,
      "Ġpass": 1303,
      "Ġ()": 1304,
      "ines": 1305,
      "ĠGu": 1306,
      "Ġtemps": 1307,
      "ouvert": 1308,
      "ki": 1309,
      "Ġ2011": 1310,
      "aÃ¯": 1311,
      "ande": 1312,
      "Unis": 1313,
      "ĠJoh": 1314,
      "\",": 1315,
      "Ġcent": 1316,
      "je": 1317,
      "Ġplace": 1318,
      "cembre": 1319,
      "ĠListe": 1320,
      "Ġ2009": 1321,
      "cri": 1322,
      "ĠmÃ©t": 1323,
      "Ġaff": 1324,
      "Ġop": 1325,
      "ĠRÃ©fÃ©rences": 1326,
      "Ġmars": 1327,
      "Ġsaison": 1328,
      "Ġ2012": 1329,
      "Ã´le": 1330,
      "ony": 1331,
      "rer": 1332,
      "Ġ2013": 1333,
      "Ġtitre": 1334,
      "lier": 1335,
      "ĠprÃ©sent": 1336,
      "Ġmo": 1337,
      "oly": 1338,
      "Ġ2014": 1339,
      "son": 1340,
      "28": 1341,
      "Ġpart": 1342,
      "ĠgÃ©nÃ©ral": 1343,
      "ĠUne": 1344,
      "onom": 1345,
      "Ġ2015": 1346,
      "ĠGe": 1347,
      "Ġnotamment": 1348,
      "Ġ2020": 1349,
      "Ã¨ce": 1350,
      "uelle": 1351,
      "Ġsour": 1352,
      "ĠCou": 1353,
      "Ġ2008": 1354,
      "Ġexp": 1355,
      "Ġjuillet": 1356,
      "ĠlÃ©g": 1357,
      "Ã©vrier": 1358,
      "jour": 1359,
      "ĠdiffÃ©r": 1360,
      "rop": 1361,
      "Ġcours": 1362,
      "Ġligne": 1363,
      "itaire": 1364,
      "Ġoctobre": 1365,
      "Ġrel": 1366,
      "Ġconstru": 1367,
      "ĠÂ».": 1368,
      "velop": 1369,
      "ĠamÃ©ricain": 1370,
      "titu": 1371,
      "Ã©ci": 1372,
      "Ġ2018": 1373,
      "ĠdÃ©cembre": 1374,
      "iti": 1375,
      "Ã©li": 1376,
      "tex": 1377,
      "dition": 1378,
      "cul": 1379,
      "istes": 1380,
      "Ġ23": 1381,
      "ĠdÃ©f": 1382,
      "statistiques": 1383,
      "Ġ2007": 1384,
      "ĠprÃ©sid": 1385,
      "Ġfamille": 1386,
      "90": 1387,
      "rage": 1388,
      "Ġsoit": 1389,
      "enant": 1390,
      "Ã©l": 1391,
      "ĠtÃ©lÃ©": 1392,
      "Ġver": 1393,
      "Ġrom": 1394,
      "aw": 1395,
      "ĠdÃ©but": 1396,
      "istre": 1397,
      "ĠPe": 1398,
      "oth": 1399,
      "ĠArticles": 1400,
      "Ġcas": 1401,
      "Ġsud": 1402,
      "act": 1403,
      "assi": 1404,
      "Ġinternation": 1405,
      "aise": 1406,
      "ĠsÃ©rie": 1407,
      "arti": 1408,
      "Ãªtre": 1409,
      "Ġhistor": 1410,
      "erci": 1411,
      "antes": 1412,
      "viron": 1413,
      "Ġmoins": 1414,
      "ĠfÃ©vrier": 1415,
      "ras": 1416,
      "ano": 1417,
      "illage": 1418,
      "ration": 1419,
      "COM": 1420,
      "sement": 1421,
      "27": 1422,
      "ouis": 1423,
      "ĠprÃ©c": 1424,
      "Ġrapp": 1425,
      "Ġindi": 1426,
      "ĠMich": 1427,
      "mÃ©e": 1428,
      "per": 1429,
      "vembre": 1430,
      "Ġvie": 1431,
      "geo": 1432,
      "Ġtous": 1433,
      "ys": 1434,
      "ox": 1435,
      "Ġavril": 1436,
      "oup": 1437,
      "Ġpartir": 1438,
      "ÃŃ": 1439,
      "Ġpeu": 1440,
      "ĠAd": 1441,
      "Ġsuite": 1442,
      "chÃ©": 1443,
      "29": 1444,
      "Ġvis": 1445,
      "Ġ..": 1446,
      "ĠOn": 1447,
      "uses": 1448,
      "ind": 1449,
      "ĠdÃ©velop": 1450,
      "ili": 1451,
      "cid": 1452,
      "rÃ©s": 1453,
      "ith": 1454,
      "Ġmal": 1455,
      "Ġterrit": 1456,
      "Ġ2006": 1457,
      "ĠdÃ©partement": 1458,
      "Ġfr": 1459,
      "ĠBe": 1460,
      "atique": 1461,
      "Ġconnexes": 1462,
      "ĠNew": 1463,
      "Ġsupp": 1464,
      "ĠSch": 1465,
      "Ġnord": 1466,
      "rique": 1467,
      "aud": 1468,
      "198": 1469,
      "ampionnat": 1470,
      "Ġpublic": 1471,
      "Ġfon": 1472,
      "ĠprÃ©s": 1473,
      "âĢĵ": 1474,
      "minist": 1475,
      "Ġguerre": 1476,
      "lect": 1477,
      "illi": 1478,
      "ress": 1479,
      "Ġ21": 1480,
      "Ġag": 1481,
      "Ġact": 1482,
      "Ġselon": 1483,
      "ĠAprÃ¨s": 1484,
      "Ġat": 1485,
      "oun": 1486,
      "Ġavait": 1487,
      "Ġli": 1488,
      "Ġnational": 1489,
      "Ġnovembre": 1490,
      "Ġ2016": 1491,
      "lise": 1492,
      "rÃª": 1493,
      "mÃ©": 1494,
      "ĠCan": 1495,
      "Åĵuv": 1496,
      "Ġmen": 1497,
      "Mar": 1498,
      "Ġ&": 1499,
      "nÃ©": 1500,
      "Ġclub": 1501,
      "Ġdom": 1502,
      "ĠreprÃ©sent": 1503,
      "ĠSon": 1504,
      "Ã¼": 1505,
      "Ã³": 1506,
      "autres": 1507,
      "Ã¢te": 1508,
      "tÃ©rie": 1509,
      "Ġ24": 1510,
      "Ġleurs": 1511,
      "Ġpage": 1512,
      "be": 1513,
      "cent": 1514,
      "cup": 1515,
      "Ġorig": 1516,
      "ites": 1517,
      "Ġrest": 1518,
      "ument": 1519,
      "ote": 1520,
      "ata": 1521,
      "ĠspÃ©ci": 1522,
      "ype": 1523,
      "urope": 1524,
      "ĠRob": 1525,
      "Ġorg": 1526,
      "Ġcompr": 1527,
      "Ġren": 1528,
      "Ġ22": 1529,
      "Ġencore": 1530,
      "ĠBr": 1531,
      "Ġsign": 1532,
      "ile": 1533,
      "ditions": 1534,
      "Ġ25": 1535,
      "Ġ2017": 1536,
      "Ġ2019": 1537,
      "oix": 1538,
      "Ġhab": 1539,
      "Ġdonc": 1540,
      "Ġalle": 1541,
      "ĠJohn": 1542,
      "Ġmis": 1543,
      "ient": 1544,
      "ĠaoÃ»t": 1545,
      "Ġmoy": 1546,
      "Ġdist": 1547,
      "Ġlieu": 1548,
      "Ġgouver": 1549,
      "olution": 1550,
      "ĠSp": 1551,
      "Ġ30": 1552,
      "Ġnouveau": 1553,
      "yant": 1554,
      "Ã¨le": 1555,
      "uli": 1556,
      "aume": 1557,
      "ĠHe": 1558,
      "ribu": 1559,
      "Ġint": 1560,
      "ĠBiographie": 1561,
      "ĠcÃ´": 1562,
      "ĠthÃ©": 1563,
      "alif": 1564,
      "aliste": 1565,
      "Ġim": 1566,
      "Ġfa": 1567,
      "Ġas": 1568,
      "Ã©ti": 1569,
      "rat": 1570,
      "ck": 1571,
      "acc": 1572,
      "ĠâĢ¢": 1573,
      "rÃ¨s": 1574,
      "40": 1575,
      "resse": 1576,
      "Ġcan": 1577,
      "ison": 1578,
      "ĠEl": 1579,
      "iers": 1580,
      "ĠComm": 1581,
      "Ġpendant": 1582,
      "36": 1583,
      "els": 1584,
      "ĠBibli": 1585,
      "Ġprojet": 1586,
      "ĠMon": 1587,
      "ables": 1588,
      "der": 1589,
      "ĠHistoire": 1590,
      "Ġnouvelle": 1591,
      "ars": 1592,
      "Ġdevient": 1593,
      "Ġjourn": 1594,
      "Ġpouv": 1595,
      "Ġdur": 1596,
      "ange": 1597,
      "ĠAb": 1598,
      "ouvent": 1599,
      "Ġpi": 1600,
      "ina": 1601,
      "Ġco": 1602,
      "Ġmondi": 1603,
      "Ġ!": 1604,
      "197": 1605,
      "auche": 1606,
      "ly": 1607,
      "ĠMus": 1608,
      "ma": 1609,
      "Ġfer": 1610,
      "ouse": 1611,
      "Ġquatre": 1612,
      "right": 1613,
      "Ãītat": 1614,
      "ĠdÃ©m": 1615,
      "ĠMan": 1616,
      "Ġimport": 1617,
      "cture": 1618,
      "Le": 1619,
      "Ġmatch": 1620,
      "arge": 1621,
      "Ġdess": 1622,
      "Â°": 1623,
      "sh": 1624,
      "Film": 1625,
      "ative": 1626,
      "ka": 1627,
      "align": 1628,
      "Ġtechn": 1629,
      "apon": 1630,
      "ances": 1631,
      "unicip": 1632,
      "ime": 1633,
      "ĠWik": 1634,
      "Ã§ois": 1635,
      "quÃ©": 1636,
      "fs": 1637,
      "ettre": 1638,
      "oires": 1639,
      "position": 1640,
      "80": 1641,
      "Ġtou": 1642,
      "ĠÃ©qu": 1643,
      "Ġ190": 1644,
      "Ġnationale": 1645,
      "Ġemp": 1646,
      "Ġoc": 1647,
      "ĠpÃ©riode": 1648,
      "iter": 1649,
      "Ġfoot": 1650,
      "60": 1651,
      "Ġprob": 1652,
      "Ã¶": 1653,
      "ork": 1654,
      "Ġtourn": 1655,
      "ĠGrand": 1656,
      "ression": 1657,
      "entes": 1658,
      "ĠBel": 1659,
      "ger": 1660,
      "ick": 1661,
      "sions": 1662,
      "34": 1663,
      "Ġmeille": 1664,
      "Ġ2005": 1665,
      "ilitÃ©": 1666,
      "Ġliv": 1667,
      "Ġ)": 1668,
      "Ġnature": 1669,
      "tal": 1670,
      "ĠPierre": 1671,
      "emple": 1672,
      "adi": 1673,
      "Ġgrande": 1674,
      "ateurs": 1675,
      "yl": 1676,
      "isme": 1677,
      "Ġ2022": 1678,
      "cep": 1679,
      "Fran": 1680,
      "Ġvous": 1681,
      "ritann": 1682,
      "Ġcompte": 1683,
      "Ġind": 1684,
      "tr": 1685,
      "Ġdou": 1686,
      "com": 1687,
      "uropÃ©": 1688,
      "Ġ2021": 1689,
      "rain": 1690,
      "Ġconse": 1691,
      "suite": 1692,
      "Ġservi": 1693,
      "Ġoffic": 1694,
      "Ġautre": 1695,
      "Ġclim": 1696,
      "Ġorigin": 1697,
      "rin": 1698,
      "vent": 1699,
      "ĠDi": 1700,
      "mer": 1701,
      "af": 1702,
      "Ġbat": 1703,
      "Ġcomb": 1704,
      "Ġ2004": 1705,
      "37": 1706,
      "Ã¢teau": 1707,
      "Ġinc": 1708,
      "ene": 1709,
      "Ġparticip": 1710,
      "ada": 1711,
      "ets": 1712,
      "46": 1713,
      "ock": 1714,
      "arch": 1715,
      "enre": 1716,
      "Ã¨te": 1717,
      "aff": 1718,
      "sionn": 1719,
      "Ġ2024": 1720,
      "ĠPal": 1721,
      "cation": 1722,
      "cription": 1723,
      "35": 1724,
      "actÃ©": 1725,
      "Ġ2000": 1726,
      "Ġangl": 1727,
      "Ġpat": 1728,
      "Ġcelui": 1729,
      "udes": 1730,
      "oris": 1731,
      "Ġparticu": 1732,
      "ĠOr": 1733,
      "39": 1734,
      "sur": 1735,
      "Joueur": 1736,
      "Ġ26": 1737,
      "ones": 1738,
      "rag": 1739,
      "Ġplan": 1740,
      "ĠMal": 1741,
      "ley": 1742,
      "Ġ27": 1743,
      "ĠMo": 1744,
      "Ġils": 1745,
      "ision": 1746,
      "tiÃ¨re": 1747,
      "ult": 1748,
      "Ġpetit": 1749,
      "Ġquelques": 1750,
      "Ġinf": 1751,
      "ara": 1752,
      "old": 1753,
      "encont": 1754,
      "fois": 1755,
      "Ġayant": 1756,
      "ity": 1757,
      "ĠDis": 1758,
      "Ġcri": 1759,
      "Ġforme": 1760,
      "ĠCom": 1761,
      "Ġsecond": 1762,
      "ĠsituÃ©e": 1763,
      "oine": 1764,
      "Ġthumb": 1765,
      "45": 1766,
      "lections": 1767,
      "urb": 1768,
      "38": 1769,
      "Ġtrouve": 1770,
      "usion": 1771,
      "oles": 1772,
      "Ġlang": 1773,
      "Ã«": 1774,
      "lie": 1775,
      "ĠJac": 1776,
      "ĠSte": 1777,
      "orn": 1778,
      "erb": 1779,
      "Ã¨de": 1780,
      "Ġtant": 1781,
      "Ġjoue": 1782,
      "Ġital": 1783,
      "ros": 1784,
      "temp": 1785,
      "cs": 1786,
      "ost": 1787,
      "Ã¨g": 1788,
      "seau": 1789,
      "Ġvillage": 1790,
      "Ġrepr": 1791,
      "mbl": 1792,
      "ĠBl": 1793,
      "Ġcelle": 1794,
      "olymp": 1795,
      "lev": 1796,
      "Ġprog": 1797,
      "66": 1798,
      "ĠPaul": 1799,
      "oie": 1800,
      "Ġconsid": 1801,
      "Ã©quipe": 1802,
      "Ġrou": 1803,
      "ĠeuropÃ©": 1804,
      "Ġenf": 1805,
      "Ġ2023": 1806,
      "Ġfils": 1807,
      "55": 1808,
      "Ġmunicip": 1809,
      "000": 1810,
      "ĠLouis": 1811,
      "ĠFl": 1812,
      "air": 1813,
      "red": 1814,
      "duction": 1815,
      "Ġnive": 1816,
      "ini": 1817,
      "ennes": 1818,
      "Ã¢tre": 1819,
      "ĠNord": 1820,
      "ase": 1821,
      "Ġolymp": 1822,
      "Ġterm": 1823,
      "ĠBibliographie": 1824,
      "ĠTe": 1825,
      "Ġpopulation": 1826,
      "Ġfonction": 1827,
      "anti": 1828,
      "cienne": 1829,
      "Ġbut": 1830,
      "ĠgÃ©nÃ©ra": 1831,
      "iles": 1832,
      "utÃ©": 1833,
      "En": 1834,
      "ĠEx": 1835,
      "tient": 1836,
      "ĠRoy": 1837,
      "Ġmes": 1838,
      "Ġrecher": 1839,
      "era": 1840,
      "ĠSur": 1841,
      "Ġ28": 1842,
      "yd": 1843,
      "left": 1844,
      "histoire": 1845,
      "ville": 1846,
      "mon": 1847,
      "pect": 1848,
      "Ã¢ti": 1849,
      "ycl": 1850,
      "article": 1851,
      "ules": 1852,
      "ĠSud": 1853,
      "iz": 1854,
      "esp": 1855,
      "Ġgouvernement": 1856,
      "rale": 1857,
      "Ġappel": 1858,
      "ĠSc": 1859,
      "idÃ©": 1860,
      "Ġcompos": 1861,
      "iÃ©": 1862,
      "Ġsub": 1863,
      "Ġcir": 1864,
      "Ġclasse": 1865,
      "ĠdeuxiÃ¨me": 1866,
      "text": 1867,
      "ash": 1868,
      "Ã©dia": 1869,
      "Ġtoute": 1870,
      "Ġmois": 1871,
      "poque": 1872,
      "ĠSal": 1873,
      "ĠrÃ´le": 1874,
      "nom": 1875,
      "ĠVal": 1876,
      "Or": 1877,
      "orig": 1878,
      "erre": 1879,
      "ublique": 1880,
      "ĠBon": 1881,
      "ĠSi": 1882,
      "ĠFin": 1883,
      "urent": 1884,
      "'s": 1885,
      "ĠJeux": 1886,
      "ĠCoupe": 1887,
      "Ġcentre": 1888,
      "Ġ29": 1889,
      "oss": 1890,
      "ises": 1891,
      "Ġrencont": 1892,
      "Ġca": 1893,
      "ĠSa": 1894,
      "31": 1895,
      "ting": 1896,
      "quer": 1897,
      "ĠprÃ©sident": 1898,
      "ner": 1899,
      "Ġsuiv": 1900,
      "join": 1901,
      "ĠBer": 1902,
      "urg": 1903,
      "odes": 1904,
      "Ġjour": 1905,
      "Ġprovin": 1906,
      "Ġpein": 1907,
      "aj": 1908,
      "ĠCharles": 1909,
      "ĠComp": 1910,
      "Ġbritann": 1911,
      "Ġorganis": 1912,
      "Ã´t": 1913,
      "Ġchez": 1914,
      "quel": 1915,
      "ĠPhil": 1916,
      "Ġvi": 1917,
      "fÃ©rence": 1918,
      "actÃ©ris": 1919,
      "Ġhabit": 1920,
      "ĠHen": 1921,
      "Ġbase": 1922,
      "Ġdernier": 1923,
      "Ġlit": 1924,
      "let": 1925,
      "rist": 1926,
      "Ġtard": 1927,
      "annÃ©e": 1928,
      "ca": 1929,
      "ordre": 1930,
      "Ġensuite": 1931,
      "Ġgr": 1932,
      "Ġculture": 1933,
      "oll": 1934,
      "Ġbar": 1935,
      "bert": 1936,
      "inter": 1937,
      "ommes": 1938,
      "196": 1939,
      "estion": 1940,
      "Ġcommunes": 1941,
      "aÃ®t": 1942,
      "ĠIs": 1943,
      "Ã¨tres": 1944,
      "ĠAnd": 1945,
      "pes": 1946,
      "Ġjou": 1947,
      "universitÃ©": 1948,
      "ĠsociÃ©tÃ©": 1949,
      "Ġdev": 1950,
      "ĠgÃ©": 1951,
      "ĠHar": 1952,
      "atiques": 1953,
      "eng": 1954,
      "ĠParti": 1955,
      "hui": 1956,
      "ĠSoci": 1957,
      "off": 1958,
      "ĠGeor": 1959,
      "tien": 1960,
      "Ġsyst": 1961,
      "70": 1962,
      "ĠRobert": 1963,
      "Ã©ma": 1964,
      "ect": 1965,
      "Ġcontin": 1966,
      "Ġdeven": 1967,
      "33": 1968,
      "pendant": 1969,
      "44": 1970,
      "ĠprÃ¨s": 1971,
      "tiste": 1972,
      "Ġ189": 1973,
      "magne": 1974,
      "cole": 1975,
      "Ġdisp": 1976,
      "raÃ®": 1977,
      "--": 1978,
      "Ġterritoire": 1979,
      "ĠGal": 1980,
      "by": 1981,
      "Ġfl": 1982,
      "aute": 1983,
      "ape": 1984,
      "ĠII": 1985,
      "ĠTour": 1986,
      "ĠAng": 1987,
      "Ã¨se": 1988,
      "ĠDan": 1989,
      "usse": 1990,
      "cess": 1991,
      "ĠPremi": 1992,
      "ĠRo": 1993,
      "Ġreg": 1994,
      "jours": 1995,
      "ĠdÃ©s": 1996,
      "Ġarticle": 1997,
      "Ġgra": 1998,
      "ed": 1999,
      "ĠmÃ©di": 2000,
      "Ġroi": 2001,
      "cus": 2002,
      "ĠreÃ§": 2003,
      "ĠGr": 2004,
      "76": 2005,
      "58": 2006,
      "Ġbi": 2007,
      "Ġchef": 2008,
      "cad": 2009,
      "ĠdonnÃ©es": 2010,
      "autÃ©": 2011,
      "ards": 2012,
      "ha": 2013,
      "Ġallemand": 2014,
      "mbres": 2015,
      "isode": 2016,
      "Ġ2003": 2017,
      "Ġrue": 2018,
      "alitÃ©s": 2019,
      "Ġprot": 2020,
      "origine": 2021,
      "cientif": 2022,
      "ĠTr": 2023,
      "sib": 2024,
      "48": 2025,
      "ologique": 2026,
      "ultats": 2027,
      "ĠPrix": 2028,
      "ĠRen": 2029,
      "56": 2030,
      "Ġafin": 2031,
      "ĠdÃ©t": 2032,
      "style": 2033,
      "ĠannÃ©e": 2034,
      "rec": 2035,
      "dic": 2036,
      "ouest": 2037,
      "iller": 2038,
      "Ġgar": 2039,
      "Ġfinale": 2040,
      "llemagne": 2041,
      "Ã¤": 2042,
      "sible": 2043,
      "pose": 2044,
      "Ġdoit": 2045,
      "Ġprix": 2046,
      "avoir": 2047,
      "serv": 2048,
      "Ġroy": 2049,
      "ĠPort": 2050,
      "Ġcamp": 2051,
      "itre": 2052,
      "Ġface": 2053,
      "Ġenviron": 2054,
      "ĠRÃ©p": 2055,
      "ĠFranÃ§ois": 2056,
      "Ġsup": 2057,
      "Ġdroit": 2058,
      "Ġjeu": 2059,
      "Ã¨ces": 2060,
      "ication": 2061,
      "tifs": 2062,
      "ĠÅĵuv": 2063,
      "ĠAnn": 2064,
      "Ġpoint": 2065,
      "Ġphot": 2066,
      "ĠPat": 2067,
      "ames": 2068,
      "ĠrÃ©c": 2069,
      "Ġtu": 2070,
      "igue": 2071,
      "Ġdemande": 2072,
      "59": 2073,
      "Ġcad": 2074,
      "dia": 2075,
      "Ġsucc": 2076,
      "ipÃ©dia": 2077,
      "isl": 2078,
      "Ġclass": 2079,
      "iche": 2080,
      "Ġmise": 2081,
      "ĠpÃ¨re": 2082,
      "iment": 2083,
      "Ġ2002": 2084,
      "Ġconserv": 2085,
      "ĠPays": 2086,
      "ĠEd": 2087,
      "ĠTra": 2088,
      "ĠrÃ©v": 2089,
      "eb": 2090,
      "Ġmusique": 2091,
      "ĠdÃ©veloppe": 2092,
      "Ġpers": 2093,
      "ĠÃ©quip": 2094,
      "Ġtot": 2095,
      "Ġpermet": 2096,
      "Ġ1999": 2097,
      "Ġrapport": 2098,
      "Ġadminist": 2099,
      "ĠLors": 2100,
      "Ġproduction": 2101,
      "Ġappar": 2102,
      "Ġ100": 2103,
      "ĠMais": 2104,
      "ĠGuerre": 2105,
      "reg": 2106,
      "ĠdÃ©si": 2107,
      "Ġexemple": 2108,
      "ĠsituÃ©": 2109,
      "ical": 2110,
      "Ġnombreux": 2111,
      "rid": 2112,
      "Ġniveau": 2113,
      "Ġouv": 2114,
      "Ġarticles": 2115,
      "Ġscientif": 2116,
      "06": 2117,
      "tionn": 2118,
      "ald": 2119,
      "ĠÃ©conom": 2120,
      "ian": 2121,
      "Ġbl": 2122,
      "Ġpersonnes": 2123,
      "49": 2124,
      "ĠCes": 2125,
      "Ġservice": 2126,
      "ribution": 2127,
      "did": 2128,
      "Ġess": 2129,
      "ĠAut": 2130,
      "Ġfootball": 2131,
      "Ġaur": 2132,
      "Ġsuis": 2133,
      "86": 2134,
      "cident": 2135,
      "ĠÃ©crit": 2136,
      "erne": 2137,
      "Ã©min": 2138,
      "47": 2139,
      "neur": 2140,
      "ĠInter": 2141,
      "Ġnum": 2142,
      "Ġhomme": 2143,
      "rang": 2144,
      "ociation": 2145,
      "Ġmondiale": 2146,
      "Ġreste": 2147,
      "Ġcro": 2148,
      "ission": 2149,
      "Ġ2025": 2150,
      "lab": 2151,
      "ĠYork": 2152,
      "Ġprend": 2153,
      "Ġdoc": 2154,
      "Ġ2001": 2155,
      "ĠDu": 2156,
      "Ã©rique": 2157,
      "ĠGar": 2158,
      "ott": 2159,
      "Ġmembre": 2160,
      "Ġtex": 2161,
      "ĠnommÃ©": 2162,
      "La": 2163,
      "ĠXX": 2164,
      "ĠÃ©tant": 2165,
      "Ã©tique": 2166,
      "inf": 2167,
      "cipe": 2168,
      "Ġmilli": 2169,
      "rich": 2170,
      "Ġtravail": 2171,
      "rom": 2172,
      "Ġ1990": 2173,
      "Ġinsc": 2174,
      "avid": 2175,
      "Ġali": 2176,
      "Ġrempl": 2177,
      "ung": 2178,
      "Ġbritannique": 2179,
      "jÃł": 2180,
      "01": 2181,
      "ĠÐ": 2182,
      "Ġpouvoir": 2183,
      "ĠbÃ¢ti": 2184,
      "ovi": 2185,
      "ition": 2186,
      "cons": 2187,
      "ĠFC": 2188,
      "Ġsimp": 2189,
      "mont": 2190,
      "alisation": 2191,
      "Ġjours": 2192,
      "Ġliste": 2193,
      "Ġend": 2194,
      "Ġpra": 2195,
      "Ġtoujours": 2196,
      "ĠÃ©lect": 2197,
      "Ã¨rent": 2198,
      "Ġfemme": 2199,
      "Ġlog": 2200,
      "ultÃ©": 2201,
      "ll": 2202,
      "ute": 2203,
      "jourd": 2204,
      "ĠIls": 2205,
      "Ġsouvent": 2206,
      "Ã©qu": 2207,
      "otre": 2208,
      "prise": 2209,
      "anton": 2210,
      "Åĵur": 2211,
      "Â«": 2212,
      "ĠdÃ©fin": 2213,
      "Ġblan": 2214,
      "Ġref": 2215,
      "Ġroman": 2216,
      "uvent": 2217,
      "Europe": 2218,
      "ĠGi": 2219,
      "Ġtoutes": 2220,
      "unes": 2221,
      "ĠÃ©taient": 2222,
      "AR": 2223,
      "Ġchans": 2224,
      "Ġense": 2225,
      "oise": 2226,
      "Ġsources": 2227,
      "erc": 2228,
      "talie": 2229,
      "ĠSan": 2230,
      "Ġbeau": 2231,
      "ĠSec": 2232,
      "Ġ'": 2233,
      "Ġchaque": 2234,
      "Ġ1998": 2235,
      "ds": 2236,
      "Ã©glise": 2237,
      "da": 2238,
      "lande": 2239,
      "estiv": 2240,
      "auv": 2241,
      "alt": 2242,
      "Ġstyle": 2243,
      "Ġcoup": 2244,
      "Ã§on": 2245,
      "54": 2246,
      "Ġprom": 2247,
      "con": 2248,
      "Ġparc": 2249,
      "Ġrep": 2250,
      "78": 2251,
      "ennent": 2252,
      "illiam": 2253,
      "ume": 2254,
      "Ġmembres": 2255,
      "ĠMarie": 2256,
      "ellement": 2257,
      "Ġvit": 2258,
      "uk": 2259,
      "leur": 2260,
      "for": 2261,
      "uire": 2262,
      "Ġcet": 2263,
      "ham": 2264,
      "Ġcath": 2265,
      "Ġraison": 2266,
      "rog": 2267,
      "lec": 2268,
      "uments": 2269,
      "Ġanglais": 2270,
      "Ġrap": 2271,
      "ĠdÃ©jÃł": 2272,
      "ĠscÃ¨ne": 2273,
      "Ġporte": 2274,
      "ĠMin": 2275,
      "Ġsyn": 2276,
      "ĠBou": 2277,
      "Ġancien": 2278,
      "Ġins": 2279,
      "ĠRÃ©s": 2280,
      "Ġconst": 2281,
      "enir": 2282,
      "ysi": 2283,
      "ĠmÃ©": 2284,
      "tÃ©rieur": 2285,
      "32": 2286,
      "orth": 2287,
      "Ġposs": 2288,
      "duit": 2289,
      "Ġdurant": 2290,
      "Ġto": 2291,
      "ĠcaractÃ©ris": 2292,
      "57": 2293,
      "och": 2294,
      "Ã¨rement": 2295,
      "issement": 2296,
      "reur": 2297,
      "uve": 2298,
      "ĠChe": 2299,
      "Ġinternational": 2300,
      "ĠBen": 2301,
      "Ġdit": 2302,
      "ĠAlex": 2303,
      "Ġpeuvent": 2304,
      "Ġpropos": 2305,
      "ĠWikipÃ©dia": 2306,
      "Ġmilitaire": 2307,
      "eth": 2308,
      "Ġseul": 2309,
      "ym": 2310,
      "Ġrev": 2311,
      "aye": 2312,
      "ĠsystÃ¨me": 2313,
      "Ġ188": 2314,
      "jor": 2315,
      "Ġtype": 2316,
      "ĠprÃ©sente": 2317,
      "ĠcarriÃ¨re": 2318,
      "Ġcal": 2319,
      "ude": 2320,
      "Am": 2321,
      "ception": 2322,
      "ĠÃ©quipe": 2323,
      "Ġcapit": 2324,
      "estival": 2325,
      "Ġgl": 2326,
      "NE": 2327,
      "Ġchampionnat": 2328,
      "Ġsera": 2329,
      "aude": 2330,
      "risti": 2331,
      "yc": 2332,
      "aprÃ¨s": 2333,
      "Ġcinq": 2334,
      "enu": 2335,
      "Ġid": 2336,
      "ĠsupÃ©rie": 2337,
      "lles": 2338,
      "pt": 2339,
      "100": 2340,
      "ĠSu": 2341,
      "ĠPer": 2342,
      "ĠJacques": 2343,
      "ĠamÃ©ricaine": 2344,
      "berg": 2345,
      "Ġcertains": 2346,
      "ĠDavid": 2347,
      "Ġministre": 2348,
      "Ġmodi": 2349,
      "77": 2350,
      "Ġhum": 2351,
      "Ġauc": 2352,
      "Ġ50": 2353,
      "Ġtravers": 2354,
      "Ã¨ge": 2355,
      "ĠCas": 2356,
      "dien": 2357,
      "ĠDur": 2358,
      "Ġprovince": 2359,
      "Ġprofes": 2360,
      "Ġpoints": 2361,
      "urt": 2362,
      "Ġsujet": 2363,
      "ampionnats": 2364,
      "lant": 2365,
      "exp": 2366,
      "Ġolympiques": 2367,
      "oÃ¯": 2368,
      "bourg": 2369,
      "ĠchÃ¢teau": 2370,
      "Ġhistorique": 2371,
      "Ġmot": 2372,
      "ĠGÃ©": 2373,
      "Ġtit": 2374,
      "ĠFor": 2375,
      "auteur": 2376,
      "ood": 2377,
      "Ġvoit": 2378,
      "ĠLib": 2379,
      "tein": 2380,
      "ĠPrÃ©": 2381,
      "ira": 2382,
      "asion": 2383,
      "ĠtroisiÃ¨me": 2384,
      "oz": 2385,
      "ĠWilliam": 2386,
      "Ġversion": 2387,
      "ĠrÃ©alisÃ©": 2388,
      "Ġreconn": 2389,
      "51": 2390,
      "oration": 2391,
      "stall": 2392,
      "atoire": 2393,
      "alisme": 2394,
      "cupation": 2395,
      "ĠRÃ©publique": 2396,
      "Je": 2397,
      "tier": 2398,
      "ĠNic": 2399,
      "ainte": 2400,
      "quelle": 2401,
      "agit": 2402,
      "ĠÃ©tab": 2403,
      "eter": 2404,
      "Ġnouv": 2405,
      "52": 2406,
      "ĠLu": 2407,
      "vo": 2408,
      "ocra": 2409,
      "chi": 2410,
      "ark": 2411,
      "rict": 2412,
      "41": 2413,
      "oseph": 2414,
      "rant": 2415,
      "Ġretour": 2416,
      "anie": 2417,
      "ĠMarc": 2418,
      "ĠMor": 2419,
      "Ġfais": 2420,
      "Ġrend": 2421,
      "Ġsix": 2422,
      "Ġvict": 2423,
      "Ġrelig": 2424,
      "Ġ).": 2425,
      "ĠMichel": 2426,
      "ates": 2427,
      "Ġmaison": 2428,
      "ustral": 2429,
      "43": 2430,
      "ulaire": 2431,
      "Ã©bec": 2432,
      "Ġjoueur": 2433,
      "ĠHistor": 2434,
      "Ġbou": 2435,
      "ĠMad": 2436,
      "tra": 2437,
      "Ġsci": 2438,
      "sort": 2439,
      "ĠBro": 2440,
      "alog": 2441,
      "aci": 2442,
      "Ġlaquelle": 2443,
      "ende": 2444,
      "Ġsein": 2445,
      "Ġsort": 2446,
      "col": 2447,
      "09": 2448,
      "iver": 2449,
      "Ġfemmes": 2450,
      "aite": 2451,
      "ĠSer": 2452,
      "anne": 2453,
      "Ġrecherche": 2454,
      "Ġalbum": 2455,
      "ĠRich": 2456,
      "once": 2457,
      "08": 2458,
      "Ġtable": 2459,
      "ĠBra": 2460,
      "Ġcela": 2461,
      "fe": 2462,
      "Ã¨que": 2463,
      "ĠSelon": 2464,
      "ĠÅ": 2465,
      "aqu": 2466,
      "Ġqualif": 2467,
      "ĠLond": 2468,
      "action": 2469,
      "ource": 2470,
      "Ġofficiel": 2471,
      "Ã©mie": 2472,
      "Ġgenre": 2473,
      "Åį": 2474,
      "Ġmat": 2475,
      "roph": 2476,
      "ĠlittÃ©": 2477,
      "ica": 2478,
      "Ã¢ce": 2479,
      "Ġpol": 2480,
      "viÃ¨re": 2481,
      "dit": 2482,
      "ĠMc": 2483,
      "ĠCour": 2484,
      "Ġpremiers": 2485,
      "Ġmouve": 2486,
      "ouverte": 2487,
      "Ġpriv": 2488,
      "ographique": 2489,
      "ĠtÃªte": 2490,
      "Ġproc": 2491,
      "Ġcontribu": 2492,
      "Ġroute": 2493,
      "assin": 2494,
      "ky": 2495,
      "Ġzone": 2496,
      "Ġgauche": 2497,
      "Ġchap": 2498,
      "grÃ©": 2499,
      "autre": 2500,
      "ĠrÃ¨g": 2501,
      "ĠtÃ©lÃ©vis": 2502,
      "ĠÃ©ch": 2503,
      "ĠRec": 2504,
      "Ã©ch": 2505,
      "07": 2506,
      "erve": 2507,
      "ĠmÃ©d": 2508,
      "ĠConse": 2509,
      "ĠcrÃ©ation": 2510,
      "rÃªt": 2511,
      "cte": 2512,
      "ublic": 2513,
      "ĠCo": 2514,
      "mÃªme": 2515,
      "ĠcÃ©": 2516,
      "tation": 2517,
      "Ġjeune": 2518,
      "ĠMil": 2519,
      "Ġitalien": 2520,
      "ippe": 2521,
      "glise": 2522,
      "ĠGra": 2523,
      "Ġdirection": 2524,
      "ĠFilm": 2525,
      "ĠRou": 2526,
      "Ġadministra": 2527,
      "42": 2528,
      "ĠÃ§": 2529,
      "coup": 2530,
      "ĠCanada": 2531,
      "ĠBern": 2532,
      "Ã©tition": 2533,
      "frique": 2534,
      "ĠNo": 2535,
      "titution": 2536,
      "Ã©f": 2537,
      "tite": 2538,
      "ĠcinÃ©ma": 2539,
      "ords": 2540,
      "ary": 2541,
      "Ġlarge": 2542,
      "Ġ1996": 2543,
      "ld": 2544,
      "gh": 2545,
      "men": 2546,
      "02": 2547,
      "ustrie": 2548,
      "Ġvoy": 2549,
      "Ġlim": 2550,
      "lÃ©ment": 2551,
      "Ġsal": 2552,
      "ĠpubliÃ©": 2553,
      "Ġfille": 2554,
      "cussion": 2555,
      "Ġ1997": 2556,
      "Ġnous": 2557,
      "Ġrejoin": 2558,
      "ortÃ©": 2559,
      "Ġhe": 2560,
      "armÃ©e": 2561,
      "ael": 2562,
      "Ġâī": 2563,
      "uf": 2564,
      "itt": 2565,
      "ĠdÃ©veloppement": 2566,
      "Esp": 2567,
      "uy": 2568,
      "oni": 2569,
      "ĠsiÃ¨ge": 2570,
      "France": 2571,
      "cal": 2572,
      "ĠÃ§a": 2573,
      "Ġenfants": 2574,
      "ĠLi": 2575,
      "Ġpasse": 2576,
      "ieur": 2577,
      "ainque": 2578,
      "05": 2579,
      "Ġmag": 2580,
      "67": 2581,
      "Ãªque": 2582,
      "ario": 2583,
      "ĠdÃ¨s": 2584,
      "cis": 2585,
      "Ġscientifique": 2586,
      "Ã©die": 2587,
      "ĠCap": 2588,
      "Ġvari": 2589,
      "esseur": 2590,
      "ena": 2591,
      "Ġdate": 2592,
      "Ã«l": 2593,
      "ino": 2594,
      "hÃ´": 2595,
      "Ġactiv": 2596,
      "Ġpermett": 2597,
      "Ġconcern": 2598,
      "Ġconstruction": 2599,
      "rond": 2600,
      "03": 2601,
      "ĠJo": 2602,
      "Ġfig": 2603,
      "ĠÃ©tudes": 2604,
      "Ġmoi": 2605,
      "hi": 2606,
      "dam": 2607,
      "ani": 2608,
      "xim": 2609,
      "Ġeffet": 2610,
      "Ġ1995": 2611,
      "ĠâīĪ": 2612,
      "Ġprofessionn": 2613,
      "Ġmari": 2614,
      "ouss": 2615,
      "part": 2616,
      "ĠDel": 2617,
      "Ġlongue": 2618,
      "Ã¨ve": 2619,
      "ura": 2620,
      "we": 2621,
      "Ġdivers": 2622,
      "As": 2623,
      "Ġsols": 2624,
      "illeurs": 2625,
      "ĠfÃ©min": 2626,
      "ĠCons": 2627,
      "53": 2628,
      "ĠSociÃ©tÃ©": 2629,
      "estre": 2630,
      "ĠvidÃ©": 2631,
      "Ġsuivant": 2632,
      "Ġposte": 2633,
      "ĠcrÃ©Ã©": 2634,
      "ĠThom": 2635,
      "ĠVer": 2636,
      "Ġpris": 2637,
      "formation": 2638,
      "Cl": 2639,
      "Ãªt": 2640,
      "Ġceux": 2641,
      "ĠClub": 2642,
      "Ġ1991": 2643,
      "pond": 2644,
      "99": 2645,
      "ĠMerci": 2646,
      "ĠRuss": 2647,
      "Ġnombreuses": 2648,
      "yon": 2649,
      "ĠBelg": 2650,
      "Ġ31": 2651,
      "ible": 2652,
      "raire": 2653,
      "ĠNation": 2654,
      "olique": 2655,
      "aces": 2656,
      "ĠrÃ©fÃ©rence": 2657,
      "ĠRom": 2658,
      "ĠQuÃ©bec": 2659,
      "Ã¨mes": 2660,
      "212": 2661,
      "Ġap": 2662,
      "Ġprincipale": 2663,
      "ks": 2664,
      "atif": 2665,
      "04": 2666,
      "Car": 2667,
      "my": 2668,
      "Ġhabitants": 2669,
      "ives": 2670,
      "ĠCro": 2671,
      "ĠXV": 2672,
      "Ð°": 2673,
      "Ġcorps": 2674,
      "orÃ©": 2675,
      "ĠCal": 2676,
      "Ġobten": 2677,
      "Ġpropri": 2678,
      "illon": 2679,
      "ĠAg": 2680,
      "Ġ1980": 2681,
      "ĠdÃ©couvert": 2682,
      "68": 2683,
      "avant": 2684,
      "ĠGl": 2685,
      "ĠCentre": 2686,
      "ĠMartin": 2687,
      "Ġcontr": 2688,
      "Ġvoir": 2689,
      "Ġurb": 2690,
      "Ġ1994": 2691,
      "Ġstat": 2692,
      "Ġci": 2693,
      "Ġdessin": 2694,
      "Ġprogram": 2695,
      "uÃ©": 2696,
      "ices": 2697,
      "vie": 2698,
      "Ã©poque": 2699,
      "ĠdÃ©cl": 2700,
      "Ġfont": 2701,
      "ĠPlus": 2702,
      "Ã¨nes": 2703,
      "dec": 2704,
      "idi": 2705,
      "key": 2706,
      ")..": 2707,
      "Ġbr": 2708,
      "Ġconnu": 2709,
      "Ġ1992": 2710,
      "Ġremporte": 2711,
      "ker": 2712,
      "ĠcÃ´tÃ©": 2713,
      "Ġchampion": 2714,
      "ĠcommunautÃ©": 2715,
      "Ġhommes": 2716,
      "Ġloi": 2717,
      "ĠFer": 2718,
      "ĠKar": 2719,
      "Ã©on": 2720,
      "tie": 2721,
      "ĠSam": 2722,
      "Ġplu": 2723,
      "ardin": 2724,
      "Ġsortie": 2725,
      "Ġlivre": 2726,
      "ber": 2727,
      "sy": 2728,
      "aris": 2729,
      "Ġmarqu": 2730,
      "ĠÃ©quipes": 2731,
      "Ġdivision": 2732,
      "ĠdÃ©rou": 2733,
      "itaires": 2734,
      "Ġcher": 2735,
      "Saint": 2736,
      "Ġve": 2737,
      "Ġunivers": 2738,
      "Ġassoci": 2739,
      "lÃ¨ve": 2740,
      "respond": 2741,
      "Ġsemble": 2742,
      "of": 2743,
      "Ġclassi": 2744,
      "Ã´me": 2745,
      "Ġfort": 2746,
      "Ġeu": 2747,
      "Ġviol": 2748,
      "Ġquand": 2749,
      "Ã©dition": 2750,
      "Ġ1988": 2751,
      "Ġaj": 2752,
      "Ġseu": 2753,
      "roÃ¯": 2754,
      "AS": 2755,
      "pec": 2756,
      "ama": 2757,
      "vre": 2758,
      "erce": 2759,
      "Ġespagn": 2760,
      "less": 2761,
      "atives": 2762,
      "Ġdevant": 2763,
      "ĠespÃ¨ce": 2764,
      "Ġarch": 2765,
      "titut": 2766,
      "Ġmilieu": 2767,
      "ĠPas": 2768,
      "leurs": 2769,
      "Ġconstitu": 2770,
      "Ġformation": 2771,
      "Ð¾": 2772,
      "Ġhaut": 2773,
      "Ġfac": 2774,
      "ola": 2775,
      "ĠderniÃ¨re": 2776,
      "iki": 2777,
      "Ġbeaucoup": 2778,
      "tice": 2779,
      "ĠsuccÃ¨s": 2780,
      "dess": 2781,
      "ĠÃ©lections": 2782,
      "rages": 2783,
      "ĠprÃ©cÃ©d": 2784,
      "posi": 2785,
      "Ġsem": 2786,
      "agnie": 2787,
      "ney": 2788,
      "aly": 2789,
      "Ġaujourd": 2790,
      "Ġcadre": 2791,
      "Ġinscrit": 2792,
      "acÃ©": 2793,
      "ĠNouvelle": 2794,
      "Personn": 2795,
      "Ġva": 2796,
      "terre": 2797,
      "ĠVol": 2798,
      "Ġanim": 2799,
      "own": 2800,
      "ĠWe": 2801,
      "Ġbois": 2802,
      "omin": 2803,
      "Ġbel": 2804,
      "Ġquarti": 2805,
      "Ġmoyenne": 2806,
      "ĠmodÃ¨le": 2807,
      "Ġis": 2808,
      "Ġcommence": 2809,
      "ĠmusÃ©e": 2810,
      "Ġcanton": 2811,
      "time": 2812,
      "ologne": 2813,
      "Ġ1970": 2814,
      "Ġtrop": 2815,
      "ielle": 2816,
      "Ġtechnique": 2817,
      "ĠJapon": 2818,
      "lit": 2819,
      "Ġ1993": 2820,
      "za": 2821,
      "ainqueur": 2822,
      "ĠKe": 2823,
      "ĠGen": 2824,
      "Ġrencontre": 2825,
      "75": 2826,
      "andis": 2827,
      "Ġrapide": 2828,
      "oign": 2829,
      "onie": 2830,
      "ĠCel": 2831,
      "ĠCam": 2832,
      "ources": 2833,
      "ĠConseil": 2834,
      "rite": 2835,
      "lic": 2836,
      "Ġsource": 2837,
      "isse": 2838,
      "ourt": 2839,
      "Ġpal": 2840,
      "Ġjapon": 2841,
      "Ġmeilleur": 2842,
      "ĠChampionnat": 2843,
      "lique": 2844,
      "Ġ*": 2845,
      "onneur": 2846,
      "Union": 2847,
      "ĠAs": 2848,
      "Ġparticuli": 2849,
      "ĠgrÃ¢ce": 2850,
      "oile": 2851,
      "ĠBo": 2852,
      "Ġtravaill": 2853,
      "und": 2854,
      "Ġviv": 2855,
      "The": 2856,
      "Ġlangue": 2857,
      "orter": 2858,
      "ĠVict": 2859,
      "ĠBonjour": 2860,
      "utes": 2861,
      "umi": 2862,
      "Ġmine": 2863,
      "ĠHenri": 2864,
      "landais": 2865,
      "tern": 2866,
      "ave": 2867,
      "Ġtravaux": 2868,
      "ĠMag": 2869,
      "ĠSim": 2870,
      "Ġmet": 2871,
      "tivement": 2872,
      "Ġserait": 2873,
      "osi": 2874,
      "ĠGre": 2875,
      "ports": 2876,
      "Ġdemand": 2877,
      "Ġchange": 2878,
      "Ġdispar": 2879,
      "tÃ©roÃ¯": 2880,
      "ĠlÃ©gisl": 2881,
      "Ġquestion": 2882,
      "ĠDepuis": 2883,
      "otte": 2884,
      "rivain": 2885,
      "Ġterme": 2886,
      "Ġparticipe": 2887,
      "ĠThÃ©": 2888,
      "ĠSite": 2889,
      "Ġcommand": 2890,
      "ko": 2891,
      "ĠJoseph": 2892,
      "Ġdonne": 2893,
      "ĠWh": 2894,
      "ĠTur": 2895,
      "ĠutilisÃ©": 2896,
      "89": 2897,
      "olas": 2898,
      "urÃ©": 2899,
      "cide": 2900,
      "71": 2901,
      "uest": 2902,
      "ĠsÃ©lection": 2903,
      "tout": 2904,
      "Ġconseil": 2905,
      "ions": 2906,
      "Ġfeu": 2907,
      "Ġbande": 2908,
      "ĠmaÃ®": 2909,
      "ĠdÃ©sign": 2910,
      "ĠDou": 2911,
      "Ġ<": 2912,
      "ĠintÃ©g": 2913,
      "ĠthÃ©Ã¢tre": 2914,
      "69": 2915,
      "ĠChampion": 2916,
      "Ġbon": 2917,
      "inÃ©": 2918,
      "ĠconsidÃ©rÃ©": 2919,
      "Ġsens": 2920,
      "Ġcorrespond": 2921,
      "Ġchanson": 2922,
      "ĠSant": 2923,
      "Pierre": 2924,
      "temps": 2925,
      "ĠDeux": 2926,
      "ĠtÃ©lÃ©visÃ©e": 2927,
      "ensemble": 2928,
      "ĠnumÃ©ro": 2929,
      "Ġni": 2930,
      "value": 2931,
      "83": 2932,
      "Ġmom": 2933,
      "Ġdix": 2934,
      "ĠvidÃ©o": 2935,
      "face": 2936,
      "Jean": 2937,
      "ĠrÃ©seau": 2938,
      "Ġtradition": 2939,
      "Ġ(),": 2940,
      "Ġill": 2941,
      "leterre": 2942,
      "Ġfra": 2943,
      "bel": 2944,
      "Ġchar": 2945,
      "Ġsuper": 2946,
      "jec": 2947,
      "Ġmajor": 2948,
      "balle": 2949,
      "ĠEt": 2950,
      "go": 2951,
      "Ġdroite": 2952,
      "rimoine": 2953,
      "Ġproduit": 2954,
      "eff": 2955,
      "fication": 2956,
      "Ġautom": 2957,
      "Ġtomb": 2958,
      "='": 2959,
      "Ġdel": 2960,
      "voir": 2961,
      "Ġimm": 2962,
      "ĠRome": 2963,
      "Ã©pend": 2964,
      "rondissement": 2965,
      "Ġjam": 2966,
      "data": 2967,
      "ĠcomtÃ©": 2968,
      "anique": 2969,
      "album": 2970,
      "argent": 2971,
      "osc": 2972,
      "ied": 2973,
      "ĠDist": 2974,
      "Ġval": 2975,
      "ight": 2976,
      "dire": 2977,
      "na": 2978,
      "raine": 2979,
      "mpire": 2980,
      "ĠfÃ©d": 2981,
      "Ġunique": 2982,
      "ĠEsp": 2983,
      "ĠEurope": 2984,
      "Ð¸": 2985,
      "PersonnalitÃ©": 2986,
      "ĠfrÃ©": 2987,
      "ĠLigue": 2988,
      "ĠMat": 2989,
      "Ġrusse": 2990,
      "oud": 2991,
      "Ã®le": 2992,
      "ĠdiffÃ©rentes": 2993,
      "abord": 2994,
      "Ġparticulier": 2995,
      "ĠAw": 2996,
      "arc": 2997,
      "Ang": 2998,
      "Ġcrois": 2999,
      "ĠdiffÃ©rents": 3000,
      "anci": 3001,
      "Ġ1989": 3002,
      "Ġdemi": 3003,
      "Ġpres": 3004,
      "Ġenv": 3005,
      "onyme": 3006,
      "ĠmÃ¨re": 3007,
      "yr": 3008,
      "uisse": 3009,
      "Ġcandid": 3010,
      "Ġmul": 3011,
      "ĠBas": 3012,
      "Ġlibre": 3013,
      "Ġfaut": 3014,
      "ĠCent": 3015,
      "Ġseulement": 3016,
      "ablement": 3017,
      "ĠÃ©l": 3018,
      "ĠLondres": 3019,
      "inture": 3020,
      "Ġlanc": 3021,
      "gne": 3022,
      "Ġsignif": 3023,
      "aug": 3024,
      "Ġpages": 3025,
      "ĠAvec": 3026,
      "Ġexpl": 3027,
      "'|": 3028,
      "Ġserv": 3029,
      "oux": 3030,
      "Ġailleurs": 3031,
      "Ġclimat": 3032,
      "Ġmas": 3033,
      "Ġparmi": 3034,
      "va": 3035,
      "ĠnÃ©cess": 3036,
      "tienne": 3037,
      "62": 3038,
      "ĠEr": 3039,
      "anisation": 3040,
      "Ã©cur": 3041,
      "dy": 3042,
      "yclop": 3043,
      "ĠChrist": 3044,
      "ĠBelgique": 3045,
      "Ġsais": 3046,
      "aÃ®tre": 3047,
      ".)": 3048,
      "Ġtyp": 3049,
      "ĠÃ©tudi": 3050,
      "Ġeffect": 3051,
      "SS": 3052,
      "net": 3053,
      "Com": 3054,
      "Ġjamais": 3055,
      "ĠAlexand": 3056,
      "fi": 3057,
      "Ã©ment": 3058,
      "Ġradi": 3059,
      "Ġdo": 3060,
      "Ġvue": 3061,
      "79": 3062,
      "onse": 3063,
      ";'|": 3064,
      "Ã¡n": 3065,
      "center": 3066,
      "65": 3067,
      "titude": 3068,
      "ttp": 3069,
      "sembl": 3070,
      "ĠCont": 3071,
      "Est": 3072,
      "ye": 3073,
      "Ġpersonne": 3074,
      "iÃ¨res": 3075,
      "72": 3076,
      "88": 3077,
      "nel": 3078,
      "orde": 3079,
      "Ġquit": 3080,
      "ĠVi": 3081,
      "posÃ©": 3082,
      "Ġobserv": 3083,
      "Ġord": 3084,
      "ĠThomas": 3085,
      "ignes": 3086,
      "abb": 3087,
      "ĠMÃ©d": 3088,
      "ĠmaniÃ¨re": 3089,
      "Ġalign": 3090,
      "ket": 3091,
      "Ġdestin": 3092,
      "ĠPhilippe": 3093,
      "ĠmÃ©th": 3094,
      "ĠEm": 3095,
      "Ġeng": 3096,
      "marÃ¨s": 3097,
      "61": 3098,
      "Ph": 3099,
      "Ġincl": 3100,
      "volution": 3101,
      "Ġbataille": 3102,
      "Ġbord": 3103,
      "Ġtandis": 3104,
      "Ġdirecteur": 3105,
      "sibilitÃ©": 3106,
      "Ġpeintre": 3107,
      "ĠMac": 3108,
      "Ġiniti": 3109,
      "vention": 3110,
      "âĢ¦": 3111,
      "Ġcause": 3112,
      "Ġtri": 3113,
      "Ġsus": 3114,
      "ĠeuropÃ©enne": 3115,
      "Ie": 3116,
      "tte": 3117,
      "64": 3118,
      "atrice": 3119,
      "occupation": 3120,
      "Ab": 3121,
      "sive": 3122,
      "mment": 3123,
      "ington": 3124,
      "inc": 3125,
      "Ġarg": 3126,
      "Ġaurait": 3127,
      "Ġdocument": 3128,
      "Les": 3129,
      "atin": 3130,
      "ĠAc": 3131,
      "Ġvra": 3132,
      "Ġparfois": 3133,
      "ĠTrans": 3134,
      "Ġmoyen": 3135,
      "igh": 3136,
      "ĠForm": 3137,
      "ory": 3138,
      "Ġici": 3139,
      "Ġdistrict": 3140,
      "Ġpetite": 3141,
      "atur": 3142,
      "Ġ1971": 3143,
      "Ġconsac": 3144,
      "ĠJames": 3145,
      "idae": 3146,
      "ĠKh": 3147,
      "parti": 3148,
      "bles": 3149,
      "dÃ©": 3150,
      "2020": 3151,
      "Ġsuivante": 3152,
      "Ġinform": 3153,
      "tine": 3154,
      "Ġempl": 3155,
      "stes": 3156,
      "Ġresp": 3157,
      "Ġ1960": 3158,
      "Ġcollab": 3159,
      "Ġsavoir": 3160,
      "ford": 3161,
      "ĠClasse": 3162,
      "Ġnouvelles": 3163,
      "Ġstation": 3164,
      "empl": 3165,
      "Ġsuff": 3166,
      "Ġchemin": 3167,
      "uil": 3168,
      "ĠSainte": 3169,
      "ta": 3170,
      "Ġobtient": 3171,
      "rir": 3172,
      "ĠChristi": 3173,
      "texte": 3174,
      "mie": 3175,
      "veur": 3176,
      "Ġdomaine": 3177,
      "Ġmesure": 3178,
      "Ġenc": 3179,
      "ren": 3180,
      "St": 3181,
      "Ã¨tre": 3182,
      "rige": 3183,
      "Ġetc": 3184,
      "ueil": 3185,
      "Ã©lection": 3186,
      "ault": 3187,
      "ya": 3188,
      "Ġtent": 3189,
      "Ġvale": 3190,
      "93": 3191,
      "istÃ¨re": 3192,
      "ambre": 3193,
      "ĠCependant": 3194,
      "quÃªte": 3195,
      "ĠGrande": 3196,
      "Ã¢ge": 3197,
      "Ġcana": 3198,
      "Ġmouvement": 3199,
      "Ġsept": 3200,
      "ĠÃ©pouse": 3201,
      "enf": 3202,
      "rÃ©es": 3203,
      "osse": 3204,
      "Ġremar": 3205,
      "Ġmer": 3206,
      "rÃ©t": 3207,
      "Ġmoment": 3208,
      "ĠMi": 3209,
      "Ġposition": 3210,
      "Ġphil": 3211,
      "Ġtrouv": 3212,
      "UniversitÃ©": 3213,
      "ĠAt": 3214,
      "Ġpropre": 3215,
      "ja": 3216,
      "unis": 3217,
      "ĠdÃ©g": 3218,
      "ago": 3219,
      "ĠMaur": 3220,
      "icile": 3221,
      "ĠRichard": 3222,
      "Ġcit": 3223,
      "Ã³n": 3224,
      "ailles": 3225,
      "ĠSup": 3226,
      "Ġphysi": 3227,
      "Ã©tait": 3228,
      "eur": 3229,
      "Ġautour": 3230,
      "mission": 3231,
      "Ġprincipal": 3232,
      "orld": 3233,
      "Ðµ": 3234,
      "Ġhistoriques": 3235,
      "Ġvon": 3236,
      "Ġprobl": 3237,
      "ĠRoyaume": 3238,
      "ita": 3239,
      "ĠSy": 3240,
      "Ġbloc": 3241,
      "reuve": 3242,
      "Pro": 3243,
      "Ġnoir": 3244,
      "Ġsuc": 3245,
      "ĠJu": 3246,
      "ĠJack": 3247,
      "ĠDon": 3248,
      "mond": 3249,
      "yth": 3250,
      "ĠXXe": 3251,
      "ĠVan": 3252,
      "ĠSes": 3253,
      "Ġmaje": 3254,
      "Ġus": 3255,
      "ĠGeorges": 3256,
      "ĠBal": 3257,
      "Ġgrou": 3258,
      "Ġgrands": 3259,
      "74": 3260,
      "rÃ©al": 3261,
      "Ġseule": 3262,
      "ague": 3263,
      "ĠPi": 3264,
      "Ġdisc": 3265,
      "Re": 3266,
      "ĠriviÃ¨re": 3267,
      "Ġpossible": 3268,
      "mann": 3269,
      "Ġris": 3270,
      "ades": 3271,
      "Ġcommerci": 3272,
      "Ġ1986": 3273,
      "ĠRussie": 3274,
      "ĠBeau": 3275,
      "Ġartis": 3276,
      "rÃ©g": 3277,
      "ĠIII": 3278,
      "tim": 3279,
      "ĠDescription": 3280,
      "Ġi": 3281,
      "occ": 3282,
      "Ġ40": 3283,
      "Ġelles": 3284,
      "âĢł": 3285,
      "ĠÃ¢": 3286,
      "2017": 3287,
      "ares": 3288,
      "tives": 3289,
      "uellement": 3290,
      "Uni": 3291,
      "Ġreven": 3292,
      "intÃ©": 3293,
      "ĠNom": 3294,
      "ĠintÃ©": 3295,
      "Ġsurtout": 3296,
      "Ġgal": 3297,
      "ĠGeorge": 3298,
      "Ġdipl": 3299,
      "ĠdÃ©pl": 3300,
      "ultat": 3301,
      "anisme": 3302,
      "osÃ©": 3303,
      "ĠmÃ©dec": 3304,
      "do": 3305,
      "film": 3306,
      "bo": 3307,
      "ĠLuc": 3308,
      "ester": 3309,
      "lÃ¨te": 3310,
      "stitut": 3311,
      "ora": 3312,
      "Ġstru": 3313,
      "ĠnÃ©e": 3314,
      "ĠRos": 3315,
      "Ġclassement": 3316,
      "ĠDemand": 3317,
      "ĠWal": 3318,
      "ĠfrÃ¨re": 3319,
      "ĠrÃ©d": 3320,
      "Me": 3321,
      "ries": 3322,
      "Ġzones": 3323,
      "ĠTer": 3324,
      "ĠÃīc": 3325,
      "Ġjur": 3326,
      "ache": 3327,
      "nÃ©e": 3328,
      "Ġsoi": 3329,
      "Ġ1987": 3330,
      "Ġcat": 3331,
      "Ġcharg": 3332,
      "ĠtÃ©lÃ©vision": 3333,
      "ĠentraÃ®": 3334,
      "ront": 3335,
      "ski": 3336,
      "Ex": 3337,
      "Ġvictoire": 3338,
      "Aut": 3339,
      "itz": 3340,
      "aval": 3341,
      "Ġretr": 3342,
      "Ġjournal": 3343,
      "limin": 3344,
      "Ġmaint": 3345,
      "Ġcourse": 3346,
      "ĠMichael": 3347,
      "Ġ1984": 3348,
      "bl": 3349,
      "Ġinternationale": 3350,
      "Ġquartier": 3351,
      "ĠChine": 3352,
      "Ġtexte": 3353,
      "63": 3354,
      "Ġmain": 3355,
      "Ġiss": 3356,
      "isodes": 3357,
      "environ": 3358,
      "ĠÃ©vol": 3359,
      "ĠAss": 3360,
      "rÃ©sil": 3361,
      "Ġmarque": 3362,
      "Ġdiffus": 3363,
      "ĠJuli": 3364,
      "ĠLo": 3365,
      "Ġfai": 3366,
      "ĠAllemagne": 3367,
      "Ġmatchs": 3368,
      "Ġseconde": 3369,
      "Ã©cole": 3370,
      "Ġvilles": 3371,
      "arde": 3372,
      "eux": 3373,
      "ilis": 3374,
      "ĠEst": 3375,
      "aie": 3376,
      "Bas": 3377,
      "ĠLang": 3378,
      "Ã©si": 3379,
      "US": 3380,
      "ouvre": 3381,
      "Ġcul": 3382,
      "ĠpremiÃ¨res": 3383,
      "Ġ150": 3384,
      "Ġnavi": 3385,
      "homme": 3386,
      "ji": 3387,
      "ĠmÃ¨tres": 3388,
      "ĠdonnÃ©": 3389,
      "Ġexiste": 3390,
      "ockey": 3391,
      "Ġinstall": 3392,
      "189": 3393,
      "Ġcomprend": 3394,
      "ĠÃ©lu": 3395,
      "73": 3396,
      "Ġmillions": 3397,
      "avec": 3398,
      "ager": 3399,
      "ĠÃ©pisode": 3400,
      "Ġpub": 3401,
      "Ġprincipalement": 3402,
      "Ġatte": 3403,
      "ĠlÃł": 3404,
      "Ġ(âĢł": 3405,
      "ĠJus": 3406,
      "ogne": 3407,
      "til": 3408,
      "acement": 3409,
      "ĠÃīt": 3410,
      "den": 3411,
      "Ġlequel": 3412,
      "ĠTor": 3413,
      "roit": 3414,
      "hab": 3415,
      "Ġmettre": 3416,
      "Ġpil": 3417,
      "Ġconstr": 3418,
      "ĠAnt": 3419,
      "ĠArch": 3420,
      "Ġfourn": 3421,
      "2009": 3422,
      "don": 3423,
      "sk": 3424,
      "Ġchois": 3425,
      "Ġcertaines": 3426,
      "balleur": 3427,
      "Ġ1985": 3428,
      "ĠPrin": 3429,
      "rive": 3430,
      "ĠbÃ©n": 3431,
      "onomie": 3432,
      "ĠFre": 3433,
      "arn": 3434,
      "Ġeux": 3435,
      "ĠreÃ§oit": 3436,
      "Ġgare": 3437,
      "ancien": 3438,
      "Ġenreg": 3439,
      "Comm": 3440,
      "ĠHol": 3441,
      "anger": 3442,
      "2012": 3443,
      "quent": 3444,
      "Ġprofesseur": 3445,
      "Ġ000": 3446,
      "ĠÅĵuvre": 3447,
      "Ġlance": 3448,
      "ings": 3449,
      "ĠBerlin": 3450,
      "ĠdÃ©velopp": 3451,
      "ignement": 3452,
      "rick": 3453,
      "ficie": 3454,
      "Ġ1982": 3455,
      "ĠTrois": 3456,
      "Ġlorsque": 3457,
      "Ġpolitiques": 3458,
      "\".": 3459,
      "cadÃ©mie": 3460,
      "ek": 3461,
      "ĠSm": 3462,
      "ĠSyn": 3463,
      "ĠUnivers": 3464,
      "Ġcombat": 3465,
      "âĢĶ": 3466,
      "Ġarm": 3467,
      "Ġpu": 3468,
      "Ãīc": 3469,
      "ĠBien": 3470,
      "Ġrejoint": 3471,
      "inn": 3472,
      "Ġsaint": 3473,
      "arb": 3474,
      "ination": 3475,
      "Ġvoix": 3476,
      "ministration": 3477,
      "Ġfurent": 3478,
      "ĠBu": 3479,
      "Ġpours": 3480,
      "85": 3481,
      "Ġmor": 3482,
      "Ġbibli": 3483,
      "Ġcollec": 3484,
      "ĠrÃ©f": 3485,
      "Ġbelge": 3486,
      "Th": 3487,
      "Ġplupart": 3488,
      "Ġconstruit": 3489,
      "Ġindivi": 3490,
      "quant": 3491,
      "Ġrouge": 3492,
      "ĠcatÃ©gorie": 3493,
      "retagne": 3494,
      "Ġcependant": 3495,
      "ĠLI": 3496,
      "ĠprÃ©v": 3497,
      "Ġrespons": 3498,
      "pro": 3499,
      "Ġlaiss": 3500,
      "Ġcommenc": 3501,
      "ĠAngel": 3502,
      "Ġsau": 3503,
      "tection": 3504,
      "essage": 3505,
      "Ġterre": 3506,
      "Allemagne": 3507,
      "Ġrem": 3508,
      "Ġanti": 3509,
      "Ãīt": 3510,
      "ĠTom": 3511,
      "ĠHam": 3512,
      "obile": 3513,
      "Ġpuiss": 3514,
      "ouverture": 3515,
      "Ġuti": 3516,
      "ĠMeille": 3517,
      "Ġmeurt": 3518,
      "illa": 3519,
      "Ġminutes": 3520,
      "Ġ1983": 3521,
      "igneur": 3522,
      "ĠprÃ©sence": 3523,
      "endu": 3524,
      "ope": 3525,
      "ĠÃīditions": 3526,
      "2010": 3527,
      "allÃ©e": 3528,
      "Ġtravaille": 3529,
      "Ġvic": 3530,
      "Ġdroits": 3531,
      "lÃ©ments": 3532,
      "Ġcomment": 3533,
      "sident": 3534,
      "2008": 3535,
      "2000": 3536,
      "Ã©tat": 3537,
      "Ġpont": 3538,
      "ĠÃ©ditions": 3539,
      "ova": 3540,
      "othÃ¨que": 3541,
      "Ã©rer": 3542,
      "utÃ´t": 3543,
      "Ġall": 3544,
      "ĠPalmarÃ¨s": 3545,
      "ĠGÃ©ographie": 3546,
      "Ġ1975": 3547,
      "uts": 3548,
      "ĠscÃ©n": 3549,
      "aide": 3550,
      "ĠSar": 3551,
      "Ġpopulaire": 3552,
      "olf": 3553,
      "ĠLand": 3554,
      "ĠBur": 3555,
      "odie": 3556,
      "enue": 3557,
      "Ġlac": 3558,
      "ĠClaude": 3559,
      "sez": 3560,
      "oyen": 3561,
      "Ġvois": 3562,
      "2016": 3563,
      "Ġpeup": 3564,
      "ĠrÃ©guli": 3565,
      "2013": 3566,
      "ciens": 3567,
      "ĠEntre": 3568,
      "Ġrestaur": 3569,
      "hum": 3570,
      "ĠAll": 3571,
      "Ġmonuments": 3572,
      "2015": 3573,
      "ducation": 3574,
      "Ġcr": 3575,
      "isc": 3576,
      "ingt": 3577,
      "honneur": 3578,
      "ĠBul": 3579,
      "ga": 3580,
      "Ġ...": 3581,
      "Ġkm": 3582,
      "Ġdat": 3583,
      "tempor": 3584,
      "ĠHistorique": 3585,
      "Ġvan": 3586,
      "ĠMontrÃ©al": 3587,
      "ĠPremiÃ¨re": 3588,
      "ĠBernard": 3589,
      "erts": 3590,
      "ĠXI": 3591,
      "81": 3592,
      "ĠdÃ©fense": 3593,
      "quis": 3594,
      "Ġcompt": 3595,
      "outh": 3596,
      "ĠComme": 3597,
      "ĠTitre": 3598,
      "Italie": 3599,
      "ĠcrÃ©Ã©e": 3600,
      "Ġappr": 3601,
      "2021": 3602,
      "cesse": 3603,
      "Ġofficielle": 3604,
      "ĠÅĵuvres": 3605,
      "2014": 3606,
      "ĠprÃ©f": 3607,
      "ĠFestival": 3608,
      "ĠDÃ©m": 3609,
      "ĠÃīp": 3610,
      "ĠSuisse": 3611,
      "Ã©curitÃ©": 3612,
      "agement": 3613,
      "Ġsciences": 3614,
      "Ġprendre": 3615,
      "Ġancienne": 3616,
      "ugby": 3617,
      "antÃ©": 3618,
      "entin": 3619,
      "Ġcop": 3620,
      "Ġservices": 3621,
      "ĠSeconde": 3622,
      "Ġrien": 3623,
      "iat": 3624,
      "Ã©h": 3625,
      "rature": 3626,
      "2007": 3627,
      "Ad": 3628,
      "ĠdÃ©clar": 3629,
      "arts": 3630,
      "Ġvoyage": 3631,
      "ĠproblÃ¨me": 3632,
      "2011": 3633,
      "Ġvotre": 3634,
      "nements": 3635,
      "Ġdirige": 3636,
      "emb": 3637,
      "Ġimportant": 3638,
      "Ġnorm": 3639,
      "van": 3640,
      "itch": 3641,
      "ĠMax": 3642,
      "',": 3643,
      "ologiques": 3644,
      "Ġcritique": 3645,
      "Ġvoie": 3646,
      "ĠÃ©dition": 3647,
      "Ġvu": 3648,
      "ides": 3649,
      "Ġple": 3650,
      "forme": 3651,
      "anth": 3652,
      "Ġoriginale": 3653,
      "Ð½": 3654,
      "Ġpresse": 3655,
      "Ġfinalement": 3656,
      "pen": 3657,
      "Ġsimple": 3658,
      "Ġgroupes": 3659,
      "bi": 3660,
      "ĠCarriÃ¨re": 3661,
      "ĠbÃ¢timent": 3662,
      "ĠFrancis": 3663,
      "Ġlut": 3664,
      "Ġ1981": 3665,
      "quÃ©e": 3666,
      "ĠDen": 3667,
      "Ġnaissance": 3668,
      "Ġarriv": 3669,
      "ĠdÃ©mocra": 3670,
      "Ġsection": 3671,
      "Ġfilms": 3672,
      "Ġjeunes": 3673,
      "Ġproche": 3674,
      "Ġcomte": 3675,
      "Ġfab": 3676,
      "Is": 3677,
      "ĠplutÃ´t": 3678,
      "AT": 3679,
      "ĠnÃ©g": 3680,
      "ĠAndrÃ©": 3681,
      "Ġblanc": 3682,
      "Åĵuvre": 3683,
      "Ġtitres": 3684,
      "2006": 3685,
      "ico": 3686,
      "ĠÃ©lev": 3687,
      "ots": 3688,
      "Ġentrepr": 3689,
      "ettes": 3690,
      "Ġcy": 3691,
      "ĠespÃ¨ces": 3692,
      "arm": 3693,
      "ĠMas": 3694,
      "aro": 3695,
      "Ġcatholique": 3696,
      "Ġspect": 3697,
      "Ġban": 3698,
      "Ġ1976": 3699,
      "NEAR": 3700,
      "Ġpublique": 3701,
      "ĠclassÃ©": 3702,
      "ĠArt": 3703,
      "tisme": 3704,
      "Ġ35": 3705,
      "ettres": 3706,
      "ronze": 3707,
      "ĠMotif": 3708,
      "à¤": 3709,
      "unesse": 3710,
      "comm": 3711,
      "ĠgÃ©nÃ©rale": 3712,
      "ĠrÃ©pond": 3713,
      "AN": 3714,
      "Ġacteur": 3715,
      "ĠÃ®": 3716,
      "Ġ1978": 3717,
      "ĠTop": 3718,
      "ĠFe": 3719,
      "ĠPremier": 3720,
      "fric": 3721,
      "Ġscul": 3722,
      "Empire": 3723,
      "ctures": 3724,
      "Ġactrice": 3725,
      "ĠCat": 3726,
      "ĠRÃ©g": 3727,
      "oule": 3728,
      "ĠdÃ©part": 3729,
      "ĠNational": 3730,
      "chev": 3731,
      "AC": 3732,
      "ivision": 3733,
      "Ġparois": 3734,
      "rad": 3735,
      "lov": 3736,
      "Ġclimatiques": 3737,
      "ala": 3738,
      "ĠMet": 3739,
      "Se": 3740,
      "ires": 3741,
      "umes": 3742,
      "Ã©cu": 3743,
      "Ġcheval": 3744,
      "tivitÃ©": 3745,
      "ĠMusÃ©e": 3746,
      "Ġtels": 3747,
      "iro": 3748,
      "ĠBri": 3749,
      "ĠdÃ©cision": 3750,
      "line": 3751,
      "Ġprod": 3752,
      "ĠrÃ©sultats": 3753,
      "ops": 3754,
      "Ġ1979": 3755,
      "ĠPress": 3756,
      "ĠBos": 3757,
      "ĠDaniel": 3758,
      "Ã¨tes": 3759,
      "Ġtotal": 3760,
      "Ġaccomp": 3761,
      "enz": 3762,
      "ER": 3763,
      "84": 3764,
      "ĠWorld": 3765,
      "ĠdÃ©crit": 3766,
      "Ġ00": 3767,
      "ĠaÃ©ri": 3768,
      "ĠÃ©trang": 3769,
      "Ġdouble": 3770,
      "ĠAlbert": 3771,
      "aix": 3772,
      "ĠSpace": 3773,
      "ĠWil": 3774,
      "ĠLyon": 3775,
      "abilitÃ©": 3776,
      "Ã¨les": 3777,
      "ĠAug": 3778,
      "ĠpÃ©n": 3779,
      "Ġadap": 3780,
      "cÃ©": 3781,
      "ĠAli": 3782,
      "itecture": 3783,
      "ĠcompÃ©tition": 3784,
      "Ġsex": 3785,
      "Ġ1977": 3786,
      "Ġassez": 3787,
      "ĠGo": 3788,
      "iff": 3789,
      "ĠAnnexes": 3790,
      "Afrique": 3791,
      "Ġlien": 3792,
      "Ġcompagnie": 3793,
      "ĠÃ©m": 3794,
      "ĠAndre": 3795,
      "ĠRÃ©sultats": 3796,
      "ĠprotÃ©g": 3797,
      "ĠpossÃ¨de": 3798,
      "ĠVictor": 3799,
      "ols": 3800,
      "ish": 3801,
      "Ġorient": 3802,
      "Ġmaire": 3803,
      "ĠÃ©di": 3804,
      "cier": 3805,
      "Ġallemande": 3806,
      "Ġgrandes": 3807,
      "Ġciv": 3808,
      "Ġnouveaux": 3809,
      "AcadÃ©mie": 3810,
      "Espagne": 3811,
      "Ġ1950": 3812,
      "Ġ1974": 3813,
      "Ġrapidement": 3814,
      "Ġpublie": 3815,
      "ÑĢ": 3816,
      "ĠWar": 3817,
      "21290": 3818,
      "ĠLÃ©g": 3819,
      "orer": 3820,
      "ĠgÃ©nÃ©ralement": 3821,
      "ĠBre": 3822,
      "uz": 3823,
      "ĠYou": 3824,
      "ancienne": 3825,
      "ĠqualitÃ©": 3826,
      "Ġ1972": 3827,
      "ppe": 3828,
      "ĠappelÃ©": 3829,
      "Ġ1968": 3830,
      "ĠWest": 3831,
      "Ġlocal": 3832,
      "itation": 3833,
      "Ġphilos": 3834,
      "Ġperd": 3835,
      "Ã©sie": 3836,
      "ield": 3837,
      "87": 3838,
      "ĠOli": 3839,
      "Ġdirig": 3840,
      "Ġautor": 3841,
      "ennis": 3842,
      "ingle": 3843,
      "ĠRog": 3844,
      "ĠLINEAR": 3845,
      "Ġtrib": 3846,
      "gu": 3847,
      "Ġconcernant": 3848,
      "ĠChampionnats": 3849,
      "ologue": 3850,
      "Ġaucun": 3851,
      "Ã©rit": 3852,
      "Ġcircons": 3853,
      "ĠNor": 3854,
      "Ġ),": 3855,
      "Ġcelles": 3856,
      "illy": 3857,
      "ĠcontrÃ´le": 3858,
      "ĠBat": 3859,
      "chen": 3860,
      "Ġ1973": 3861,
      "ĠPr": 3862,
      "Ġsovi": 3863,
      "ĠAnton": 3864,
      "istance": 3865,
      "Ġprogramme": 3866,
      "ami": 3867,
      "anim": 3868,
      "ĠItalie": 3869,
      "Ġmanif": 3870,
      "ĠRh": 3871,
      "ĠmÃ©m": 3872,
      "Ouest": 3873,
      "Ġmusic": 3874,
      "Ġdoi": 3875,
      "Ãªtes": 3876,
      "Ġpens": 3877,
      "Ġcarte": 3878,
      "ĠfaÃ§on": 3879,
      "tip": 3880,
      "Ġpersonnage": 3881,
      "itaine": 3882,
      "ĠRay": 3883,
      "Ġcollection": 3884,
      "Ġtermin": 3885,
      "Ġchin": 3886,
      "rÃ©taire": 3887,
      "ophie": 3888,
      "Ġannonce": 3889,
      "ĠdÃ©couverte": 3890,
      "Ãīcole": 3891,
      "Ġtransf": 3892,
      "Ġcampagne": 3893,
      "ĠJourn": 3894,
      "orts": 3895,
      "gauche": 3896,
      "Ġpatrimoine": 3897,
      "ĠDie": 3898,
      "Ã©mique": 3899,
      "ĠUS": 3900,
      "ĠMy": 3901,
      "Ĵuv": 3902,
      "Ġbe": 3903,
      "Ġsim": 3904,
      "ĠDistribution": 3905,
      "Ġobjet": 3906,
      "ĠMay": 3907,
      "Äĩ": 3908,
      "ĠDate": 3909,
      "2019": 3910,
      "uxelles": 3911,
      "2018": 3912,
      "range": 3913,
      "Ġfav": 3914,
      "ĠSol": 3915,
      "Ġforces": 3916,
      "objet": 3917,
      "han": 3918,
      "oto": 3919,
      "heim": 3920,
      "Ġceinture": 3921,
      "ĠauprÃ¨s": 3922,
      "Ġcontempor": 3923,
      "ulation": 3924,
      "ĠPeter": 3925,
      "ustralie": 3926,
      "way": 3927,
      "sych": 3928,
      "luence": 3929,
      "del": 3930,
      "lor": 3931,
      "ĠcÃ©lÃ¨": 3932,
      "Ã±": 3933,
      "cel": 3934,
      "Ġjaponais": 3935,
      "ĠrÃ©sid": 3936,
      "ctor": 3937,
      "ophe": 3938,
      "ĠPol": 3939,
      "ĠÃ©pisodes": 3940,
      "Ġcommande": 3941,
      "95": 3942,
      "cept": 3943,
      "import": 3944,
      "Ġterrain": 3945,
      "uls": 3946,
      "ling": 3947,
      "acitÃ©": 3948,
      "Ġbless": 3949,
      "Ġpratique": 3950,
      "Ġvand": 3951,
      "ĠDÃ©c": 3952,
      "ulÃ©": 3953,
      "azz": 3954,
      "onnÃ©": 3955,
      "este": 3956,
      "cia": 3957,
      "ĠStade": 3958,
      "riÃ¨me": 3959,
      "Ã´ne": 3960,
      "Ġcharge": 3961,
      "Ãīglise": 3962,
      "ĠNicolas": 3963,
      "ariste": 3964,
      "],": 3965,
      "Ġhistoire": 3966,
      "ĠCin": 3967,
      "ĠarrÃª": 3968,
      "Ġsupprim": 3969,
      "ĠGab": 3970,
      "Ġocc": 3971,
      "ĠrÃ©un": 3972,
      "ĠPo": 3973,
      "ĠmÃ©c": 3974,
      "Ġcentrale": 3975,
      "ĠMel": 3976,
      "ĠcrÃ©er": 3977,
      "Louis": 3978,
      "lication": 3979,
      "ĠdÃ©cide": 3980,
      "aliforn": 3981,
      "ĠSil": 3982,
      "ĠdÃ©l": 3983,
      "ider": 3984,
      "onymie": 3985,
      "expl": 3986,
      "pital": 3987,
      "ĠGuill": 3988,
      "gÃ©n": 3989,
      "Ġcomposi": 3990,
      "asc": 3991,
      "Ġrecense": 3992,
      "82": 3993,
      "Ġchamp": 3994,
      "ater": 3995,
      "Ob": 3996,
      "dou": 3997,
      "ĠsupÃ©rieur": 3998,
      "raction": 3999,
      "Marie": 4000,
      "Ġmention": 4001,
      "Ġferm": 4002,
      "ĠCong": 4003,
      "Ġ32": 4004,
      "run": 4005,
      "Ġright": 4006,
      "Ġ80": 4007,
      "rouve": 4008,
      "mph": 4009,
      "ĠToul": 4010,
      "gin": 4011,
      "Ġaug": 4012,
      "Ġdirec": 4013,
      "azine": 4014,
      "ĠLab": 4015,
      "ĠRecords": 4016,
      "ĠBour": 4017,
      "otal": 4018,
      "Ġensemble": 4019,
      "Ġliens": 4020,
      "onnes": 4021,
      "Ġsac": 4022,
      "Ġpassage": 4023,
      "Ass": 4024,
      "Ġtableau": 4025,
      "idth": 4026,
      "ĠMa": 4027,
      "Ġpolon": 4028,
      "Ġkil": 4029,
      "Ġiden": 4030,
      "ĠchaÃ®": 4031,
      "ographe": 4032,
      "roy": 4033,
      "92": 4034,
      "ĠSav": 4035,
      "ĠÎ": 4036,
      "oupes": 4037,
      "Ġpourrait": 4038,
      "Ġinv": 4039,
      "Ġfaisant": 4040,
      "Ġdiscussion": 4041,
      "Ġmieux": 4042,
      "ĠMod": 4043,
      "ications": 4044,
      "inst": 4045,
      "ĠÃ©d": 4046,
      "ĠdÃ©n": 4047,
      "Ġaccue": 4048,
      "lon": 4049,
      "tionnaire": 4050,
      "national": 4051,
      "aune": 4052,
      "mite": 4053,
      "ĠtempÃ©r": 4054,
      "vey": 4055,
      "Ġretrouve": 4056,
      "\"|": 4057,
      "ĠmunicipalitÃ©": 4058,
      "ĠPologne": 4059,
      "ĠConc": 4060,
      "amille": 4061,
      "oure": 4062,
      "Ġsalle": 4063,
      "crit": 4064,
      "kin": 4065,
      "Ġcompris": 4066,
      "log": 4067,
      "Ġouvert": 4068,
      "Ġgrec": 4069,
      "PS": 4070,
      "Ġmusical": 4071,
      "ÅĤ": 4072,
      "abe": 4073,
      "Ġ#": 4074,
      "oupe": 4075,
      "itations": 4076,
      "outes": 4077,
      "ateau": 4078,
      "roche": 4079,
      "orp": 4080,
      "ĠMur": 4081,
      "Ġir": 4082,
      "any": 4083,
      "Ġavaient": 4084,
      "ĠMik": 4085,
      "icier": 4086,
      "ĠVille": 4087,
      "tÃ©es": 4088,
      "alyse": 4089,
      "Ñģ": 4090,
      "ĠCity": 4091,
      "riche": 4092,
      "Ġtroupes": 4093,
      "Ġaucune": 4094,
      "ON": 4095,
      "ĠFrank": 4096,
      "Ġcer": 4097,
      "orial": 4098,
      "Ġcouleur": 4099,
      "Ã©putÃ©": 4100,
      "uch": 4101,
      "rÃ©d": 4102,
      "burg": 4103,
      "ĠPont": 4104,
      "tiÃ©": 4105,
      "Ġbes": 4106,
      "Ġblo": 4107,
      "Ġmand": 4108,
      "ĠAinsi": 4109,
      "Ġspor": 4110,
      "ĠsÃ©curitÃ©": 4111,
      "ĠÃ©conomique": 4112,
      "Å¡": 4113,
      "ury": 4114,
      "fort": 4115,
      "Ġhors": 4116,
      "ĠcomposÃ©": 4117,
      "ĠTim": 4118,
      "98": 4119,
      "ster": 4120,
      "Ġindustrie": 4121,
      "Ġfil": 4122,
      "ĠcatÃ©g": 4123,
      "ories": 4124,
      "Ġ</": 4125,
      "ather": 4126,
      "aisse": 4127,
      "fique": 4128,
      "ĠNÃ©": 4129,
      "Ġdra": 4130,
      "FF": 4131,
      "Ġcycl": 4132,
      "ureau": 4133,
      "ĠBan": 4134,
      "kh": 4135,
      "}}": 4136,
      ".-": 4137,
      "Ġindividu": 4138,
      "ĠTri": 4139,
      "Ġ%),": 4140,
      "entrÃ©e": 4141,
      "Ġprise": 4142,
      "alise": 4143,
      "Ġvingt": 4144,
      "ĠactivitÃ©s": 4145,
      "ĠCarl": 4146,
      "97": 4147,
      "ĠBruxelles": 4148,
      "uels": 4149,
      "Ġtraite": 4150,
      "94": 4151,
      "Ġoccup": 4152,
      "Ġjoueurs": 4153,
      "ĠDÃ©": 4154,
      "gg": 4155,
      "Ġtermine": 4156,
      "ention": 4157,
      "Ġfron": 4158,
      "roup": 4159,
      "Ġbronze": 4160,
      "bres": 4161,
      "Ġimportante": 4162,
      "ĠfondÃ©e": 4163,
      "ardi": 4164,
      "nelle": 4165,
      "no": 4166,
      "Ġhyd": 4167,
      "Ġcli": 4168,
      "ctrice": 4169,
      "ĠPet": 4170,
      "ĠHer": 4171,
      "Ġ1967": 4172,
      "Ġreti": 4173,
      "ĠAmer": 4174,
      "termin": 4175,
      "nd": 4176,
      "Ġdram": 4177,
      "Ã©dÃ©": 4178,
      "rs": 4179,
      "Ġx": 4180,
      "ĠCamp": 4181,
      "Ġsituation": 4182,
      "ergie": 4183,
      "Ġespagnol": 4184,
      "Ġ45": 4185,
      "Ġvoi": 4186,
      "ĠVin": 4187,
      "Ġ60": 4188,
      "uste": 4189,
      "Ġnuit": 4190,
      "Institut": 4191,
      "Ġavis": 4192,
      "information": 4193,
      "chet": 4194,
      "ube": 4195,
      "ĠTerre": 4196,
      "Ġdesc": 4197,
      "ĠsÃ©par": 4198,
      "ĠÃ©poque": 4199,
      "watch": 4200,
      "antin": 4201,
      "ister": 4202,
      "ĠsantÃ©": 4203,
      "urr": 4204,
      "ĠtÃ©m": 4205,
      "Ġbuts": 4206,
      "gÃ©": 4207,
      "anes": 4208,
      "Ġexist": 4209,
      "Ġlorsqu": 4210,
      "Ġproduits": 4211,
      "ĠMer": 4212,
      "ĠCet": 4213,
      "partition": 4214,
      "ĠRi": 4215,
      "ĠLor": 4216,
      "Ġchac": 4217,
      "ige": 4218,
      "Ġjeux": 4219,
      "Ġbonne": 4220,
      "Ġcaract": 4221,
      "Ã´te": 4222,
      "Ġnav": 4223,
      "ĠClassement": 4224,
      "ĠÃ©lÃ©ments": 4225,
      "Ne": 4226,
      "ĠNotre": 4227,
      "Ġ1969": 4228,
      "dessus": 4229,
      "ĠLos": 4230,
      "Ġpense": 4231,
      "ĠFiche": 4232,
      "Ġcontrat": 4233,
      "Ġ33": 4234,
      "alisÃ©": 4235,
      "Ġradio": 4236,
      "agÃ©": 4237,
      "source": 4238,
      "ÑĤ": 4239,
      "ĠinterprÃ©": 4240,
      "ores": 4241,
      "Ġmeilleure": 4242,
      "chestre": 4243,
      "Ġcapitale": 4244,
      "erson": 4245,
      "Ġsouh": 4246,
      "Ġvitesse": 4247,
      "Ġfusion": 4248,
      "ĠparticuliÃ¨rement": 4249,
      "ĠreprÃ©s": 4250,
      "Ag": 4251,
      "rire": 4252,
      "RÃ©": 4253,
      "ĠEs": 4254,
      "Ġsocial": 4255,
      "Ġ||-": 4256,
      "oÃ¯v": 4257,
      "tistes": 4258,
      "Ġhockey": 4259,
      "awa": 4260,
      "lav": 4261,
      "Ġroyaume": 4262,
      "ĠmÃ©daille": 4263,
      "Ġ@": 4264,
      "ĠPoli": 4265,
      "Ġatteint": 4266,
      "Ġurbaine": 4267,
      "ali": 4268,
      "Ġaccord": 4269,
      "Ġhuit": 4270,
      "span": 4271,
      "ĠPoin": 4272,
      "ĠHong": 4273,
      "urn": 4274,
      "Carte": 4275,
      "ĠfondÃ©": 4276,
      "Ġbatt": 4277,
      "athÃ©m": 4278,
      "91": 4279,
      "Ġkilom": 4280,
      "Ġ(Â«": 4281,
      "96": 4282,
      "sol": 4283,
      "At": 4284,
      "Ġaband": 4285,
      "Ġsuivi": 4286,
      "image": 4287,
      "ĠpropriÃ©tÃ©": 4288,
      "ĠBourg": 4289,
      "Ġ1964": 4290,
      "Ġlieux": 4291,
      "Ġconv": 4292,
      "Ġprincipaux": 4293,
      "ereur": 4294,
      "mo": 4295,
      "Ġpot": 4296,
      "Ã§ant": 4297,
      "ĠGuy": 4298,
      "ĠmajoritÃ©": 4299,
      "main": 4300,
      "ny": 4301,
      "bon": 4302,
      "Ġtaux": 4303,
      "quels": 4304,
      "Ġannuelle": 4305,
      "ĠchrÃ©": 4306,
      "dique": 4307,
      "entreprise": 4308,
      "Ġ70": 4309,
      "ĠexpÃ©ri": 4310,
      "acer": 4311,
      "Ġgestion": 4312,
      "Ġconfir": 4313,
      "ĠVainqueur": 4314,
      "Ġfranc": 4315,
      "Ġsurface": 4316,
      "ĠCert": 4317,
      "And": 4318,
      "Ġtransport": 4319,
      "ommage": 4320,
      "Ġparties": 4321,
      "upright": 4322,
      "ĠBay": 4323,
      "ĠVie": 4324,
      "Ã©hic": 4325,
      "Ġmascul": 4326,
      "ĠFranÃ§ais": 4327,
      "Ġvolont": 4328,
      "oyÃ©": 4329,
      "quet": 4330,
      "Ġ1940": 4331,
      "ĠAnne": 4332,
      "Ġtaille": 4333,
      "Ġintit": 4334,
      "dienne": 4335,
      "Histoire": 4336,
      "oti": 4337,
      "ĠPendant": 4338,
      "ota": 4339,
      "tell": 4340,
      "Ġseigneur": 4341,
      "ĠHaute": 4342,
      "ĠDemandÃ©": 4343,
      "uves": 4344,
      "udio": 4345,
      "ormais": 4346,
      "Ġdispon": 4347,
      "III": 4348,
      "positions": 4349,
      "semblÃ©e": 4350,
      "Ġchapelle": 4351,
      "ĠJan": 4352,
      "Ġretra": 4353,
      "Ġfrom": 4354,
      "ĠSpacewatch": 4355,
      "Mich": 4356,
      "Ġ1930": 4357,
      "Ġoutre": 4358,
      "ĠCulture": 4359,
      "Ġaffir": 4360,
      "tÃ©roÃ¯de": 4361,
      "esti": 4362,
      "gar": 4363,
      "Ġlignes": 4364,
      "anterie": 4365,
      "ĠDemande": 4366,
      "ĠpassÃ©": 4367,
      "Ġartistique": 4368,
      "ieuse": 4369,
      "Ġvient": 4370,
      "oo": 4371,
      "zz": 4372,
      "ĠBlan": 4373,
      "lissement": 4374,
      "her": 4375,
      "GC": 4376,
      "ĠÃ©n": 4377,
      "las": 4378,
      "axe": 4379,
      "ĠGir": 4380,
      "Ġvaleur": 4381,
      "Ġsomm": 4382,
      "Ġ1962": 4383,
      "ĠBert": 4384,
      "ĠHenry": 4385,
      "ĠPan": 4386,
      "ĠprÃ©cip": 4387,
      "nÃ©es": 4388,
      "cule": 4389,
      "Ġsold": 4390,
      "ĠLou": 4391,
      "ĠLoire": 4392,
      "Ġ1965": 4393,
      "ato": 4394,
      "utÃ©s": 4395,
      "ray": 4396,
      "Ġlongueur": 4397,
      "Ġami": 4398,
      "ĠVe": 4399,
      "ban": 4400,
      "Ġpri": 4401,
      "Ġterres": 4402,
      "oÃ¯vodie": 4403,
      "appar": 4404,
      "ographiques": 4405,
      "Ġ1966": 4406,
      "Ġlangues": 4407,
      "ĠLin": 4408,
      "Ġduc": 4409,
      "ĠIm": 4410,
      "Ġpolice": 4411,
      "Paul": 4412,
      "Jeu": 4413,
      "ĠAff": 4414,
      "ĠPersonn": 4415,
      "bor": 4416,
      "Ġsout": 4417,
      "Angleterre": 4418,
      "Ġprim": 4419,
      "Ġsigne": 4420,
      "ĠLiv": 4421,
      "occasion": 4422,
      "Ġnoms": 4423,
      "ĠChÃ¢teau": 4424,
      "astique": 4425,
      "ctes": 4426,
      "ĠBru": 4427,
      "Ġlivres": 4428,
      "Ġclassique": 4429,
      "ĠpiÃ¨ces": 4430,
      "ĠAth": 4431,
      "oncÃ©": 4432,
      "Qu": 4433,
      "ĠCrÃ©": 4434,
      "Ġcondam": 4435,
      "ĠsoviÃ©tique": 4436,
      "ĠMaison": 4437,
      "Ġcouleurs": 4438,
      "Ġmission": 4439,
      "Ġadop": 4440,
      "Ġpropose": 4441,
      "Ġtrouver": 4442,
      "Ġillust": 4443,
      "orb": 4444,
      "ĠThÃ©Ã¢tre": 4445,
      "entiel": 4446,
      "Ġjournaliste": 4447,
      "ĠâĨ": 4448,
      "oÃ®": 4449,
      "Ġcivi": 4450,
      "Ġmati": 4451,
      "Ġ09": 4452,
      "Ġheures": 4453,
      "aste": 4454,
      "Ġagric": 4455,
      "Ġhttps": 4456,
      "ĠBrun": 4457,
      "sÃ©rie": 4458,
      "Ãªche": 4459,
      "Ġblocage": 4460,
      "itant": 4461,
      "De": 4462,
      "alogue": 4463,
      "Ġfigure": 4464,
      "Ġvoul": 4465,
      "Ġdonner": 4466,
      "ĠFab": 4467,
      "Ð¾Ð": 4468,
      "ua": 4469,
      "itude": 4470,
      "Ã©dÃ©ration": 4471,
      "Ġfinanci": 4472,
      "ĠSci": 4473,
      "mir": 4474,
      "ĠAir": 4475,
      "Ġpermettant": 4476,
      "ronique": 4477,
      "Ġ1945": 4478,
      "ĠreprÃ©sentant": 4479,
      "İle": 4480,
      "Ġpap": 4481,
      "ĠcitÃ©": 4482,
      "ĠdÃ©fini": 4483,
      "Ġmarch": 4484,
      "Ġsymb": 4485,
      "ado": 4486,
      "ĠMiss": 4487,
      "ĠcollÃ¨": 4488,
      "Ġrespec": 4489,
      "Mon": 4490,
      "Ġrur": 4491,
      "ĠpiÃ¨ce": 4492,
      "Ġ36": 4493,
      "ĠMaurice": 4494,
      "ĠentiÃ¨re": 4495,
      "Ġcherche": 4496,
      "ĠreprÃ©sente": 4497,
      "olo": 4498,
      "2005": 4499,
      "Ġsculp": 4500,
      "Ã©rations": 4501,
      "ĠOb": 4502,
      "ÃŃa": 4503,
      "Ġprotection": 4504,
      "CatÃ©gorie": 4505,
      "Ġcourt": 4506,
      "ĠprÃ©cis": 4507,
      "rien": 4508,
      "oble": 4509,
      "ĠvoÃ¯vodie": 4510,
      "Ġcam": 4511,
      "Ġgagn": 4512,
      "Ġbassin": 4513,
      "ĠFond": 4514,
      "ĠtempÃ©rature": 4515,
      "imetiÃ¨re": 4516,
      "ĠdÃ©putÃ©": 4517,
      "ao": 4518,
      "Xe": 4519,
      "ws": 4520,
      "Ġtop": 4521,
      "erman": 4522,
      "Ġcolon": 4523,
      "Ġgen": 4524,
      "ĠNi": 4525,
      "ĠconsÃ©qu": 4526,
      "Ġstatut": 4527,
      "Ġby": 4528,
      "ĠChap": 4529,
      "Ãº": 4530,
      "Ġtelle": 4531,
      "Ġforce": 4532,
      "Ġ34": 4533,
      "ĠNorm": 4534,
      "ĠArticle": 4535,
      "als": 4536,
      "omie": 4537,
      "atre": 4538,
      "Ġfaible": 4539,
      "Ġmariage": 4540,
      "ake": 4541,
      "ĠNap": 4542,
      "Ġund": 4543,
      "fier": 4544,
      "ĠTre": 4545,
      "Ġparticipation": 4546,
      "Ġ(Â°": 4547,
      "ĠPetit": 4548,
      "vue": 4549,
      "otion": 4550,
      "Ġchant": 4551,
      "IN": 4552,
      "ĠRod": 4553,
      "Ã©ries": 4554,
      "redresse": 4555,
      "Ġprobablement": 4556,
      "Ġauteur": 4557,
      "ĠDom": 4558,
      "Ġ90": 4559,
      "duc": 4560,
      "Ġdoute": 4561,
      "ĠQue": 4562,
      "elli": 4563,
      "oyer": 4564,
      "Ã©taire": 4565,
      "Ġsit": 4566,
      "ĠLong": 4567,
      "Ġolympique": 4568,
      "Ge": 4569,
      "Ġsuisse": 4570,
      "ĠChristian": 4571,
      "orme": 4572,
      "Ġjuste": 4573,
      "Ġjui": 4574,
      "ty": 4575,
      "ĠConst": 4576,
      "anteur": 4577,
      "Ġmoderne": 4578,
      "Ġoriginal": 4579,
      "2022": 4580,
      "Ġstructure": 4581,
      "ĠdÃ©sormais": 4582,
      "ĠJosÃ©": 4583,
      "Ãªts": 4584,
      "rez": 4585,
      "ĠrÃ©volution": 4586,
      "ho": 4587,
      "ĠmaÃ®tre": 4588,
      "itecte": 4589,
      "VD": 4590,
      "bes": 4591,
      "ĠâĶ": 4592,
      "ĠHug": 4593,
      "Ġcompar": 4594,
      "2023": 4595,
      "ĠGold": 4596,
      "Ãªmes": 4597,
      "cession": 4598,
      "espace": 4599,
      "ĠlittÃ©rature": 4600,
      "Ġrais": 4601,
      "ĠMaria": 4602,
      "ĠMark": 4603,
      "Ġpasser": 4604,
      "ĠVir": 4605,
      "DÃ©putÃ©": 4606,
      "Ġrecon": 4607,
      "Ġdoivent": 4608,
      "ĠministÃ¨re": 4609,
      "Ġreli": 4610,
      "ĠRenÃ©": 4611,
      "organisation": 4612,
      "Ġpersonnages": 4613,
      "ross": 4614,
      "Ġquitte": 4615,
      "RE": 4616,
      "ĠmarchÃ©": 4617,
      "Ġcirconscription": 4618,
      "ĠvallÃ©e": 4619,
      "ĠcÃ©rÃ©": 4620,
      "can": 4621,
      "Ġclubs": 4622,
      "ootball": 4623,
      "Ġvice": 4624,
      "ĠVill": 4625,
      "ĠmalgrÃ©": 4626,
      "eck": 4627,
      "ĠRac": 4628,
      "adio": 4629,
      "ictionnaire": 4630,
      "Ġmunicipal": 4631,
      "Ġlettres": 4632,
      "utenant": 4633,
      "Dame": 4634,
      "Ġderniers": 4635,
      "Ġconstit": 4636,
      "ĠApp": 4637,
      "Ġ1963": 4638,
      "enseignement": 4639,
      "ĠCD": 4640,
      "ni": 4641,
      "Ġdevenu": 4642,
      "Ġtournoi": 4643,
      "rest": 4644,
      "Ġsoutien": 4645,
      "ĠRam": 4646,
      "Ġoccident": 4647,
      "ĠJournal": 4648,
      "oirs": 4649,
      "Ġconnue": 4650,
      "Ã£": 4651,
      "ĠJules": 4652,
      "gue": 4653,
      "Ġdevenir": 4654,
      "Ġgros": 4655,
      "Ġlocale": 4656,
      "fer": 4657,
      "ona": 4658,
      "Ġportant": 4659,
      "ĠSÃ©n": 4660,
      "prit": 4661,
      "onique": 4662,
      "chant": 4663,
      "ĠIV": 4664,
      "administration": 4665,
      "Ġloin": 4666,
      "1999": 4667,
      "Ġ1958": 4668,
      "ĠMonde": 4669,
      "Ġfix": 4670,
      "Ġguit": 4671,
      "ĠMex": 4672,
      "Ġcrit": 4673,
      "ĠPlusieurs": 4674,
      "ĠrÃ©serv": 4675,
      "inte": 4676,
      "ĠquatriÃ¨me": 4677,
      "ĠmoitiÃ©": 4678,
      "ĠÂ·": 4679,
      "wn": 4680,
      "ĠCaliforn": 4681,
      "oids": 4682,
      "lem": 4683,
      "ĠSuper": 4684,
      "iÃ©e": 4685,
      "ĠVers": 4686,
      "to": 4687,
      "histor": 4688,
      "ĠMoyen": 4689,
      "Ġmondial": 4690,
      "Ġsociale": 4691,
      "Ġpeinture": 4692,
      "intÃ©rieur": 4693,
      "ĠindÃ©pend": 4694,
      "wood": 4695,
      "Ġcomplex": 4696,
      "IS": 4697,
      "ĠremplacÃ©": 4698,
      "ĠSous": 4699,
      "acteur": 4700,
      "ila": 4701,
      "Ġtechniques": 4702,
      "ouveau": 4703,
      "ĠcomposÃ©e": 4704,
      "ĠnÃ©er": 4705,
      "rient": 4706,
      "ĠBarb": 4707,
      "FA": 4708,
      "seud": 4709,
      "riques": 4710,
      "FranÃ§ois": 4711,
      "amin": 4712,
      "accord": 4713,
      "ĠGÃ©n": 4714,
      "ension": 4715,
      "sier": 4716,
      "ĠreÃ§u": 4717,
      "Äį": 4718,
      "Ġinsp": 4719,
      "ĠutilisÃ©e": 4720,
      "Ġquelque": 4721,
      "Ġcode": 4722,
      "Ġglob": 4723,
      "ĠvÃ©hic": 4724,
      "ĠBlack": 4725,
      "ĠRed": 4726,
      "ommÃ©": 4727,
      "Ġposi": 4728,
      "cha": 4729,
      "ĠMuse": 4730,
      "Ġcertain": 4731,
      "tig": 4732,
      "eld": 4733,
      "ĠinfÃ©r": 4734,
      "moins": 4735,
      "acÃ©e": 4736,
      "ailleurs": 4737,
      "rac": 4738,
      "ĠÃīglise": 4739,
      "ĠÃ©tat": 4740,
      "Ġrang": 4741,
      "Ġanciens": 4742,
      "sements": 4743,
      "Ġmontagne": 4744,
      "Ġsecteur": 4745,
      "lÃ¨mes": 4746,
      "Ġ1956": 4747,
      "enses": 4748,
      "Ġconditions": 4749,
      "ĠCop": 4750,
      "Ġble": 4751,
      "Ġrevue": 4752,
      "leste": 4753,
      "Laur": 4754,
      "oritÃ©": 4755,
      "Ġappart": 4756,
      "cont": 4757,
      "Ġ1939": 4758,
      "Ġchoix": 4759,
      "Ġjuge": 4760,
      "ĠGuillaume": 4761,
      "Ġenregist": 4762,
      "Ġsan": 4763,
      "Ġress": 4764,
      "Ġax": 4765,
      "Ġrisque": 4766,
      "ĠamÃ©li": 4767,
      "ĠDire": 4768,
      "pin": 4769,
      "Ġlabel": 4770,
      "Ġtest": 4771,
      "Â»": 4772,
      "Ã©tab": 4773,
      "ĠSimon": 4774,
      "rivÃ©e": 4775,
      "Ġlatin": 4776,
      "opsis": 4777,
      "ican": 4778,
      "ĠeuropÃ©en": 4779,
      "Ġrefus": 4780,
      "zy": 4781,
      "ĠFlor": 4782,
      "Ġprince": 4783,
      "ĠjournÃ©e": 4784,
      "ĠUniversity": 4785,
      "Ã©tro": 4786,
      "Ġmode": 4787,
      "ĠÃ©glise": 4788,
      "Ġ42": 4789,
      "ĠGroupe": 4790,
      "Ġchasse": 4791,
      "ĠrÃ©alisateur": 4792,
      "Ġcab": 4793,
      "Ġrecensement": 4794,
      "ero": 4795,
      "utilisation": 4796,
      "jectif": 4797,
      "dro": 4798,
      "rance": 4799,
      "ĠfranÃ§aises": 4800,
      "ĠAwards": 4801,
      "uant": 4802,
      "Ġpetits": 4803,
      "abeth": 4804,
      "din": 4805,
      "cht": 4806,
      "quoi": 4807,
      "Ġpsych": 4808,
      "Ġeaux": 4809,
      "Ġrelations": 4810,
      "ĠLac": 4811,
      "yo": 4812,
      "Ġrugby": 4813,
      "ĠMusique": 4814,
      "ĠÃ©vÃ©": 4815,
      "ĠLoc": 4816,
      "entine": 4817,
      "Ġmoteur": 4818,
      "Ġglace": 4819,
      "oman": 4820,
      "ĠapparaÃ®t": 4821,
      "ĠRoyal": 4822,
      "Ġloge": 4823,
      "Ġmilitaires": 4824,
      "Ġcond": 4825,
      "Ġinstru": 4826,
      "ĠGui": 4827,
      "Ġhttp": 4828,
      "ĠCela": 4829,
      "Ġconseiller": 4830,
      "2004": 4831,
      "Ġpierre": 4832,
      "ĠPlan": 4833,
      "Ġmultip": 4834,
      "outer": 4835,
      "Ġ48": 4836,
      "Ġdyn": 4837,
      "inet": 4838,
      "Ġwidth": 4839,
      "istan": 4840,
      "ĠParlement": 4841,
      "Ġvia": 4842,
      "Album": 4843,
      "ĠrÃ©gions": 4844,
      "Pe": 4845,
      "Ġcartes": 4846,
      "RS": 4847,
      "Ġlie": 4848,
      "Ġdisting": 4849,
      "ĠDurant": 4850,
      "ĠmathÃ©m": 4851,
      "CF": 4852,
      "exist": 4853,
      "Ġparce": 4854,
      "Ġmaxim": 4855,
      "ĠWP": 4856,
      "Ġ38": 4857,
      "ĠcÃ©leste": 4858,
      "à½": 4859,
      "ader": 4860,
      "Ġchante": 4861,
      "Ġnos": 4862,
      "Ġ1959": 4863,
      "Ġamb": 4864,
      "ament": 4865,
      "Ġdirectement": 4866,
      "seille": 4867,
      "ĠVen": 4868,
      "ĠDÃ©mographie": 4869,
      "Ġsh": 4870,
      "Ġ1961": 4871,
      "Ġ{{": 4872,
      "Ġfonctions": 4873,
      "Ġdiffic": 4874,
      "ancer": 4875,
      "Ġattribu": 4876,
      "Ġfootballeur": 4877,
      "Ġcommerce": 4878,
      "ruit": 4879,
      "Ġ1920": 4880,
      "tant": 4881,
      "Ġ44": 4882,
      "rovi": 4883,
      "Ã´tel": 4884,
      "ĠconsultÃ©": 4885,
      "ĠIr": 4886,
      "Ġ43": 4887,
      "Ġvert": 4888,
      "Ġ01": 4889,
      "Ġsuppression": 4890,
      "rement": 4891,
      "iennes": 4892,
      "Ã©bÃ©c": 4893,
      "issent": 4894,
      "ĠRet": 4895,
      "ĠTex": 4896,
      "Ġiv": 4897,
      "ĠsecrÃ©taire": 4898,
      "Ġcapitaine": 4899,
      "isation": 4900,
      "ĠÃ©crivain": 4901,
      "ĠStar": 4902,
      "Ġhom": 4903,
      "ĠAutres": 4904,
      "rÃ©dÃ©ric": 4905,
      "Ġnaturelle": 4906,
      "ĠRoger": 4907,
      "ibles": 4908,
      "Ġemb": 4909,
      "oscou": 4910,
      "Ġgu": 4911,
      "entielle": 4912,
      "mentation": 4913,
      "Ġdos": 4914,
      "alisÃ©e": 4915,
      "vignette": 4916,
      "ĠBerg": 4917,
      "Ã©drale": 4918,
      "ĠAfrique": 4919,
      "Ġproxim": 4920,
      "ousse": 4921,
      "Ġconcl": 4922,
      "amÃ¨tre": 4923,
      "viennent": 4924,
      "Commune": 4925,
      "iger": 4926,
      "ĠNav": 4927,
      "ĠAngeles": 4928,
      "Ĥge": 4929,
      "ĠArg": 4930,
      "oral": 4931,
      "ertÃ©": 4932,
      "Ġpeuple": 4933,
      "Ġvote": 4934,
      "Ġprovo": 4935,
      "ĠKing": 4936,
      "Ġmett": 4937,
      "Liste": 4938,
      "erse": 4939,
      "ĠChic": 4940,
      "itÃ©e": 4941,
      "Ġpartis": 4942,
      "ashington": 4943,
      "ĠDivision": 4944,
      "ses": 4945,
      "Ġgaz": 4946,
      "Ġpresque": 4947,
      "ĠfÃ©minin": 4948,
      "cer": 4949,
      "udiant": 4950,
      "naire": 4951,
      "Ġ37": 4952,
      "Ġcontinue": 4953,
      "Ġmonument": 4954,
      "ĠrÃ©giment": 4955,
      "ĠprÃ©cipitations": 4956,
      "ophone": 4957,
      "vaux": 4958,
      "ĠÃīquipe": 4959,
      "Ġrelative": 4960,
      "hiver": 4961,
      "ĠBrÃ©sil": 4962,
      "Ġartistes": 4963,
      "airement": 4964,
      "rey": 4965,
      "ĠcÃ´tÃ©s": 4966,
      "Ġmontre": 4967,
      "Ġreprises": 4968,
      "ridge": 4969,
      "ĠRes": 4970,
      "rastru": 4971,
      "Ġprofessionnel": 4972,
      "rienne": 4973,
      "ĠBob": 4974,
      "BC": 4975,
      "Ġcentral": 4976,
      "ĠMarg": 4977,
      "ĠPark": 4978,
      "ĠReg": 4979,
      "ES": 4980,
      "ĠPS": 4981,
      "ima": 4982,
      "ba": 4983,
      "ĠParmi": 4984,
      "Ġdistin": 4985,
      "ĠPic": 4986,
      "ĠchargÃ©": 4987,
      "nie": 4988,
      "ĠTemp": 4989,
      "ĠÂ»)": 4990,
      "-),": 4991,
      "ĠkilomÃ¨tres": 4992,
      "ius": 4993,
      "anche": 4994,
      "ĠcimetiÃ¨re": 4995,
      "ĠchaÃ®ne": 4996,
      "Ġforte": 4997,
      "roduction": 4998,
      "ĠSaison": 4999,
      "ĠdÃ©termin": 5000,
      "Ġtel": 5001,
      "aritÃ©": 5002,
      "ound": 5003,
      "CI": 5004,
      "ĠproximitÃ©": 5005,
      "umul": 5006,
      "ĠFern": 5007,
      "Ġperform": 5008,
      "Ġlic": 5009,
      "ĠconÃ§": 5010,
      "tiÃ¨me": 5011,
      "ĠHel": 5012,
      "Ġchose": 5013,
      "Ġwik": 5014,
      "Ġveut": 5015,
      "omo": 5016,
      "ĠlocalitÃ©": 5017,
      "ĠbÃ¢timents": 5018,
      "ĠSeine": 5019,
      "gÃ©rie": 5020,
      "abs": 5021,
      "ĠImp": 5022,
      "ĠtraitÃ©": 5023,
      "pedia": 5024,
      "fred": 5025,
      "ĠInternational": 5026,
      "aure": 5027,
      "trÃªme": 5028,
      "ĠÃ®les": 5029,
      "fice": 5030,
      "Ġreb": 5031,
      "Ġsites": 5032,
      "pel": 5033,
      "vid": 5034,
      "indi": 5035,
      "Ġaccompagn": 5036,
      "dd": 5037,
      "Ġcivile": 5038,
      "ĠSand": 5039,
      "association": 5040,
      "ĠColomb": 5041,
      "ĠcÃ©lÃ¨bre": 5042,
      "ward": 5043,
      "Ġitalienne": 5044,
      "Ġras": 5045,
      "ĠPatrick": 5046,
      "Ã£o": 5047,
      "Ġsemaine": 5048,
      "ĠproblÃ¨mes": 5049,
      "pi": 5050,
      "ida": 5051,
      "Ġpied": 5052,
      "ĠMoscou": 5053,
      "ĠcÅĵur": 5054,
      "Ġfestival": 5055,
      "tilis": 5056,
      "iciel": 5057,
      "Ġhaute": 5058,
      "jan": 5059,
      "Ġrendre": 5060,
      "Ã©rÃ©e": 5061,
      "ĠÃ©limin": 5062,
      "Ġfant": 5063,
      "Äģ": 5064,
      "Ġcenter": 5065,
      "CA": 5066,
      "Ġ1944": 5067,
      "Ġsitue": 5068,
      "Ġpoly": 5069,
      "ink": 5070,
      "ĠsupÃ©rieure": 5071,
      "ĠAntoine": 5072,
      "ĠVienne": 5073,
      "ĠÃ©vo": 5074,
      "ĠCommun": 5075,
      "missibilitÃ©": 5076,
      "ĠCra": 5077,
      "riture": 5078,
      "ĠBill": 5079,
      "Ġtend": 5080,
      "ĠMeilleur": 5081,
      "ller": 5082,
      "Parti": 5083,
      "view": 5084,
      "Ġcircul": 5085,
      "ĠPortug": 5086,
      "Ġstr": 5087,
      "ĠTit": 5088,
      "cy": 5089,
      "Ġphase": 5090,
      "ĠCarol": 5091,
      "Ġ1957": 5092,
      "Åĵurs": 5093,
      "Ġsuit": 5094,
      "ĠMun": 5095,
      "dialement": 5096,
      "ĠSmith": 5097,
      "ĠSw": 5098,
      "Groupe": 5099,
      "ĠMÃ©daille": 5100,
      "Ġprojets": 5101,
      "Ġvend": 5102,
      "Ġsen": 5103,
      "Ġcanadien": 5104,
      "ĠdÃ©cÃ¨s": 5105,
      "MP": 5106,
      "lare": 5107,
      "andes": 5108,
      "sen": 5109,
      "inv": 5110,
      "Ġsuperficie": 5111,
      "agu": 5112,
      "Ġalli": 5113,
      "Ġ1948": 5114,
      "Ġmorts": 5115,
      "ĠliÃ©es": 5116,
      "agnes": 5117,
      "ĠCa": 5118,
      "ited": 5119,
      "riel": 5120,
      "Ġaccep": 5121,
      "ĠAlors": 5122,
      "anmoins": 5123,
      "Ġscience": 5124,
      "ĠDr": 5125,
      "ropol": 5126,
      "ĠMarcel": 5127,
      "times": 5128,
      "Ġbasse": 5129,
      "Ġtraduction": 5130,
      "arrondissement": 5131,
      "osition": 5132,
      "Ġpor": 5133,
      "ĠquÃ©bÃ©c": 5134,
      "owiat": 5135,
      "osh": 5136,
      "ranche": 5137,
      "ĠTourn": 5138,
      "ĠEspagne": 5139,
      "ĠdÃ©cor": 5140,
      "yme": 5141,
      "autes": 5142,
      "ĠdÃ©pend": 5143,
      "ush": 5144,
      "ĠType": 5145,
      "ilier": 5146,
      "Mont": 5147,
      "Ã©ros": 5148,
      "ĠRÃ©volution": 5149,
      "get": 5150,
      "lir": 5151,
      "tÃ©e": 5152,
      "ĠdÃ©cid": 5153,
      "ĠAlexandre": 5154,
      "Ġ1914": 5155,
      "wiki": 5156,
      "Ġsemaines": 5157,
      "ĠTou": 5158,
      "Ġ1954": 5159,
      "enait": 5160,
      "ĠLÃ©on": 5161,
      "ĠElles": 5162,
      "oitation": 5163,
      "ĠsÃ©n": 5164,
      "ĠParc": 5165,
      "gen": 5166,
      "adie": 5167,
      "Ã¼r": 5168,
      "hÃ´ne": 5169,
      "ml": 5170,
      "raÃ®neur": 5171,
      "Ġlyc": 5172,
      "TA": 5173,
      "amÃ©ric": 5174,
      "Ġ1955": 5175,
      "ĠRel": 5176,
      "atifs": 5177,
      "car": 5178,
      "atoires": 5179,
      "rime": 5180,
      "ĠmÃ©moire": 5181,
      "ovie": 5182,
      "observ": 5183,
      "ĠendÃ©mique": 5184,
      "yrÃ©": 5185,
      "Ġnaturel": 5186,
      "Ġant": 5187,
      "ĠÃ©conomiste": 5188,
      "Ġmur": 5189,
      "Ã©roport": 5190,
      "Ġ1936": 5191,
      "ĠGalerie": 5192,
      "tiers": 5193,
      "Ġdiverses": 5194,
      "Char": 5195,
      "ĠSource": 5196,
      "uelles": 5197,
      "tification": 5198,
      "Ġphysique": 5199,
      "infanterie": 5200,
      "Ġtransform": 5201,
      "intÃ©rÃªt": 5202,
      "ĠÃ©criv": 5203,
      "ĠRang": 5204,
      "ĠWashington": 5205,
      "Ġparlement": 5206,
      "Ġcompositeur": 5207,
      "Ġait": 5208,
      "ĠTch": 5209,
      "iction": 5210,
      "alli": 5211,
      "ella": 5212,
      "aya": 5213,
      "zi": 5214,
      "atherine": 5215,
      "illages": 5216,
      "ĠToulouse": 5217,
      "ĠfrÃ©qu": 5218,
      "ichier": 5219,
      "quÃ©s": 5220,
      "Jac": 5221,
      "BA": 5222,
      "oe": 5223,
      "ĠfaÃ§": 5224,
      "opÃ©ration": 5225,
      "Ġchinois": 5226,
      "Ġimpos": 5227,
      "struction": 5228,
      "ĠDub": 5229,
      "ĠMatch": 5230,
      "Ġquoi": 5231,
      "ĠarchÃ©": 5232,
      "ĠderriÃ¨re": 5233,
      "ĠLÃ©": 5234,
      "issant": 5235,
      "Ġ1952": 5236,
      "ĠUr": 5237,
      "Ġivoi": 5238,
      "alie": 5239,
      "ĠQuel": 5240,
      "ĠmÃ©thode": 5241,
      "Ġ39": 5242,
      "2003": 5243,
      "Ġbomb": 5244,
      "ĠdÃ©di": 5245,
      "Ġcontra": 5246,
      "ĠNat": 5247,
      "ĠÅĴuv": 5248,
      "euve": 5249,
      "ĠMoh": 5250,
      "''": 5251,
      "ĠLem": 5252,
      "ĠGau": 5253,
      "urer": 5254,
      "ĠprÃ©par": 5255,
      "Ãītudiant": 5256,
      "Ġgraph": 5257,
      "ĠcritÃ¨res": 5258,
      "ĠProduction": 5259,
      "uff": 5260,
      "Ġdramatique": 5261,
      "ĠMass": 5262,
      "ĠHall": 5263,
      "nov": 5264,
      "ount": 5265,
      "rod": 5266,
      "ĠTok": 5267,
      "Ġinconn": 5268,
      "Ġspectac": 5269,
      "thur": 5270,
      "Ġparle": 5271,
      "ĠMary": 5272,
      "ĠDomin": 5273,
      "ĠAv": 5274,
      "ĠRap": 5275,
      "ĠMarseille": 5276,
      "Ġ1953": 5277,
      "ĠNon": 5278,
      "phe": 5279,
      "aptiste": 5280,
      "Ġstade": 5281,
      ".|": 5282,
      "Objet": 5283,
      "Ġcell": 5284,
      "OS": 5285,
      "Ġcontraire": 5286,
      "Ġmanifest": 5287,
      "stron": 5288,
      "ĠSynopsis": 5289,
      "Ġroyale": 5290,
      "ĠBretagne": 5291,
      "ĠrÃ©gime": 5292,
      "entiellement": 5293,
      "Ðº": 5294,
      "Ġinformations": 5295,
      "Can": 5296,
      "ĠDÃ©f": 5297,
      "ool": 5298,
      "nent": 5299,
      "ptions": 5300,
      "Ġdistance": 5301,
      "Ġpoursui": 5302,
      "Ġencyclop": 5303,
      "rass": 5304,
      "Ġfinal": 5305,
      "Ġappro": 5306,
      "Ġdomin": 5307,
      "ĠÃ©tude": 5308,
      "Ġconstitution": 5309,
      "Ġdiss": 5310,
      "Ã©rard": 5311,
      "ĠChamp": 5312,
      "Loire": 5313,
      "Ġfou": 5314,
      "Ã©rant": 5315,
      "AssemblÃ©e": 5316,
      "assade": 5317,
      "Ġdistribution": 5318,
      "Ġconflit": 5319,
      "ĠSources": 5320,
      "Ġreprend": 5321,
      "Ġ().": 5322,
      "ĠrÃ©ponse": 5323,
      "ĠHans": 5324,
      "Ã©mission": 5325,
      "Ġbal": 5326,
      "Ġbour": 5327,
      "ĠMusic": 5328,
      "uck": 5329,
      "Ġpermettre": 5330,
      "ild": 5331,
      "istant": 5332,
      "Ġvir": 5333,
      "Ġproven": 5334,
      "Ã©tude": 5335,
      "Ġjuridi": 5336,
      "ĠnommÃ©e": 5337,
      "ĠArn": 5338,
      "ĠSk": 5339,
      "Ġjeunesse": 5340,
      "à¸": 5341,
      "Ġgrav": 5342,
      "oses": 5343,
      "Ġexpos": 5344,
      "ĠGh": 5345,
      "iÃ©s": 5346,
      "Å«": 5347,
      "ĠXIXe": 5348,
      "ĠLar": 5349,
      "Ġactuelle": 5350,
      "ĠrÃ©gional": 5351,
      "ship": 5352,
      "ĠInf": 5353,
      "ĠCre": 5354,
      "Ġarts": 5355,
      "Ġcritiques": 5356,
      "Alex": 5357,
      "ĠrÃ©alise": 5358,
      "ĠprÃ©sentant": 5359,
      "Ġmassi": 5360,
      "Ġmix": 5361,
      "Ġ1946": 5362,
      "idÃ©e": 5363,
      "aka": 5364,
      "Ã©pendant": 5365,
      "Ġmagazine": 5366,
      "aign": 5367,
      "importance": 5368,
      "Ã©rale": 5369,
      "uri": 5370,
      "Ġmob": 5371,
      "riculture": 5372,
      "appel": 5373,
      "ĠMath": 5374,
      "ĠDun": 5375,
      "Ġnavire": 5376,
      "ĠdÃ©posÃ©": 5377,
      "Ġoblig": 5378,
      "avis": 5379,
      "ĠColle": 5380,
      "ĠBir": 5381,
      "ĠKn": 5382,
      "icro": 5383,
      "Ġhon": 5384,
      "Ġtypes": 5385,
      "ĠLee": 5386,
      "Ġcontenu": 5387,
      "ĠTout": 5388,
      "ctur": 5389,
      "Ġrecherches": 5390,
      "ĠdÃ©buts": 5391,
      "Ġfun": 5392,
      "Ġtours": 5393,
      "ordeaux": 5394,
      "ĠLaurent": 5395,
      "Ġferrovi": 5396,
      "fications": 5397,
      "Michel": 5398,
      "ĠDar": 5399,
      "ĠmodÃ¨les": 5400,
      "ĠRock": 5401,
      "ĠprocÃ©d": 5402,
      "ival": 5403,
      "Ġratt": 5404,
      "ĠjouÃ©": 5405,
      "Ġformes": 5406,
      "Ġfront": 5407,
      "ĠStre": 5408,
      "ĠOff": 5409,
      "Ġconsult": 5410,
      "Ġlettre": 5411,
      "Ġchansons": 5412,
      "EN": 5413,
      "Ġenfin": 5414,
      "Ġreligieux": 5415,
      "Ġinst": 5416,
      "cuit": 5417,
      "Ġhauteur": 5418,
      "Ġvandalisme": 5419,
      "Ġbot": 5420,
      "ĠPublic": 5421,
      "Ġpiano": 5422,
      "Ġ1947": 5423,
      "ĠAlain": 5424,
      "Ġentreprises": 5425,
      "Ġconcours": 5426,
      "uth": 5427,
      "ĠJÃ©r": 5428,
      "Ġred": 5429,
      "ĠRacing": 5430,
      "recens": 5431,
      "aissent": 5432,
      "ĠGer": 5433,
      "Ã©volution": 5434,
      "Ġmanque": 5435,
      "ĠPubli": 5436,
      "quiÃ¨me": 5437,
      "ĠSou": 5438,
      "Ġquoti": 5439,
      "ocÃ¨se": 5440,
      "Ġenvironnement": 5441,
      "ĠdessinÃ©e": 5442,
      "obles": 5443,
      "ĠsiÃ¨ges": 5444,
      "ĠAcc": 5445,
      "Ġagricoles": 5446,
      "ãģ": 5447,
      "Ġsimil": 5448,
      "ĠrÃ©public": 5449,
      "Ġarrive": 5450,
      "Martin": 5451,
      "har": 5452,
      "Ġavi": 5453,
      "Ville": 5454,
      "osa": 5455,
      "ety": 5456,
      "late": 5457,
      "Ġmandat": 5458,
      "ĠÃ©vÃªque": 5459,
      "ĠMuseum": 5460,
      "ĠCalifornie": 5461,
      "Ġ%)": 5462,
      "Ġutilise": 5463,
      "Ġpalais": 5464,
      "Ġcaus": 5465,
      "Ġinspi": 5466,
      "Ġattein": 5467,
      "2001": 5468,
      "ĠCamb": 5469,
      "ducteur": 5470,
      "Ġwith": 5471,
      "ãĥ": 5472,
      "Cal": 5473,
      "uation": 5474,
      "abbaye": 5475,
      "OR": 5476,
      "ĠChicago": 5477,
      "Ġdeme": 5478,
      "ĠOut": 5479,
      "Ġcollaboration": 5480,
      "DF": 5481,
      "ĠrÃ©publique": 5482,
      "Ġpersonnel": 5483,
      "ĠFont": 5484,
      "tÃ©roÃ¯des": 5485,
      "Ġspati": 5486,
      "Ġpublication": 5487,
      "ĠDÃ¨s": 5488,
      "semble": 5489,
      "ĠJon": 5490,
      "vice": 5491,
      "Ġlutte": 5492,
      "Ġtoutefois": 5493,
      "lam": 5494,
      "ranger": 5495,
      "Ġorth": 5496,
      "Ġsaisons": 5497,
      "Ġalg": 5498,
      "Ġsert": 5499,
      "Ġ2026": 5500,
      "ĠDo": 5501,
      "ĠCer": 5502,
      "activitÃ©": 5503,
      "ĠcrÃ©e": 5504,
      "Ġjouer": 5505,
      "raient": 5506,
      "Ġrecord": 5507,
      "2002": 5508,
      "wan": 5509,
      "1990": 5510,
      "vence": 5511,
      "Ġlimite": 5512,
      "Ġ500": 5513,
      "Ġ1949": 5514,
      "Ġ46": 5515,
      "ĠJim": 5516,
      "ĠAh": 5517,
      "ĠtournÃ©e": 5518,
      "ĠthÃ©orie": 5519,
      ".),": 5520,
      "ĠFrÃ©dÃ©ric": 5521,
      "ĠunitÃ©": 5522,
      "ĠMah": 5523,
      "Ġsoldats": 5524,
      "lymp": 5525,
      "Ġprincipales": 5526,
      "tÃ©rieure": 5527,
      "industrie": 5528,
      "eries": 5529,
      "Ġauteurs": 5530,
      "ĠNGC": 5531,
      "Ġuniquement": 5532,
      "Ġpaix": 5533,
      "Ġtextes": 5534,
      "CL": 5535,
      "AmÃ©rique": 5536,
      "side": 5537,
      "ĠappelÃ©e": 5538,
      "Ġcoll": 5539,
      "Ġcommandant": 5540,
      "uclÃ©": 5541,
      "hom": 5542,
      "umÃ©": 5543,
      "AF": 5544,
      "anson": 5545,
      "arrivÃ©e": 5546,
      "heure": 5547,
      "ĠRadio": 5548,
      "Ġannuel": 5549,
      "aki": 5550,
      "Ġdispose": 5551,
      "gyp": 5552,
      "ĠÃĤge": 5553,
      "cupe": 5554,
      "Ġparents": 5555,
      "Ġtrain": 5556,
      "Ġfus": 5557,
      "ĠStat": 5558,
      "Ã©rÃ©s": 5559,
      "ĠGren": 5560,
      "Ġcycliste": 5561,
      "Ġ08": 5562,
      "ĠOs": 5563,
      "ĠSing": 5564,
      "ason": 5565,
      "irs": 5566,
      "Ġstudio": 5567,
      "ery": 5568,
      "attraction": 5569,
      "ĠDoc": 5570,
      "Ġgarde": 5571,
      "Ġ1951": 5572,
      "RÃ©s": 5573,
      "Ġriv": 5574,
      "ĠforÃªts": 5575,
      "Premi": 5576,
      "avier": 5577,
      "Ġ1942": 5578,
      "icien": 5579,
      "ston": 5580,
      "aga": 5581,
      "Ġconstruite": 5582,
      "Ã©lect": 5583,
      "quie": 5584,
      "ĠRol": 5585,
      "inaire": 5586,
      "ĠlÃ©gislatives": 5587,
      "ayer": 5588,
      "ĠmÃ©tro": 5589,
      "Ġsauv": 5590,
      "ardo": 5591,
      "ÃŃn": 5592,
      "yg": 5593,
      "verse": 5594,
      "yrÃ©nÃ©es": 5595,
      "Ġlois": 5596,
      "ĠXXIe": 5597,
      "Ġobtenu": 5598,
      "anda": 5599,
      "Ġmagn": 5600,
      "ĠdÃ©lÃ©g": 5601,
      "rons": 5602,
      "Hen": 5603,
      "tiqu": 5604,
      "ĠMilan": 5605,
      "Ġexcl": 5606,
      "Ġrevient": 5607,
      "ĠOrig": 5608,
      "ĠTV": 5609,
      "install": 5610,
      "ĠLove": 5611,
      "ĠforÃªt": 5612,
      "lite": 5613,
      "Ġ1938": 5614,
      "Ġsimplement": 5615,
      "ĠrÃ¨gles": 5616,
      "Ġcoupe": 5617,
      "ĠmÃ©trage": 5618,
      "ĠAtt": 5619,
      "ĠAngleterre": 5620,
      "eri": 5621,
      "Ġfit": 5622,
      "cessus": 5623,
      "ula": 5624,
      "Ġbout": 5625,
      "uro": 5626,
      "osph": 5627,
      "tiens": 5628,
      "Ġ41": 5629,
      "arer": 5630,
      "Ã©pisode": 5631,
      "ĠmatiÃ¨re": 5632,
      "quin": 5633,
      "ĠHan": 5634,
      "row": 5635,
      "ĠLis": 5636,
      "ĠdÃ©clare": 5637,
      "Ġdiffusion": 5638,
      "Ġ52": 5639,
      "ĠBor": 5640,
      "SÃ©rie": 5641,
      "Ã¢t": 5642,
      "Ġtelles": 5643,
      "ulÃ©e": 5644,
      "Ġchampionnats": 5645,
      "ĠderniÃ¨res": 5646,
      "Jacques": 5647,
      "ĠcaractÃ©ristiques": 5648,
      "monie": 5649,
      "ĠSitu": 5650,
      "Ġarrondissement": 5651,
      "ĠWall": 5652,
      "ology": 5653,
      "ĠGrÃ¨ce": 5654,
      "Ġsembl": 5655,
      "adel": 5656,
      "Ġ75": 5657,
      "Ġfamilles": 5658,
      "ĠArm": 5659,
      "Ġmauv": 5660,
      "Ġquant": 5661,
      "rome": 5662,
      "Ã©z": 5663,
      "ĠCir": 5664,
      "Ġ1937": 5665,
      "asi": 5666,
      "Ġprison": 5667,
      "ĠPap": 5668,
      "aliser": 5669,
      "landaise": 5670,
      "Ġbasket": 5671,
      "anni": 5672,
      "telle": 5673,
      "Ġlargement": 5674,
      "admissibilitÃ©": 5675,
      "oriz": 5676,
      "Ã¸": 5677,
      "rastructures": 5678,
      "ĠAp": 5679,
      "ĠfrontiÃ¨re": 5680,
      "ĠdurÃ©e": 5681,
      "ĠGall": 5682,
      "Ġmorte": 5683,
      "cteurs": 5684,
      "ij": 5685,
      "ilan": 5686,
      "Ġajout": 5687,
      "Ġpron": 5688,
      "arque": 5689,
      "manie": 5690,
      "600": 5691,
      "ĠprivÃ©e": 5692,
      "ĠSab": 5693,
      "ull": 5694,
      "Ġcommunication": 5695,
      "Ġhui": 5696,
      "ttes": 5697,
      "AP": 5698,
      "Ġcomporte": 5699,
      "150": 5700,
      "ĠSpe": 5701,
      "Ġsuivantes": 5702,
      "vous": 5703,
      "ĠTotal": 5704,
      "Ġjustice": 5705,
      "bas": 5706,
      "Ġ49": 5707,
      "Ġsingle": 5708,
      "ize": 5709,
      "round": 5710,
      "ĠrÃ©t": 5711,
      "ĠfrÃ¨res": 5712,
      "ĠChambre": 5713,
      "uent": 5714,
      "Ġesti": 5715,
      "Ġbesoin": 5716,
      "Ġ1943": 5717,
      "Ġseront": 5718,
      "Arch": 5719,
      "ĠformÃ©": 5720,
      "ĠBell": 5721,
      "Ġprincipe": 5722,
      "Ġprotest": 5723,
      "Ġcandidat": 5724,
      "ics": 5725,
      "ĠlittÃ©raire": 5726,
      "omÃ©t": 5727,
      "Ġ55": 5728,
      "Ġgard": 5729,
      "auts": 5730,
      "Ġrelation": 5731,
      "Ġscol": 5732,
      "hn": 5733,
      "ĠsupplÃ©ment": 5734,
      "ĠNag": 5735,
      "ĠCommission": 5736,
      "ĠsÅĵur": 5737,
      "Ġcroix": 5738,
      "ĠNorth": 5739,
      "140": 5740,
      "VF": 5741,
      "istro": 5742,
      "Ġexpli": 5743,
      "sivement": 5744,
      "Ġdoll": 5745,
      "Ġtennis": 5746,
      "Ġactuellement": 5747,
      "ĠstratÃ©g": 5748,
      "Min": 5749,
      "empereur": 5750,
      "Ġtherm": 5751,
      "bit": 5752,
      "Ġchambre": 5753,
      "ĠTw": 5754,
      "unal": 5755,
      "uin": 5756,
      "back": 5757,
      "http": 5758,
      "ComtÃ©": 5759,
      "Ã©tend": 5760,
      "Ġsocialiste": 5761,
      "Ġregroupe": 5762,
      "Ġtient": 5763,
      "umiÃ¨re": 5764,
      "Ġcroiss": 5765,
      "ĠimpÃ©ri": 5766,
      "Ġext": 5767,
      "oxe": 5768,
      "ĠAz": 5769,
      "hr": 5770,
      "Ġchiff": 5771,
      "Ã©rite": 5772,
      "Ġnotre": 5773,
      "Ġmaintenant": 5774,
      "ĠPhot": 5775,
      "Ġ47": 5776,
      "Ġnotion": 5777,
      "ĠremportÃ©": 5778,
      "ĠLeague": 5779,
      "uxemb": 5780,
      "Ġconstitue": 5781,
      "Ġdocumentaire": 5782,
      "Ġpost": 5783,
      "Ġ54": 5784,
      "ĠdÃ©bat": 5785,
      "__": 5786,
      "Ġ1941": 5787,
      "Ġexterne": 5788,
      "ĠcommencÃ©": 5789,
      "rograph": 5790,
      "Ġconsomm": 5791,
      "rimÃ©s": 5792,
      "miques": 5793,
      "usement": 5794,
      "ĠdÃ©putÃ©s": 5795,
      "bach": 5796,
      "Ġ51": 5797,
      "ensitÃ©": 5798,
      "ĠSuÃ¨de": 5799,
      "Ã¨che": 5800,
      "ĠsÃ»": 5801,
      "ĠarrÃªtÃ©": 5802,
      "Ġdanse": 5803,
      "onnement": 5804,
      "ĠnÃ©cessaire": 5805,
      "ĠPortugal": 5806,
      "ĠToute": 5807,
      "mile": 5808,
      "ief": 5809,
      "Ġnote": 5810,
      "Ġterritoires": 5811,
      "ĠcaractÃ¨re": 5812,
      "Ġdiv": 5813,
      "unitÃ©": 5814,
      "ĠGas": 5815,
      "ĠvÃ©ri": 5816,
      "Ġpermis": 5817,
      "Ġcalcul": 5818,
      "Ġcourant": 5819,
      "oleil": 5820,
      "Ġmessage": 5821,
      "Ġchacun": 5822,
      "ĠrÃ©serve": 5823,
      "Ġcouple": 5824,
      "field": 5825,
      "ocat": 5826,
      "Ġsang": 5827,
      "ĠrÃ©guliÃ¨rement": 5828,
      "rasbourg": 5829,
      "ng": 5830,
      "ustin": 5831,
      "ĠBordeaux": 5832,
      "Ġcomptait": 5833,
      "ĠScÃ©n": 5834,
      "ĠGenÃ¨ve": 5835,
      "ife": 5836,
      "ĠDieu": 5837,
      "Ġcontient": 5838,
      "Ġsignifie": 5839,
      "yer": 5840,
      "ĠPopul": 5841,
      "Ġ1933": 5842,
      "Ġretraite": 5843,
      "illers": 5844,
      "ĠMadrid": 5845,
      "over": 5846,
      "ĠZe": 5847,
      "Ġinaug": 5848,
      "AM": 5849,
      "Ġlour": 5850,
      "raÃ«l": 5851,
      "ria": 5852,
      "opÃ©ra": 5853,
      "ĠCordialement": 5854,
      "Ġprocessus": 5855,
      "Orient": 5856,
      "Ġvoies": 5857,
      "Ġimpli": 5858,
      "Ã©nergie": 5859,
      "ogle": 5860,
      "Ġel": 5861,
      "ĠimmÃ©di": 5862,
      "ĠFar": 5863,
      "ĠJuan": 5864,
      "Ġtch": 5865,
      "Ġaccus": 5866,
      "Ã©tiques": 5867,
      "rans": 5868,
      "agog": 5869,
      "Ġouest": 5870,
      "Ġpublics": 5871,
      "glom": 5872,
      "amique": 5873,
      "Ġcouv": 5874,
      "ĠactivitÃ©": 5875,
      "ĠMes": 5876,
      "sif": 5877,
      "html": 5878,
      "ĠBol": 5879,
      "aniste": 5880,
      "ĠTÃ©lÃ©": 5881,
      "Ġparall": 5882,
      "Ġbureau": 5883,
      "Ġques": 5884,
      "tissement": 5885,
      "Ġ1935": 5886,
      "Ġapparti": 5887,
      "quelles": 5888,
      "Ġouvrage": 5889,
      "ilipp": 5890,
      "Ġpuissance": 5891,
      "rus": 5892,
      "Ġphotos": 5893,
      "Ġlongtemps": 5894,
      "olis": 5895,
      "lÃ©e": 5896,
      "Ġpoids": 5897,
      "ĠpubliÃ©e": 5898,
      "El": 5899,
      "Ġpape": 5900,
      "Ã©gal": 5901,
      "Ġsoient": 5902,
      "amme": 5903,
      "fecture": 5904,
      "Ġofficiellement": 5905,
      "ĠBab": 5906,
      "aph": 5907,
      "Association": 5908,
      "dir": 5909,
      "ĠdÃ©veloppÃ©": 5910,
      "Ġpolonais": 5911,
      "Ġ400": 5912,
      "ĠIns": 5913,
      "Ġextra": 5914,
      "ĠrÃ©sultat": 5915,
      "br": 5916,
      "Ġgouverneur": 5917,
      "Ġton": 5918,
      "venir": 5919,
      "UR": 5920,
      "hou": 5921,
      "Ġparoisse": 5922,
      "Ġneuf": 5923,
      "Ġneut": 5924,
      "Ġafric": 5925,
      "mil": 5926,
      "ower": 5927,
      "aisons": 5928,
      "Ġpeint": 5929,
      "ĠÃ©cole": 5930,
      "ricitÃ©": 5931,
      "ows": 5932,
      "sibles": 5933,
      "Ġtax": 5934,
      "imm": 5935,
      "tiÃ¨res": 5936,
      "Ãªtres": 5937,
      "Ġ64": 5938,
      "ĠRy": 5939,
      "Ġ1932": 5940,
      "Ġrock": 5941,
      "ĠvÃ©rit": 5942,
      "amour": 5943,
      "ple": 5944,
      "athan": 5945,
      "Ġnouvel": 5946,
      "Ġtombe": 5947,
      "Ġconcert": 5948,
      "Ġmusicale": 5949,
      "ĠKir": 5950,
      "Ġparf": 5951,
      "ĠcapacitÃ©": 5952,
      "ĠBud": 5953,
      "Ġchanteur": 5954,
      "Ġeffec": 5955,
      "ardinal": 5956,
      "Ġtur": 5957,
      "ĠLim": 5958,
      "ĠdÃ©ten": 5959,
      "dium": 5960,
      "mina": 5961,
      "Ġfaci": 5962,
      "auc": 5963,
      "Ġcombin": 5964,
      "Ġmach": 5965,
      "pole": 5966,
      "Ġ1934": 5967,
      "Ġquestions": 5968,
      "ĠAdam": 5969,
      "Ð»": 5970,
      "oub": 5971,
      "Ġculturel": 5972,
      "Ġnavires": 5973,
      "ĠVand": 5974,
      "iterran": 5975,
      "Ġ>": 5976,
      "cles": 5977,
      "eta": 5978,
      "orph": 5979,
      "ĠInd": 5980,
      "Ġtre": 5981,
      "----": 5982,
      "ĠGro": 5983,
      "Ġsch": 5984,
      "ĠBoy": 5985,
      "Ant": 5986,
      "lind": 5987,
      "Ġmi": 5988,
      "Ġtrouvent": 5989,
      "Ġdispos": 5990,
      "ĠcÃ´te": 5991,
      "oiles": 5992,
      "Ġparten": 5993,
      "ĠHo": 5994,
      "ĠâĨĴ": 5995,
      "lÃł": 5996,
      "Ġaustral": 5997,
      "ĠAlle": 5998,
      "top": 5999,
      "Ġlocaux": 6000,
      "uÃ©e": 6001,
      "ĠÃ©tape": 6002,
      "Ġcontrib": 6003,
      "Ġidentif": 6004,
      "ragon": 6005,
      "Ġinflu": 6006,
      "Ġcontinent": 6007,
      "avait": 6008,
      "audi": 6009,
      "500": 6010,
      "oÃ¹": 6011,
      "ĠNations": 6012,
      "ms": 6013,
      "entitÃ©": 6014,
      "Ġtraitement": 6015,
      "andie": 6016,
      "Autriche": 6017,
      "ĠrÃ¨gne": 6018,
      "ĠGil": 6019,
      "ĠPuis": 6020,
      "ortant": 6021,
      "ĠnuclÃ©": 6022,
      "ĠphÃ©n": 6023,
      "Ġrenfor": 6024,
      "ĠFootball": 6025,
      "ĠpoÃ¨te": 6026,
      "grand": 6027,
      "ĠPage": 6028,
      "Ġordre": 6029,
      "Art": 6030,
      "ĠMaroc": 6031,
      "orf": 6032,
      "ĠDiscussion": 6033,
      "EC": 6034,
      "ello": 6035,
      "Comp": 6036,
      "diens": 6037,
      "Ġpuisque": 6038,
      "douard": 6039,
      "jon": 6040,
      "Ġconnaissance": 6041,
      "iant": 6042,
      "Ġautomobile": 6043,
      "nt": 6044,
      "adap": 6045,
      "Ġartiste": 6046,
      "Arg": 6047,
      "ĠAux": 6048,
      "Ġmaisons": 6049,
      "TV": 6050,
      "ĠMessage": 6051,
      "Ġfamili": 6052,
      "Ġmy": 6053,
      "ĠDictionnaire": 6054,
      "uisseau": 6055,
      "Gar": 6056,
      "onge": 6057,
      "ĠSÃ©": 6058,
      "artiste": 6059,
      "ror": 6060,
      "ĠDam": 6061,
      "ĠdÃ©taill": 6062,
      "ĠmatÃ©rie": 6063,
      "reuves": 6064,
      "ĠHa": 6065,
      "Ġcart": 6066,
      "ĠTal": 6067,
      "lat": 6068,
      "ĠutilisÃ©s": 6069,
      "ĠVincent": 6070,
      "Ġtal": 6071,
      "ĠUnited": 6072,
      "oria": 6073,
      "ĠUtilis": 6074,
      "120": 6075,
      "urant": 6076,
      "ĠNouveau": 6077,
      "Ġdevait": 6078,
      "oug": 6079,
      "ĠcomitÃ©": 6080,
      "ĠUnion": 6081,
      "Ġchanteuse": 6082,
      "ĠbloquÃ©": 6083,
      "non": 6084,
      "aques": 6085,
      "ĠlancÃ©": 6086,
      "Ġguer": 6087,
      "ĠEli": 6088,
      "ronyme": 6089,
      "ĠÃ©tablis": 6090,
      "Ġrece": 6091,
      "ĠStrasbourg": 6092,
      "partement": 6093,
      "lÃ©ans": 6094,
      "Ġlaisse": 6095,
      "ĠMen": 6096,
      "%\"": 6097,
      "dier": 6098,
      "ĠPos": 6099,
      "Phil": 6100,
      "Es": 6101,
      "iciens": 6102,
      "Ġperdu": 6103,
      "ĠHill": 6104,
      "Ġretrouv": 6105,
      "RI": 6106,
      "Ġgui": 6107,
      "vez": 6108,
      "Ġsommet": 6109,
      "ĠmÃ©tÃ©": 6110,
      "por": 6111,
      "ableau": 6112,
      "lÃ¨ves": 6113,
      "ĠâĶĤ": 6114,
      "ĠDisc": 6115,
      "Ġgens": 6116,
      "ĠNik": 6117,
      "ĠChris": 6118,
      "Ġsenti": 6119,
      "Ġfranch": 6120,
      "the": 6121,
      "ĠBig": 6122,
      "Ġcrise": 6123,
      "ĠrÃ©comp": 6124,
      "ĠSouth": 6125,
      ";\"": 6126,
      "Ġfi": 6127,
      "ouch": 6128,
      "Ġdifficile": 6129,
      "AD": 6130,
      "AL": 6131,
      "olk": 6132,
      "ĠlibertÃ©": 6133,
      "Ġpilote": 6134,
      "Ġfaveur": 6135,
      "sons": 6136,
      "Ġfro": 6137,
      "Ġoriginaire": 6138,
      "ĠMos": 6139,
      "enis": 6140,
      "Ã©pendance": 6141,
      "avance": 6142,
      "Ġdisque": 6143,
      "Ġvoc": 6144,
      "Che": 6145,
      "Ġparler": 6146,
      "itime": 6147,
      "Ġindique": 6148,
      "Ġfavor": 6149,
      "Ġsportif": 6150,
      "Ġcertaine": 6151,
      "Ġdollars": 6152,
      "ignon": 6153,
      "enus": 6154,
      "ylv": 6155,
      "Ã©th": 6156,
      "letin": 6157,
      "ĠMons": 6158,
      "Ġsecondaires": 6159,
      "Date": 6160,
      "ĠutilisÃ©es": 6161,
      "sa": 6162,
      "ĠMonte": 6163,
      "ĠEng": 6164,
      "Membre": 6165,
      "ĠSurvey": 6166,
      "Ġplantes": 6167,
      "Ġ53": 6168,
      "lot": 6169,
      "atie": 6170,
      "ãĤ": 6171,
      "Ġaffaires": 6172,
      "Insee": 6173,
      "Ġbre": 6174,
      "ductions": 6175,
      "olet": 6176,
      "ommÃ©e": 6177,
      "Ġfondateur": 6178,
      "dom": 6179,
      "Ġresponsable": 6180,
      "oung": 6181,
      "ĠLien": 6182,
      "ĠÃĹ": 6183,
      "Ġpan": 6184,
      "ĠDurÃ©e": 6185,
      "ĠCollege": 6186,
      "tements": 6187,
      "rak": 6188,
      "ĠCy": 6189,
      "ĠTar": 6190,
      "Ġautoris": 6191,
      "Ġlire": 6192,
      "ĠCass": 6193,
      "Ġconcerne": 6194,
      "andard": 6195,
      "ĠAvant": 6196,
      "Ġvillages": 6197,
      "rine": 6198,
      "Ġsignal": 6199,
      "ĠFÃ©dÃ©ration": 6200,
      "Ġsuivants": 6201,
      "Ġplein": 6202,
      "manuel": 6203,
      "Ã´les": 6204,
      "Ġmaladie": 6205,
      "Ġaction": 6206,
      "ĠFort": 6207,
      "ĠEnfin": 6208,
      "Ġjuni": 6209,
      "Ġmineures": 6210,
      "ĠmÃ©decine": 6211,
      "Ġsyndic": 6212,
      "ĠSanta": 6213,
      "atri": 6214,
      "ĠSun": 6215,
      "Ġenseign": 6216,
      "ĠCaractÃ©ris": 6217,
      "Ġimages": 6218,
      "intÃ©g": 6219,
      "ĠMalgrÃ©": 6220,
      "ĠmÃ©decin": 6221,
      "Mus": 6222,
      "2024": 6223,
      "Ġsport": 6224,
      "Ġpermettent": 6225,
      "eroun": 6226,
      "exposition": 6227,
      "Ġactuel": 6228,
      "ĠgÃ©ographique": 6229,
      "ĠsÃ©ries": 6230,
      "ensis": 6231,
      "FC": 6232,
      "Ġweb": 6233,
      "ĠShe": 6234,
      "inger": 6235,
      "Ġvolume": 6236,
      "Ġfonde": 6237,
      "Ġpeine": 6238,
      "uration": 6239,
      "ĠtournÃ©": 6240,
      "ĠcathÃ©drale": 6241,
      "Ġautant": 6242,
      "Ġreine": 6243,
      "Ġvisite": 6244,
      "Ġappare": 6245,
      "long": 6246,
      "Ġcontributeurs": 6247,
      "Ir": 6248,
      "ĠGÃ©rard": 6249,
      "ĠrÃ©alitÃ©": 6250,
      "ĠÃīv": 6251,
      "hÃ´tel": 6252,
      "ĠCost": 6253,
      "ĠJoe": 6254,
      "ĠentiÃ¨rement": 6255,
      "rateur": 6256,
      "Ġferroviaire": 6257,
      "Ġpiste": 6258,
      "ĠastÃ©roÃ¯de": 6259,
      "Ġfilles": 6260,
      "ĠEug": 6261,
      "ĠrÃ©di": 6262,
      "onner": 6263,
      "ĠnÃ©erlandais": 6264,
      "ĠDÃ©b": 6265,
      "Ġsouff": 6266,
      "ĠlycÃ©e": 6267,
      "fesseur": 6268,
      "onnÃ©e": 6269,
      "ĠAlb": 6270,
      "lieu": 6271,
      "Ġperman": 6272,
      "cell": 6273,
      "ombre": 6274,
      "Ġinfrastructures": 6275,
      "1998": 6276,
      "dal": 6277,
      "ĠAk": 6278,
      "Ġobjets": 6279,
      "aves": 6280,
      "ancy": 6281,
      "acte": 6282,
      "espÃ¨ce": 6283,
      "ĠautoritÃ©s": 6284,
      "kov": 6285,
      "Ġnor": 6286,
      "Ġcong": 6287,
      "arre": 6288,
      "Ġscientifiques": 6289,
      "Ġchangement": 6290,
      "Ġprogres": 6291,
      "Ã©gÃ©t": 6292,
      "ĠArts": 6293,
      "ĠBois": 6294,
      "uaire": 6295,
      "Plan": 6296,
      "well": 6297,
      "Con": 6298,
      "hol": 6299,
      "saison": 6300,
      "urÃ©e": 6301,
      "pour": 6302,
      "leuve": 6303,
      "ĠNantes": 6304,
      "ĠsuÃ©d": 6305,
      "Ġparam": 6306,
      "Claude": 6307,
      "ĠarmÃ©es": 6308,
      "ionn": 6309,
      "Ġtotale": 6310,
      "Ġparticiper": 6311,
      "Ġoccasion": 6312,
      "rations": 6313,
      "ulg": 6314,
      "Ġmots": 6315,
      "Ġ1928": 6316,
      "Ġconduit": 6317,
      "alys": 6318,
      "ĠdÃ©faite": 6319,
      "ĠAnnÃ©e": 6320,
      "Ġ1929": 6321,
      "Ġfutur": 6322,
      "ĠliÃ©e": 6323,
      "olÃ©": 6324,
      "Ġremarqu": 6325,
      "ĠSin": 6326,
      "Val": 6327,
      "ĠDer": 6328,
      "ĠTeam": 6329,
      "Ġpetites": 6330,
      "Ġrecomm": 6331,
      "Ġauton": 6332,
      "ĠCab": 6333,
      "ium": 6334,
      "Ġcommuniste": 6335,
      "ĠrÃ©par": 6336,
      "ĠHal": 6337,
      "Ġdiplom": 6338,
      "Ġpou": 6339,
      "Ġfondation": 6340,
      "ĠGreen": 6341,
      "Ġvar": 6342,
      "ĠCorÃ©e": 6343,
      "ĠWeb": 6344,
      "mus": 6345,
      "Ġpseud": 6346,
      "ierge": 6347,
      "Ġanglaise": 6348,
      "ĠConf": 6349,
      "Ġdivis": 6350,
      "Ġ1931": 6351,
      "vet": 6352,
      "1982": 6353,
      "Ġmouvements": 6354,
      "ela": 6355,
      "Ġminim": 6356,
      "ĠintitulÃ©": 6357,
      "ĠAra": 6358,
      "ĠTunis": 6359,
      "bus": 6360,
      "ĠRÃ©alisation": 6361,
      "Ġanciennes": 6362,
      "ĠMatt": 6363,
      "ĠAntonio": 6364,
      "matique": 6365,
      "jou": 6366,
      "ĠHor": 6367,
      "Premier": 6368,
      "Ġmesures": 6369,
      "ĠcomÃ©die": 6370,
      "aceae": 6371,
      "ĠCaractÃ©ristiques": 6372,
      "Ġsuffis": 6373,
      "ÃłS": 6374,
      "lantique": 6375,
      "OC": 6376,
      "ĠAmÃ©rique": 6377,
      "Ġvoire": 6378,
      "ĠComitÃ©": 6379,
      "ĠcÃ©lÃ©": 6380,
      "Ġessentiellement": 6381,
      "ĠdÃ©mocratique": 6382,
      "EL": 6383,
      "ĠMÃ©tÃ©": 6384,
      "ĠBoul": 6385,
      "Il": 6386,
      "ĠOp": 6387,
      "ĠMarine": 6388,
      "Ġ56": 6389,
      "IC": 6390,
      "ĠconnaÃ®t": 6391,
      "Ġchim": 6392,
      "ĠFrancisco": 6393,
      "Ġath": 6394,
      "mans": 6395,
      "anges": 6396,
      "Ġouvrages": 6397,
      "reux": 6398,
      "ĠEv": 6399,
      "Ġdimin": 6400,
      "Ġproducteur": 6401,
      "ĠfÃ©minine": 6402,
      "win": 6403,
      "Ġvoiture": 6404,
      "Ã©lie": 6405,
      "Ġplate": 6406,
      "anga": 6407,
      "ĠintÃ©ress": 6408,
      "Ġ57": 6409,
      "ĠAward": 6410,
      "ĠMexique": 6411,
      "Ġlieutenant": 6412,
      "Ġpourquoi": 6413,
      "terie": 6414,
      "Ġmarche": 6415,
      "Ġtoile": 6416,
      "ĠFilmographie": 6417,
      "Ġdite": 6418,
      "ĠRaymond": 6419,
      "ĠCÃ´te": 6420,
      "Ġpoursuit": 6421,
      "Entre": 6422,
      "ĠErn": 6423,
      "ĠpropriÃ©taire": 6424,
      "ĠaccÃ¨s": 6425,
      "ĠMaj": 6426,
      "ĠAnth": 6427,
      "Ġcontexte": 6428,
      "ĠrÃ©partition": 6429,
      "Ġdescend": 6430,
      "exploitation": 6431,
      "ĠLÃ©gion": 6432,
      "RC": 6433,
      "Ġvainqueur": 6434,
      "tics": 6435,
      "Ã§a": 6436,
      "Ġvais": 6437,
      "Ġrejoindre": 6438,
      "ĠGenre": 6439,
      "andre": 6440,
      "ĠparticipÃ©": 6441,
      "ĠHy": 6442,
      "Ġnat": 6443,
      "mÃ©di": 6444,
      "ily": 6445,
      "ĠSerb": 6446,
      "ĠBrown": 6447,
      "Baptiste": 6448,
      "igny": 6449,
      "ĠdÃ©ch": 6450,
      "met": 6451,
      "ĠsystÃ¨mes": 6452,
      "court": 6453,
      "ĠDra": 6454,
      "anna": 6455,
      "Ġfabric": 6456,
      "1975": 6457,
      "environnement": 6458,
      "Ġtravailler": 6459,
      "Ġdiscip": 6460,
      "ĠrÃ©gionale": 6461,
      "Ã¼n": 6462,
      "ipp": 6463,
      "Ġcompagn": 6464,
      "Col": 6465,
      "ĠNov": 6466,
      "Ġimportants": 6467,
      "aillon": 6468,
      "Ġfonds": 6469,
      "Ġabsol": 6470,
      "veill": 6471,
      "ĠdÃ©signer": 6472,
      "Ġcumul": 6473,
      "Ġpromotion": 6474,
      "Ã©ducation": 6475,
      "ĠLaur": 6476,
      "Ġmeilleurs": 6477,
      "Ġrestauration": 6478,
      "Ġbrig": 6479,
      "Ã©nagement": 6480,
      "Ġdisponible": 6481,
      "Ġmasculin": 6482,
      "Oise": 6483,
      "ĠÃīpisode": 6484,
      "IG": 6485,
      "ĠÅĴuvres": 6486,
      "hel": 6487,
      "ĠpÃ©d": 6488,
      "ĠInde": 6489,
      "ĠindÃ©pendant": 6490,
      "ĠBad": 6491,
      "accÃ¨s": 6492,
      "ĠmÃ¢": 6493,
      "ĠSociety": 6494,
      "upp": 6495,
      "endra": 6496,
      "Bretagne": 6497,
      "agon": 6498,
      "zer": 6499,
      "ĠMaz": 6500,
      "ĠMol": 6501,
      "division": 6502,
      "Ġfaits": 6503,
      "ĠvÃ©gÃ©t": 6504,
      "usses": 6505,
      "Ġaffich": 6506,
      "ĠorganisÃ©": 6507,
      "kraine": 6508,
      "):": 6509,
      "ĠPolitique": 6510,
      "Ġphilosophie": 6511,
      "ĠFamille": 6512,
      "Ġcommission": 6513,
      "autom": 6514,
      "ĠPÃłS": 6515,
      "auff": 6516,
      "ĠHow": 6517,
      "Ġrive": 6518,
      "Ġmarchand": 6519,
      "ĠdÃ©roule": 6520,
      "Ġtermes": 6521,
      "Australie": 6522,
      "Ġmoin": 6523,
      "ĠcaractÃ©risÃ©e": 6524,
      "ĠLam": 6525,
      "astÃ¨re": 6526,
      "Ġchapitre": 6527,
      "gypte": 6528,
      "ĠbibliothÃ¨que": 6529,
      "Ġaugment": 6530,
      "ĠprÃ©sentÃ©": 6531,
      "ĠbÃ©nÃ©f": 6532,
      "ĠrÃ©cup": 6533,
      "Av": 6534,
      "rouillon": 6535,
      "Ġaliment": 6536,
      "Ġuniversitaire": 6537,
      "astÃ©roÃ¯des": 6538,
      "ĠthÃ¨me": 6539,
      "ĠScott": 6540,
      "ĠLud": 6541,
      "versaire": 6542,
      "ĠBibliothÃ¨que": 6543,
      "Ġaxe": 6544,
      "Ġniveaux": 6545,
      "Ġhyp": 6546,
      "Ã©nie": 6547,
      "ĠYe": 6548,
      "existence": 6549,
      "fiÃ©": 6550,
      "Ġ58": 6551,
      "valier": 6552,
      "ĠdÃ»": 6553,
      "ĠFem": 6554,
      "ricole": 6555,
      "iga": 6556,
      "Ġaltern": 6557,
      "ĠNam": 6558,
      "Ġutiliser": 6559,
      "Ġromaine": 6560,
      "architecture": 6561,
      "Ġsubs": 6562,
      "Ġfaite": 6563,
      "Ġquin": 6564,
      "Ath": 6565,
      "Ġsable": 6566,
      "Ġparis": 6567,
      "joint": 6568,
      "Ġparu": 6569,
      "Ġ1900": 6570,
      "ĠSport": 6571,
      "ĠBarcel": 6572,
      "intre": 6573,
      "union": 6574,
      "Ġpois": 6575,
      "ĠmÃªmes": 6576,
      "Ã©quip": 6577,
      "ĠQui": 6578,
      "ceau": 6579,
      "ried": 6580,
      "issue": 6581,
      "Ġcanal": 6582,
      "ĠMul": 6583,
      "str": 6584,
      "onnier": 6585,
      "ĠMai": 6586,
      "Ġnour": 6587,
      "Ġpp": 6588,
      "ĠJeanne": 6589,
      "ĠOtt": 6590,
      "Ġnobles": 6591,
      "Ã©der": 6592,
      "ĠdiffusÃ©e": 6593,
      "Ãİle": 6594,
      "aptis": 6595,
      "glomÃ©ration": 6596,
      "akh": 6597,
      "Ġferme": 6598,
      "Ġregard": 6599,
      "animation": 6600,
      "ails": 6601,
      "ĠWhite": 6602,
      "Ġconception": 6603,
      "Ġaller": 6604,
      "1997": 6605,
      "ĠmÃ©tropol": 6606,
      "ĠSteph": 6607,
      "ĠÃ©coles": 6608,
      "ĠBelle": 6609,
      "ĠdÃ©mar": 6610,
      "Ġmasse": 6611,
      "Ġ1918": 6612,
      "ĠPublication": 6613,
      "Ġmarine": 6614,
      "rÃ©m": 6615,
      "ĠAmerican": 6616,
      "ĪĴ": 6617,
      "liers": 6618,
      "dici": 6619,
      "ĠJones": 6620,
      "ĠDisney": 6621,
      "Ġraisons": 6622,
      "Ġjaponaise": 6623,
      "Ã¨vre": 6624,
      "major": 6625,
      "onnÃ©es": 6626,
      "Ġvictoires": 6627,
      "Ġretrait": 6628,
      "Ġdest": 6629,
      "Ġ|}": 6630,
      "centre": 6631,
      "ĠDj": 6632,
      "ĠrÃ©ussi": 6633,
      "Ġentreprise": 6634,
      "ĠDistin": 6635,
      "auf": 6636,
      "ĠJui": 6637,
      "achÃ©": 6638,
      "usage": 6639,
      "Ġbras": 6640,
      "Paris": 6641,
      "elin": 6642,
      "MS": 6643,
      "ĠCast": 6644,
      "ĠÃ©lector": 6645,
      "altitude": 6646,
      "wa": 6647,
      "rem": 6648,
      "alem": 6649,
      "Ġ02": 6650,
      "ĠCroix": 6651,
      "ĠMÃ©tÃ©o": 6652,
      "ĠÃ©crite": 6653,
      "ÃŁ": 6654,
      "tÃ©ph": 6655,
      "Ġpassant": 6656,
      "hin": 6657,
      "Ġ1919": 6658,
      "ĠrÃ©uss": 6659,
      "ĠLille": 6660,
      "rits": 6661,
      "ĠAssociation": 6662,
      "Ġtraduit": 6663,
      "Ġcomplet": 6664,
      "wick": 6665,
      "Ã©nage": 6666,
      "cio": 6667,
      "ĠrÃ©glement": 6668,
      "ĠÃ©vÃ©nements": 6669,
      "1968": 6670,
      "Ġpati": 6671,
      "AndrÃ©": 6672,
      "Ġ1925": 6673,
      "kins": 6674,
      "Ġpropres": 6675,
      "ĠCur": 6676,
      "lip": 6677,
      "ĠquÃ©bÃ©cois": 6678,
      "ĠÃ©tabli": 6679,
      "ortive": 6680,
      "Ġ1924": 6681,
      "Ã©conomie": 6682,
      "arte": 6683,
      "Ġsorte": 6684,
      "sous": 6685,
      "Ġach": 6686,
      "ĠlumiÃ¨re": 6687,
      "Ġterritori": 6688,
      "hard": 6689,
      "ĠAustralie": 6690,
      "enberg": 6691,
      "NH": 6692,
      "ĠKim": 6693,
      "ĠQuand": 6694,
      "Ġconcept": 6695,
      "Ġimage": 6696,
      "Ġ1910": 6697,
      "Ġivoirienne": 6698,
      "rik": 6699,
      "Ġprofessionnelle": 6700,
      "Ġsouhait": 6701,
      "ulte": 6702,
      "Ġerre": 6703,
      "Mari": 6704,
      "riers": 6705,
      "ramme": 6706,
      "ĠconstituÃ©": 6707,
      "Ġ07": 6708,
      "ĠXVII": 6709,
      "Ġarmes": 6710,
      "ĠStatistiques": 6711,
      "ortement": 6712,
      "ĠCertains": 6713,
      "Ġ120": 6714,
      "Ã©val": 6715,
      "lisme": 6716,
      "Ġparcours": 6717,
      "ĠScÃ©nario": 6718,
      "Ã©tudes": 6719,
      "ĠspÃ©cial": 6720,
      "Ġnul": 6721,
      "ariat": 6722,
      "ĠNoÃ«l": 6723,
      "omes": 6724,
      "Ġtome": 6725,
      "ĠÃ©lectrique": 6726,
      "ĠCatherine": 6727,
      "Ġdon": 6728,
      "erte": 6729,
      "oulin": 6730,
      "ĠdÃ©mont": 6731,
      "ĠcollÃ¨ge": 6732,
      "Ġguitare": 6733,
      "udie": 6734,
      "ĠprÃ©cÃ©dent": 6735,
      "nÃ©s": 6736,
      "Ġchangements": 6737,
      "ĠmÃ©tÃ©or": 6738,
      "ĠPÃ©": 6739,
      "jus": 6740,
      "ĠBall": 6741,
      "sentation": 6742,
      "Loc": 6743,
      "Ġvont": 6744,
      "Ġtrou": 6745,
      "Ġutilisant": 6746,
      "ito": 6747,
      "ĠdÃ©roulant": 6748,
      "ĠLorsque": 6749,
      "venue": 6750,
      "Ã©titions": 6751,
      "ĠdÃ©cret": 6752,
      "ĠAuteur": 6753,
      "Ġmusul": 6754,
      "Ġ59": 6755,
      "Alpes": 6756,
      "ĠplanÃ¨tes": 6757,
      "ĠPra": 6758,
      "Ġjardin": 6759,
      "indÃ©pendance": 6760,
      "ĠocÃ©": 6761,
      "ĠVirgin": 6762,
      "Ġportug": 6763,
      "ondes": 6764,
      "ĠHaut": 6765,
      "ĠimmÃ©diate": 6766,
      "ulaires": 6767,
      "attaque": 6768,
      "Ġamis": 6769,
      "Ġenfant": 6770,
      "Ġbourg": 6771,
      "ĠWilliams": 6772,
      "Ġprofonde": 6773,
      "Ġversions": 6774,
      "hor": 6775,
      "ĠUniversitÃ©": 6776,
      "uet": 6777,
      "IP": 6778,
      "Ġvente": 6779,
      "lent": 6780,
      "Ġreprise": 6781,
      "mid": 6782,
      "ccident": 6783,
      "ĠWill": 6784,
      "Ġregroup": 6785,
      "Ġromain": 6786,
      "ĠDÃ©fense": 6787,
      "ĠPa": 6788,
      "ultÃ©s": 6789,
      "Ġroyal": 6790,
      "ĠOlivier": 6791,
      "Ġactions": 6792,
      "Ã©ritÃ©": 6793,
      "ĠToutefois": 6794,
      "Ġautrich": 6795,
      "Ġchampions": 6796,
      "ser": 6797,
      "ĠBarcelone": 6798,
      "ctorat": 6799,
      "seaux": 6800,
      "paravant": 6801,
      "Ã¨gre": 6802,
      "agÃ©e": 6803,
      "ĠLog": 6804,
      "ĠMot": 6805,
      "ĠTroisiÃ¨me": 6806,
      "ĠDVD": 6807,
      "ĠdiamÃ¨tre": 6808,
      "Ġmoyens": 6809,
      "1995": 6810,
      "1962": 6811,
      "ĠrÃ©alisÃ©e": 6812,
      "Ġrespect": 6813,
      "Ġruisseau": 6814,
      "Ġ.,": 6815,
      "ID": 6816,
      "jo": 6817,
      "ĠprocÃ¨s": 6818,
      "Ġemploy": 6819,
      "Ġ1927": 6820,
      "ĠcinquiÃ¨me": 6821,
      "ĠFranc": 6822,
      "ĠÃ©lÃ¨ves": 6823,
      "ĠDol": 6824,
      "ocrate": 6825,
      "Ġgalax": 6826,
      "Ġespagnole": 6827,
      "ĠCup": 6828,
      "Ġcommandement": 6829,
      "ĠMore": 6830,
      "ĠClassi": 6831,
      "Ã¢ts": 6832,
      "Ġnavig": 6833,
      "affaires": 6834,
      "ĠLeon": 6835,
      "ĠmÃ©thodes": 6836,
      "Ġsociales": 6837,
      "Ġconcent": 6838,
      "lÃ©tisme": 6839,
      "Ġda": 6840,
      "Ġisra": 6841,
      "Ġoppos": 6842,
      "Ġdevrait": 6843,
      "chester": 6844,
      "ĠOl": 6845,
      "ĠAct": 6846,
      "ĠÃ©volue": 6847,
      "ymn": 6848,
      "ĠmÃ©dias": 6849,
      "2025": 6850,
      "ĠPopulation": 6851,
      "ĠarriÃ¨re": 6852,
      "Ġagricole": 6853,
      "ĠcompÃ©t": 6854,
      "Ġ65": 6855,
      "ualitÃ©": 6856,
      "Ġâľ": 6857,
      "ep": 6858,
      "orient": 6859,
      "1866": 6860,
      "ĠmatÃ©ri": 6861,
      "Ġvin": 6862,
      "ĠgÃ©nÃ©r": 6863,
      "Ġfaisait": 6864,
      "ĠTokyo": 6865,
      "color": 6866,
      "ĠGust": 6867,
      "rais": 6868,
      "ĠRoche": 6869,
      "haus": 6870,
      "onto": 6871,
      "olÃ©on": 6872,
      "ĠtÃ©moign": 6873,
      "ĠVoi": 6874,
      "uscrit": 6875,
      "ĠRevue": 6876,
      "Ġmodifications": 6877,
      "Ġsouver": 6878,
      "Ġreturn": 6879,
      "asser": 6880,
      "tivitÃ©s": 6881,
      "roix": 6882,
      "ĠPlay": 6883,
      "ĠÃ©mis": 6884,
      "ĠProjet": 6885,
      "mpl": 6886,
      "ohn": 6887,
      "Ġsynth": 6888,
      "Ġlesquels": 6889,
      "peau": 6890,
      "ĠCri": 6891,
      "Ġconver": 6892,
      "Ġdimen": 6893,
      "Ġ1926": 6894,
      "ĠWind": 6895,
      "inguis": 6896,
      "Ġanimaux": 6897,
      "oks": 6898,
      "Ġsin": 6899,
      "ĠMagn": 6900,
      "dez": 6901,
      "auss": 6902,
      "ĠLie": 6903,
      "Ġ1912": 6904,
      "sch": 6905,
      "1996": 6906,
      "ĠPersonnalitÃ©s": 6907,
      "ĠOu": 6908,
      "ĠDor": 6909,
      "ĠWalter": 6910,
      "IA": 6911,
      "ĠLeur": 6912,
      "rains": 6913,
      "Ġnu": 6914,
      "mation": 6915,
      "actions": 6916,
      "Ġoccupe": 6917,
      "clam": 6918,
      "angÃ©": 6919,
      "ĠStreet": 6920,
      "ĠVar": 6921,
      "esses": 6922,
      "Ġcoh": 6923,
      "ĠMari": 6924,
      "link": 6925,
      "ando": 6926,
      "ĠLiÃ¨ge": 6927,
      "Ġparvient": 6928,
      "ĠMÃ©": 6929,
      "orges": 6930,
      "ador": 6931,
      "endemain": 6932,
      "....": 6933,
      "Ġfortement": 6934,
      "ographies": 6935,
      "ĠprÃ©cÃ©dente": 6936,
      "ĠUl": 6937,
      "ĠGabriel": 6938,
      "Ġhong": 6939,
      "Ġoffre": 6940,
      "ĠMinistre": 6941,
      "Par": 6942,
      "Port": 6943,
      "oft": 6944,
      "rane": 6945,
      "ĠIndi": 6946,
      "tain": 6947,
      "gra": 6948,
      "Ġpouvant": 6949,
      "ĠÃ©levÃ©": 6950,
      "ĠTechn": 6951,
      "ĠphÃ©nom": 6952,
      "ĠJam": 6953,
      "ĠÃ©tudiants": 6954,
      "Ġcommunaut": 6955,
      "hors": 6956,
      "angl": 6957,
      "ĠSC": 6958,
      "ĠQuelques": 6959,
      "ĠRÃ©c": 6960,
      "ĠPeu": 6961,
      "ĠHun": 6962,
      "Ġarabe": 6963,
      "ĠlÃ©gislature": 6964,
      "enh": 6965,
      "Ġnationales": 6966,
      "300": 6967,
      "ĠAS": 6968,
      "Ġaudi": 6969,
      "ĠbasÃ©": 6970,
      "Ġvraiment": 6971,
      "Ġconstruire": 6972,
      "ernes": 6973,
      "Ġcant": 6974,
      "ĠStan": 6975,
      "Ã¨ges": 6976,
      "cial": 6977,
      "ĠBrig": 6978,
      "Ġcomposition": 6979,
      "ĠIt": 6980,
      "aco": 6981,
      "ĠManuel": 6982,
      "ieuses": 6983,
      "ĠKam": 6984,
      "ĠunitÃ©s": 6985,
      "ĠJane": 6986,
      "ussions": 6987,
      "Ġcomplexe": 6988,
      "ĠKon": 6989,
      "Ã¶r": 6990,
      "Village": 6991,
      "Ġsujets": 6992,
      "ĠHongrie": 6993,
      "Ġbiens": 6994,
      "Ġcaval": 6995,
      "ĠÃ©tudie": 6996,
      "Ġattaque": 6997,
      "Ġmains": 6998,
      "ĠcomplÃ¨": 6999,
      "ĠMans": 7000,
      "Ġformer": 7001,
      "Man": 7002,
      "dessous": 7003,
      "EP": 7004,
      "ĠÃ©trangÃ¨res": 7005,
      "Ġdirect": 7006,
      "nant": 7007,
      "una": 7008,
      "ĠdÃ©tr": 7009,
      "aid": 7010,
      "opt": 7011,
      "Ġ1917": 7012,
      "ĠGod": 7013,
      "ZÃ©": 7014,
      "Ġoffici": 7015,
      "illÃ©": 7016,
      "ĠdÃ©li": 7017,
      "Ġmajeur": 7018,
      "aissances": 7019,
      "ĠnumÃ©rique": 7020,
      "nels": 7021,
      "ĠexÃ©c": 7022,
      "ĠPublications": 7023,
      "ĠÃītat": 7024,
      "aises": 7025,
      "Ġremont": 7026,
      "ĠdÃ©partemental": 7027,
      "ĠcatÃ©gories": 7028,
      "Ġportes": 7029,
      "Ġmilit": 7030,
      "Ġtente": 7031,
      "ĠPÃ©ri": 7032,
      "ĠNorv": 7033,
      "ouche": 7034,
      "Ġrurale": 7035,
      "ĠExp": 7036,
      "ĠnaÃ®t": 7037,
      "ĠMike": 7038,
      "Ġappartient": 7039,
      "Ġappli": 7040,
      "orge": 7041,
      "avantage": 7042,
      "Ġvos": 7043,
      "ouvrage": 7044,
      "quante": 7045,
      "Ġfleurs": 7046,
      "nexe": 7047,
      "Ġlendemain": 7048,
      "uÃ©s": 7049,
      "ĠCompagnie": 7050,
      "Ġif": 7051,
      "Ġang": 7052,
      "ĠdÃ©bute": 7053,
      "ĠAbd": 7054,
      "ĠobservÃ©e": 7055,
      "ĠÄ": 7056,
      "ĠEnt": 7057,
      "analyse": 7058,
      "geois": 7059,
      "ju": 7060,
      "Ã©lev": 7061,
      "ĠAle": 7062,
      "Op": 7063,
      "deux": 7064,
      "ĠingÃ©n": 7065,
      "ĠAlbum": 7066,
      "ĠRose": 7067,
      "Ã©ron": 7068,
      "Ġressources": 7069,
      "ĠAlfred": 7070,
      "Ġdomicile": 7071,
      "meub": 7072,
      "ĠÃ©vent": 7073,
      "ĠOpen": 7074,
      "olie": 7075,
      "ĠMic": 7076,
      "Champion": 7077,
      "ĠAlph": 7078,
      "ĠSpr": 7079,
      "Ġaide": 7080,
      "ĠMort": 7081,
      "Voix": 7082,
      "ĠPaci": 7083,
      "ĠTak": 7084,
      "ĠKen": 7085,
      "asses": 7086,
      "tific": 7087,
      "ermain": 7088,
      "ĠArchives": 7089,
      "Ġnaturels": 7090,
      "Ġscore": 7091,
      "tish": 7092,
      "lications": 7093,
      "ext": 7094,
      "Ġfid": 7095,
      "Ġorgan": 7096,
      "Ã©bas": 7097,
      "ĠRoss": 7098,
      "ĠRis": 7099,
      "ayant": 7100,
      "Ġhos": 7101,
      "Henri": 7102,
      "ĠÃ©lÃ©ment": 7103,
      "ĠÃ©lus": 7104,
      "fond": 7105,
      "-)": 7106,
      "ĠTemps": 7107,
      "ĠJud": 7108,
      "Ġbeaux": 7109,
      "Ġnoire": 7110,
      "Ġpropor": 7111,
      "Ġnew": 7112,
      "Ġdocuments": 7113,
      "Ġ1922": 7114,
      "Ġadministrative": 7115,
      "Ġheure": 7116,
      "ĠBak": 7117,
      "Ġsemi": 7118,
      "ĠmarquÃ©e": 7119,
      "Ġmerci": 7120,
      "ĠJacob": 7121,
      "aret": 7122,
      "zo": 7123,
      "prÃ©sident": 7124,
      "ĠLag": 7125,
      "Ġpartage": 7126,
      "Ġcontributions": 7127,
      "Bot": 7128,
      "ĠGon": 7129,
      "ierry": 7130,
      "vol": 7131,
      "ĠopÃ©ration": 7132,
      "ias": 7133,
      "ank": 7134,
      "ĠMid": 7135,
      "Ġdevenue": 7136,
      "ĠFr": 7137,
      "Ġly": 7138,
      "acÃ©s": 7139,
      "ibre": 7140,
      "ĠGT": 7141,
      "Ġchoses": 7142,
      "ĠHav": 7143,
      "Ġinves": 7144,
      "ĠArthur": 7145,
      "Ġofficier": 7146,
      "ĠAf": 7147,
      "ĠTy": 7148,
      "aillÃ©": 7149,
      "Ed": 7150,
      "Ġmac": 7151,
      "Ãīquipe": 7152,
      "Ġtitulaire": 7153,
      "ĠPau": 7154,
      "Ġsucces": 7155,
      "ubert": 7156,
      "ĠbrÃ©sil": 7157,
      "Ġhommage": 7158,
      "Ġinhum": 7159,
      "RA": 7160,
      "utÃ©e": 7161,
      "ĠrÃ©alisation": 7162,
      "aies": 7163,
      "ĠAlpes": 7164,
      "ĠencyclopÃ©di": 7165,
      "Ġvrai": 7166,
      "cesseur": 7167,
      "ĠFred": 7168,
      "chevÃªque": 7169,
      "lia": 7170,
      "ĠÃīconomie": 7171,
      "Ġmm": 7172,
      "Ġplaces": 7173,
      "Sport": 7174,
      "iden": 7175,
      "angle": 7176,
      "ĠspÃ©cifique": 7177,
      "mÃ©t": 7178,
      "1991": 7179,
      "ĠscÃ©nario": 7180,
      "ĠintÃ©gral": 7181,
      "ĠAffaires": 7182,
      "iance": 7183,
      "ople": 7184,
      "Ġsav": 7185,
      "Ġfinit": 7186,
      "rot": 7187,
      "Ã§ons": 7188,
      "Ġatti": 7189,
      "aria": 7190,
      "atus": 7191,
      "dans": 7192,
      "ĠRC": 7193,
      "ĠIb": 7194,
      "ĠportÃ©": 7195,
      "ĠEss": 7196,
      "Ġ1923": 7197,
      "ĠNice": 7198,
      "Ġeut": 7199,
      "Ġprintemps": 7200,
      "ĠdiocÃ¨se": 7201,
      "ĠMerc": 7202,
      "roch": 7203,
      "ĠreprÃ©sentations": 7204,
      "ĠCaroline": 7205,
      "ĠfaÃ§ade": 7206,
      "Monument": 7207,
      "ough": 7208,
      "Ã©bastien": 7209,
      "bÃ©": 7210,
      "Äĥ": 7211,
      "mique": 7212,
      "uxembourg": 7213,
      "Ġ77": 7214,
      "lines": 7215,
      "Ã©sar": 7216,
      "absence": 7217,
      "ĠcatÃ©goris": 7218,
      "ĠKÃ¶": 7219,
      "ĠKarl": 7220,
      "yclopÃ©die": 7221,
      "erry": 7222,
      "Ġcanadienne": 7223,
      "Ġchute": 7224,
      "lises": 7225,
      "Ġdouze": 7226,
      "lag": 7227,
      "ĠpersonnalitÃ©": 7228,
      "Ġpression": 7229,
      "Anne": 7230,
      "eral": 7231,
      "Ġsortant": 7232,
      "PrÃ©": 7233,
      "now": 7234,
      "ĠLy": 7235,
      "ĠBus": 7236,
      "Ġlicence": 7237,
      "ĠMars": 7238,
      "Ġnage": 7239,
      "outi": 7240,
      "Ġinstitu": 7241,
      "ouvel": 7242,
      "front": 7243,
      "ĠÃ©viter": 7244,
      "ĠMou": 7245,
      "ĠDistinctions": 7246,
      "iner": 7247,
      "Ġfleuve": 7248,
      "ĠFrances": 7249,
      "ultan": 7250,
      "ĠpersonnalitÃ©s": 7251,
      "ĠdÃ©signe": 7252,
      "dite": 7253,
      "lÃ¨ne": 7254,
      "Ġmatin": 7255,
      "ĠSans": 7256,
      "eron": 7257,
      "ĠGard": 7258,
      "ject": 7259,
      "ĠgÃ©nÃ©raux": 7260,
      "Er": 7261,
      "Ġouverte": 7262,
      "alo": 7263,
      "Ġdomaines": 7264,
      "Ġdemander": 7265,
      "emark": 7266,
      "Ġlocales": 7267,
      "ator": 7268,
      "ĠtuÃ©": 7269,
      "ganisation": 7270,
      "Ã¨lement": 7271,
      "sace": 7272,
      "ĠopÃ©rations": 7273,
      "ĠIP": 7274,
      "ĠliÃ©s": 7275,
      "Ġ%).": 7276,
      "ĠmÃ©dic": 7277,
      "Ġpon": 7278,
      "ĠdÃ©gÃ¢ts": 7279,
      "udios": 7280,
      "Ġvent": 7281,
      "Ġcolspan": 7282,
      "Ã©lu": 7283,
      "ĠTay": 7284,
      "ĠBruno": 7285,
      "Ġdispute": 7286,
      "ZÃ©lande": 7287,
      "onymes": 7288,
      "fa": 7289,
      "Ġcord": 7290,
      "ventaire": 7291,
      "Ġmicro": 7292,
      "Ġ66": 7293,
      "Seine": 7294,
      "dont": 7295,
      "Ġsportive": 7296,
      "Ġimportantes": 7297,
      "ĠconsidÃ©ra": 7298,
      "ĠDenis": 7299,
      "ĠDominique": 7300,
      "Nord": 7301,
      "Ġpauv": 7302,
      "ĠCr": 7303,
      "obox": 7304,
      "ĠLind": 7305,
      "Ġ1921": 7306,
      "Ġreconnaissance": 7307,
      "ĠpubliÃ©s": 7308,
      "Ġeffets": 7309,
      "ĠBÃ©": 7310,
      "lisabeth": 7311,
      "enez": 7312,
      "itte": 7313,
      "Pl": 7314,
      "Ġcui": 7315,
      "Asie": 7316,
      "ĠFig": 7317,
      "Ġgmina": 7318,
      "ĠWood": 7319,
      "ĠSel": 7320,
      "Ġtrue": 7321,
      "gor": 7322,
      "ĠSix": 7323,
      "uteur": 7324,
      "ĠamÃ©ricains": 7325,
      "xford": 7326,
      "ciation": 7327,
      "Ġgagne": 7328,
      "ĠarmÃ©e": 7329,
      "ĠCarlos": 7330,
      "ĠfÃªte": 7331,
      "Ġproches": 7332,
      "ĠdÃ©riv": 7333,
      "Ġclo": 7334,
      "ĠaÃ©rienne": 7335,
      "Ġespace": 7336,
      "Ġfen": 7337,
      "ĠRue": 7338,
      "Ġinitialement": 7339,
      "ĠService": 7340,
      "ĠOne": 7341,
      "Ġformat": 7342,
      "commun": 7343,
      "atures": 7344,
      "1994": 7345,
      "Az": 7346,
      "ĠFal": 7347,
      "Ġbleu": 7348,
      "ĠÃ©conomiques": 7349,
      "aquant": 7350,
      "ĠNancy": 7351,
      "Ġlimit": 7352,
      "ĠtrouvÃ©": 7353,
      "Ġrappel": 7354,
      "Ġvictimes": 7355,
      "stÃ¨me": 7356,
      "architecte": 7357,
      "ensus": 7358,
      "ground": 7359,
      "Ġ68": 7360,
      "ĠCinÃ©ma": 7361,
      "ĠJuifs": 7362,
      "ĠBourgogne": 7363,
      "inform": 7364,
      "Her": 7365,
      "ĠPrÃ©sident": 7366,
      "ĠFried": 7367,
      "ĠÃīlections": 7368,
      "criptions": 7369,
      "Ġthen": 7370,
      "igu": 7371,
      "ava": 7372,
      "ĠTous": 7373,
      "Ġjudici": 7374,
      "Ġcouronne": 7375,
      "ĠMeilleure": 7376,
      "Ġcivil": 7377,
      "vide": 7378,
      "Ġnaz": 7379,
      "aÃ¯d": 7380,
      "ouvenir": 7381,
      "Ġportail": 7382,
      "ĠPalais": 7383,
      "via": 7384,
      "ĠcomplÃ¨te": 7385,
      "ĠÃ©lab": 7386,
      "Ġaffec": 7387,
      "1946": 7388,
      "Ġ300": 7389,
      "Ġrelativement": 7390,
      "Ġrac": 7391,
      "Ġbaseball": 7392,
      "NI": 7393,
      "ĠHu": 7394,
      "Ġinternes": 7395,
      "ĠreprÃ©sentation": 7396,
      "Ġenregistre": 7397,
      "ĠCongrÃ¨s": 7398,
      "Ġappari": 7399,
      "Ġphotographie": 7400,
      "ĠvariÃ©tÃ©": 7401,
      "Ġtransports": 7402,
      "ĠnÃ©goci": 7403,
      "Ġpouvait": 7404,
      "ĠSys": 7405,
      "Ġfaud": 7406,
      "ventions": 7407,
      "lette": 7408,
      "ĠpÃªche": 7409,
      "ĠWiki": 7410,
      "Ã©criture": 7411,
      "Ã©rou": 7412,
      "ĠLangue": 7413,
      "ĠComb": 7414,
      "ĠVierge": 7415,
      "Ġ1913": 7416,
      "ĠfÃ©dÃ©ral": 7417,
      "rets": 7418,
      "ciÃ¨re": 7419,
      "prÃ¨te": 7420,
      "Ġcoloni": 7421,
      "ĠZh": 7422,
      "yclisme": 7423,
      "wis": 7424,
      "ĠÃ©val": 7425,
      "ĠCli": 7426,
      "Ġinternationales": 7427,
      "ĠvÃ©ritable": 7428,
      "ez": 7429,
      "pg": 7430,
      "ĠprÃ©sidentielle": 7431,
      "Ġarchite": 7432,
      "ĠBut": 7433,
      "OrlÃ©ans": 7434,
      "dae": 7435,
      "ĠStÃ©ph": 7436,
      "ken": 7437,
      "ĠPoints": 7438,
      "llerie": 7439,
      "Ġcoord": 7440,
      "ĠVit": 7441,
      "Ġ76": 7442,
      "ĠFlorence": 7443,
      "Ġlecture": 7444,
      "Ġ03": 7445,
      "Ġnations": 7446,
      "ĠLeg": 7447,
      "Foot": 7448,
      "ĠrÃ©sistance": 7449,
      "ĠVI": 7450,
      "Ġsugg": 7451,
      "ĠMÃ©m": 7452,
      "ĠSchool": 7453,
      "ĠGiov": 7454,
      "Ġacte": 7455,
      "Ã©lix": 7456,
      "Ġfour": 7457,
      "Ġplans": 7458,
      "Ġpert": 7459,
      "mber": 7460,
      "Ġcuis": 7461,
      "Marne": 7462,
      "ĠTam": 7463,
      "Ã³w": 7464,
      "rophÃ©e": 7465,
      "Ġmou": 7466,
      "ĠRa": 7467,
      "ĠchÅĵur": 7468,
      "odi": 7469,
      "yra": 7470,
      "arriÃ¨re": 7471,
      "ladi": 7472,
      "TS": 7473,
      "áĥ": 7474,
      "ĠLuis": 7475,
      "ommages": 7476,
      "ĠTu": 7477,
      "Blan": 7478,
      "endi": 7479,
      "bite": 7480,
      "ĠCos": 7481,
      "ĠGeorg": 7482,
      "ĠsociÃ©tÃ©s": 7483,
      "quÃ©es": 7484,
      "enny": 7485,
      "ĠFlori": 7486,
      "Ġ(,": 7487,
      "otype": 7488,
      "Ġclassification": 7489,
      "Ġcomptes": 7490,
      "ĠdÃ©couvre": 7491,
      "andball": 7492,
      "Denis": 7493,
      "ĠÃ©dit": 7494,
      "ĠToronto": 7495,
      "ĠChamb": 7496,
      "Ġciel": 7497,
      "Ġproposition": 7498,
      "Ġreligion": 7499,
      "apes": 7500,
      "ĠColombie": 7501,
      "ĠdensitÃ©": 7502,
      "ĠDre": 7503,
      "uper": 7504,
      "affaire": 7505,
      "Ġ-||": 7506,
      "Ġlogements": 7507,
      "ologies": 7508,
      "Grand": 7509,
      "ĠBac": 7510,
      "unk": 7511,
      "Ġjustif": 7512,
      "OM": 7513,
      "Ġcarb": 7514,
      "ĠliÃ©": 7515,
      "ĠvÃ©hicules": 7516,
      "Ġvivant": 7517,
      "ĠVis": 7518,
      "ĠconsidÃ¨re": 7519,
      "ĠYoung": 7520,
      "ĠHistory": 7521,
      "Ġenne": 7522,
      "Ã©vÃªque": 7523,
      "ike": 7524,
      "ĠreprÃ©sentants": 7525,
      "ĠTs": 7526,
      "Ġtrad": 7527,
      "ĠisraÃ©li": 7528,
      "ĠSerge": 7529,
      "ĠHay": 7530,
      "Ġ72": 7531,
      "ĠdÃ©clarÃ©": 7532,
      "ander": 7533,
      "Ġpowiat": 7534,
      "appu": 7535,
      "ĠdirigÃ©": 7536,
      "ĠconfÃ©rence": 7537,
      "ĠRaison": 7538,
      "Ġlaisser": 7539,
      "Ġpuisqu": 7540,
      "ĠKaz": 7541,
      "Ġul": 7542,
      "hem": 7543,
      "ĠNorvÃ¨ge": 7544,
      "Ġchron": 7545,
      "AlgÃ©rie": 7546,
      "Ġappartenant": 7547,
      "ĠMu": 7548,
      "ermont": 7549,
      "ĠSavoie": 7550,
      "agers": 7551,
      "ĠcontrÃ´": 7552,
      "Ġ62": 7553,
      "ĠTan": 7554,
      "Ent": 7555,
      "ĠentraÃ®neur": 7556,
      "Ġcommunal": 7557,
      "ĠProg": 7558,
      "Inde": 7559,
      "Tra": 7560,
      "ody": 7561,
      "wer": 7562,
      "rection": 7563,
      "astie": 7564,
      "Ġdisparu": 7565,
      "ĠProm": 7566,
      "Ġprofit": 7567,
      "Ġsecondes": 7568,
      "ĠLorraine": 7569,
      "1993": 7570,
      "ĠCS": 7571,
      "ĠPier": 7572,
      "sile": 7573,
      "ĠDÃ©t": 7574,
      "Ġriche": 7575,
      "ĠSalon": 7576,
      "Ġexploit": 7577,
      "Ãītienne": 7578,
      "rague": 7579,
      "ĠscÃ©nariste": 7580,
      "zaine": 7581,
      "ĠRub": 7582,
      "tor": 7583,
      "ĠKi": 7584,
      "ĠcÃ©rÃ©monie": 7585,
      "ĠdÃ©couv": 7586,
      "artillerie": 7587,
      "Ġ67": 7588,
      "Ordre": 7589,
      "ĠFormat": 7590,
      "obe": 7591,
      "Ġvieux": 7592,
      "ĠthÃ©or": 7593,
      "ĠAlexander": 7594,
      "ĠannoncÃ©": 7595,
      "ĠprÃªtre": 7596,
      "istres": 7597,
      "ĠLondon": 7598,
      "Ministre": 7599,
      "ysique": 7600,
      "Ġsauf": 7601,
      "Ä±": 7602,
      "ĠHab": 7603,
      "Ġactes": 7604,
      "ĠRoi": 7605,
      "alisateur": 7606,
      "Ġphoto": 7607,
      "hÃ´pital": 7608,
      "Ġcondition": 7609,
      "Ġexplique": 7610,
      "ification": 7611,
      "Ġfrag": 7612,
      "ĠdiffÃ©rence": 7613,
      "Ġautomatique": 7614,
      "Ġpopulations": 7615,
      "ĠVous": 7616,
      "onnais": 7617,
      "Ã©chal": 7618,
      "ĠBoston": 7619,
      "ĠLan": 7620,
      "agent": 7621,
      "Nom": 7622,
      "Peintre": 7623,
      "ĠtÃ©l": 7624,
      "Ġate": 7625,
      "expression": 7626,
      "ĠconsacrÃ©": 7627,
      "ĠJul": 7628,
      "ĠEdward": 7629,
      "Ġeffic": 7630,
      "1992": 7631,
      "ĠClim": 7632,
      "Ġjaune": 7633,
      "php": 7634,
      "ĠHarry": 7635,
      "XX": 7636,
      "Ġacces": 7637,
      "Station": 7638,
      "Ġradic": 7639,
      "Ġsecondaire": 7640,
      "ĠAnna": 7641,
      "Ġhumaine": 7642,
      "Ġsociaux": 7643,
      "Ġstatue": 7644,
      "ĠRÃ©gion": 7645,
      "Ġreligieuse": 7646,
      "ĠdÃ©cenn": 7647,
      "Ġpubliques": 7648,
      "Ġassi": 7649,
      "ĠRic": 7650,
      "oke": 7651,
      "ii": 7652,
      "Ġobtenir": 7653,
      "Arm": 7654,
      "ĠTib": 7655,
      "utation": 7656,
      "OT": 7657,
      "enture": 7658,
      "ĠTurquie": 7659,
      "uisant": 7660,
      "ĠMario": 7661,
      "ĠnÃ©anmoins": 7662,
      "ĠCant": 7663,
      "ĠLuxembourg": 7664,
      "Pat": 7665,
      "Ġsing": 7666,
      "Si": 7667,
      "ĠFondation": 7668,
      "Joseph": 7669,
      "Ġcontact": 7670,
      "Ġorganisation": 7671,
      "ĠReich": 7672,
      "ĠDanemark": 7673,
      "fiction": 7674,
      "ĠLivre": 7675,
      "Ġorthod": 7676,
      "ree": 7677,
      "agriculture": 7678,
      "CC": 7679,
      "Ġdiman": 7680,
      "Ġassociation": 7681,
      "Ã©at": 7682,
      "Ġsomme": 7683,
      "ĠCode": 7684,
      "ĠpossibilitÃ©": 7685,
      "Ġsoir": 7686,
      "amed": 7687,
      "rel": 7688,
      "stan": 7689,
      "hal": 7690,
      "rales": 7691,
      "Off": 7692,
      "ession": 7693,
      "ĠFel": 7694,
      "Ġblanche": 7695,
      "ĠJohnson": 7696,
      "ĠChaque": 7697,
      "ĠrÃ©aliser": 7698,
      "ĠvolontÃ©": 7699,
      "Ġcru": 7700,
      "Ġfranco": 7701,
      "Ġ63": 7702,
      "Ġcandidats": 7703,
      "gÃ©e": 7704,
      "Ġvaleurs": 7705,
      "ĠrÃ¨gle": 7706,
      "CLC": 7707,
      "Irlande": 7708,
      "venu": 7709,
      "Ð²": 7710,
      "Ñĥ": 7711,
      "ĠMis": 7712,
      "Ġrares": 7713,
      "))": 7714,
      "Ġsolution": 7715,
      "Ġrevanche": 7716,
      "ĠprÃ©t": 7717,
      "ĠForce": 7718,
      "env": 7719,
      "emples": 7720,
      "Ġactif": 7721,
      "Ġcitoy": 7722,
      "PD": 7723,
      "Ġsouhaite": 7724,
      "enge": 7725,
      "initi": 7726,
      "ruits": 7727,
      "Ġproduire": 7728,
      "nez": 7729,
      "formes": 7730,
      "ĠJeff": 7731,
      "ste": 7732,
      "ĠDal": 7733,
      "ĠHou": 7734,
      "Ġ1911": 7735,
      "ancement": 7736,
      "ĠparamÃ¨tres": 7737,
      "ĠJulien": 7738,
      "Ġ78": 7739,
      "ĠEff": 7740,
      "Ġfaux": 7741,
      "Ġ82": 7742,
      "Ġchevaux": 7743,
      "uisent": 7744,
      "ĠSports": 7745,
      "ĠLas": 7746,
      "Ã©ry": 7747,
      "ĠIsland": 7748,
      "ĠLaw": 7749,
      "ĠPot": 7750,
      "ĠRio": 7751,
      "mm": 7752,
      "nelles": 7753,
      "ĠHouse": 7754,
      "Ġcomprendre": 7755,
      "ĠFi": 7756,
      "ĠVenise": 7757,
      "ĠrÃ©forme": 7758,
      "ĠJeunesse": 7759,
      "ĠConstantin": 7760,
      "Ġvo": 7761,
      "Ġru": 7762,
      "ultures": 7763,
      "Ġfonctionnement": 7764,
      "rol": 7765,
      "autÃ©s": 7766,
      "Ġray": 7767,
      "bot": 7768,
      "Ġcombats": 7769,
      "ĠFinlande": 7770,
      "ĠsÃ©p": 7771,
      "ĠrÃª": 7772,
      "ĠHaw": 7773,
      "Ġsil": 7774,
      "site": 7775,
      "ĠdemandÃ©": 7776,
      "ĠprÃ©d": 7777,
      "ĠEric": 7778,
      "Ġrencontres": 7779,
      "ĠMunich": 7780,
      "Ġyeux": 7781,
      "Ġhar": 7782,
      "oiseau": 7783,
      "arth": 7784,
      "abelle": 7785,
      "Ġspectacle": 7786,
      "ĠCharl": 7787,
      "Ġ85": 7788,
      "ĠgÃ©nÃ©ration": 7789,
      "PR": 7790,
      "ĠJÃ©s": 7791,
      "ĠPhotographie": 7792,
      "ceaux": 7793,
      "MA": 7794,
      "Ġvac": 7795,
      "Ġauparavant": 7796,
      "Ãīv": 7797,
      "ĠNormandie": 7798,
      "Ã©en": 7799,
      "ĠfrÃ©quent": 7800,
      "mas": 7801,
      "droite": 7802,
      "Ġcra": 7803,
      "Ġten": 7804,
      "Ġ69": 7805,
      "Ġrues": 7806,
      "ĠFord": 7807,
      "Ġtrente": 7808,
      "ilson": 7809,
      "Inter": 7810,
      "ĠCelui": 7811,
      "ĠMetz": 7812,
      "Ġcardinal": 7813,
      "ĠDev": 7814,
      "ĠapprÃ©": 7815,
      "Ġchevalier": 7816,
      "ĠLigne": 7817,
      "ĠsignÃ©": 7818,
      "uan": 7819,
      "1950": 7820,
      "ĠtÃ´t": 7821,
      "ÅĦ": 7822,
      "itter": 7823,
      "ĠTi": 7824,
      "ĠSituation": 7825,
      "Ġmanuscrit": 7826,
      "influence": 7827,
      "ĠexposÃ©": 7828,
      "Ã©preuve": 7829,
      "ĠRoman": 7830,
      "Homme": 7831,
      "uter": 7832,
      "ĠrÃ©seaux": 7833,
      "Ġprati": 7834,
      "ĠspÃ©cialiste": 7835,
      "Ġdevint": 7836,
      "cie": 7837,
      "Ġexempl": 7838,
      "ĠmonastÃ¨re": 7839,
      "ArmÃ©e": 7840,
      "ameau": 7841,
      "Ã¦": 7842,
      "ĠComment": 7843,
      "Ġsuivre": 7844,
      "ĠâĪĴ": 7845,
      "Ġassassin": 7846,
      "Ġissu": 7847,
      "Ġart": 7848,
      "Roy": 7849,
      "ated": 7850,
      "Ġmess": 7851,
      "ĠprÃ©fecture": 7852,
      "ilisation": 7853,
      "lish": 7854,
      "tension": 7855,
      "ĠSerbie": 7856,
      "Ġ1915": 7857,
      "die": 7858,
      "tina": 7859,
      "engage": 7860,
      "ouri": 7861,
      "ĠVic": 7862,
      "delÃł": 7863,
      "Ġdemeure": 7864,
      "Ġconstructions": 7865,
      "Ġ74": 7866,
      "hl": 7867,
      "Ġgrave": 7868,
      "rophe": 7869,
      "=|": 7870,
      "Luc": 7871,
      "rade": 7872,
      "1936": 7873,
      "Ãīcrivain": 7874,
      "Ġchoisi": 7875,
      "post": 7876,
      "Ġtribunal": 7877,
      "acÃ©es": 7878,
      "Ġdiscours": 7879,
      "ĠTru": 7880,
      "Aug": 7881,
      "Vict": 7882,
      "Ġmol": 7883,
      "ĠOuv": 7884,
      "Ġpouss": 7885,
      "Ġ61": 7886,
      "Ġscru": 7887,
      "oser": 7888,
      "Christ": 7889,
      "New": 7890,
      "endie": 7891,
      "ĠdÃ©velopper": 7892,
      "Ġfabri": 7893,
      "ĠconsidÃ©rÃ©e": 7894,
      "ĠChristophe": 7895,
      "ĠCÃ©sar": 7896,
      "Ġpleine": 7897,
      "Ġmajeure": 7898,
      "tiennent": 7899,
      "consultÃ©": 7900,
      "ĠState": 7901,
      "Ġsor": 7902,
      "ĠÃ©cl": 7903,
      "OV": 7904,
      "oliques": 7905,
      "scar": 7906,
      "levard": 7907,
      "ally": 7908,
      "cre": 7909,
      "ual": 7910,
      "Ġcombatt": 7911,
      "Ġdatant": 7912,
      "ĠBes": 7913,
      "ĠKy": 7914,
      "ĠdÃ©mission": 7915,
      "utions": 7916,
      "jamin": 7917,
      "EspÃ¨ce": 7918,
      "Ġretrouver": 7919,
      "Ġentou": 7920,
      "Ġintro": 7921,
      "riÃ¨res": 7922,
      "uler": 7923,
      "Ġcontenant": 7924,
      "ieure": 7925,
      "Ġenvi": 7926,
      "Ġnuls": 7927,
      "Ġplateau": 7928,
      "ĠLitt": 7929,
      "ĠGreg": 7930,
      "Ġhoriz": 7931,
      "rari": 7932,
      "ĠAst": 7933,
      "inal": 7934,
      "ĠMart": 7935,
      "250": 7936,
      "ĠPre": 7937,
      "1954": 7938,
      "ĠTro": 7939,
      "Ġaura": 7940,
      "CD": 7941,
      "ropri": 7942,
      "ĠCle": 7943,
      "1945": 7944,
      "ĠMand": 7945,
      "Ġfeuilles": 7946,
      "He": 7947,
      "scrits": 7948,
      "ĠmatÃ©riel": 7949,
      "Ġbelle": 7950,
      "auph": 7951,
      "ĠenvoyÃ©": 7952,
      "ĠrÃ©pondre": 7953,
      "Ġfrais": 7954,
      "ĠDay": 7955,
      "Ãītats": 7956,
      "ĠantÃ©rie": 7957,
      "Ã©tant": 7958,
      "Ġfacteurs": 7959,
      "uki": 7960,
      "ĠÃīvolution": 7961,
      "nam": 7962,
      "ĠmÃ©ti": 7963,
      "sten": 7964,
      "Ġarchives": 7965,
      "achÃ©e": 7966,
      "Ġpromu": 7967,
      "Ġvot": 7968,
      "ueur": 7969,
      "Site": 7970,
      "??": 7971,
      "Ġmairie": 7972,
      "onniers": 7973,
      "ergne": 7974,
      "ĠprivÃ©": 7975,
      "ĠexÃ©cu": 7976,
      "Sh": 7977,
      "Ġski": 7978,
      "Ġtemple": 7979,
      "ĠSteve": 7980,
      "Ġexception": 7981,
      "Ġcre": 7982,
      "Ġnationaux": 7983,
      "Ġmunicipales": 7984,
      "ĠRon": 7985,
      "Ġmit": 7986,
      "Ġ1916": 7987,
      "obten": 7988,
      "oint": 7989,
      "ĠBlue": 7990,
      "ĠdiffusÃ©": 7991,
      "Ġrespectivement": 7992,
      "Ġmineure": 7993,
      "ĠNet": 7994,
      "Ġlun": 7995,
      "Ġgrat": 7996,
      "ĠeuropÃ©ens": 7997,
      "ĠSir": 7998,
      "Entreprise": 7999,
      "Ġreconnu": 8000,
      "Ġlesquelles": 8001,
      "ĠTony": 8002,
      "ĠJackson": 8003,
      "Ġconvain": 8004,
      "Te": 8005,
      "Ġpanne": 8006,
      "leine": 8007,
      "ĠPop": 8008,
      "ĠidÃ©": 8009,
      "ĠTown": 8010,
      "Laurent": 8011,
      "arin": 8012,
      "Ġatteindre": 8013,
      "Ġcomportement": 8014,
      "1989": 8015,
      "dent": 8016,
      "Ġcircuit": 8017,
      "installe": 8018,
      "ĠPin": 8019,
      "tia": 8020,
      "ĠBistro": 8021,
      "ĠTexas": 8022,
      "pellier": 8023,
      "ĠPascal": 8024,
      "ĠmarquÃ©": 8025,
      "ĠYves": 8026,
      "Footballeur": 8027,
      "Ġtraverse": 8028,
      "Ġvenir": 8029,
      "Ġmines": 8030,
      "ĠConserv": 8031,
      "ĠtchÃ¨que": 8032,
      "ĠStra": 8033,
      "Ġwiki": 8034,
      "Ġclair": 8035,
      "Ġobtenus": 8036,
      "ĠGare": 8037,
      "ĠHigh": 8038,
      "oÃ®t": 8039,
      "ĠdonnÃ©e": 8040,
      "ĠnÃ©o": 8041,
      "Ġexclus": 8042,
      "Ġlogiciel": 8043,
      "naires": 8044,
      "nis": 8045,
      "tec": 8046,
      "Ġtoit": 8047,
      "xic": 8048,
      "omen": 8049,
      "itat": 8050,
      "Ġquanti": 8051,
      "ĠSerg": 8052,
      "rase": 8053,
      "Ġprovis": 8054,
      "ĠGran": 8055,
      "ĠKal": 8056,
      "euros": 8057,
      "ombe": 8058,
      "ĠDim": 8059,
      "esprit": 8060,
      "tellig": 8061,
      "Ġbritanniques": 8062,
      "Ġretourne": 8063,
      "Ġcabinet": 8064,
      "gon": 8065,
      "Ã©taires": 8066,
      "Ġrendu": 8067,
      "ĠSÃ©rie": 8068,
      "ĠSlov": 8069,
      "endrier": 8070,
      "etti": 8071,
      "Ġmyth": 8072,
      "âĢĿ": 8073,
      "Ġcontributeur": 8074,
      "ĠNombre": 8075,
      "Ġastron": 8076,
      "ĠOuest": 8077,
      "extÃ©rieur": 8078,
      "ĠlÃ©gende": 8079,
      "Ġbud": 8080,
      "Ġgro": 8081,
      "ĠGilles": 8082,
      "ĠprÃ©cise": 8083,
      "Ġbio": 8084,
      "luent": 8085,
      "Ġmettant": 8086,
      "ĠPu": 8087,
      "Ġtenu": 8088,
      "Ġhydrograph": 8089,
      "ev": 8090,
      "avel": 8091,
      "Ġcrimin": 8092,
      "itan": 8093,
      "ĠGouver": 8094,
      "rates": 8095,
      "Ġrecue": 8096,
      "arrÃªt": 8097,
      "ĠInt": 8098,
      "Ġaspect": 8099,
      "Ġryth": 8100,
      "organis": 8101,
      "ĠHerm": 8102,
      "Ġrepris": 8103,
      "Ġpose": 8104,
      "ophones": 8105,
      "Ġcommercial": 8106,
      "ĠCenter": 8107,
      "ĠassociÃ©": 8108,
      "Ġrejet": 8109,
      "Ã©ran": 8110,
      "univers": 8111,
      "agi": 8112,
      "ding": 8113,
      "ignÃ©e": 8114,
      "Ġmixte": 8115,
      "ologiste": 8116,
      "Ġjoueuse": 8117,
      "usalem": 8118,
      "oque": 8119,
      "Ġremport": 8120,
      "CN": 8121,
      "ĠLife": 8122,
      "Ġconserve": 8123,
      "Ġrecru": 8124,
      "Ġprofesse": 8125,
      "Ġprimaire": 8126,
      "illeur": 8127,
      "ED": 8128,
      "cite": 8129,
      "finale": 8130,
      "appr": 8131,
      "istÃ©": 8132,
      "ĠVoix": 8133,
      "ĠGoogle": 8134,
      "observatoire": 8135,
      "Ġcm": 8136,
      "afÃ©": 8137,
      "ĠdÃ©finie": 8138,
      "Ãīp": 8139,
      "ukrain": 8140,
      "\":": 8141,
      "ĠLamb": 8142,
      "obi": 8143,
      "Ġdan": 8144,
      "uman": 8145,
      "Ã©riques": 8146,
      "expÃ©ri": 8147,
      "ĠhÃ©ros": 8148,
      "ĠaÃ®": 8149,
      "ymologie": 8150,
      "Ġvien": 8151,
      "Ġrefuse": 8152,
      "ĠSciences": 8153,
      "ĠChili": 8154,
      "Fichier": 8155,
      "viv": 8156,
      "Ġaffirme": 8157,
      "eni": 8158,
      "istique": 8159,
      "Ġrenv": 8160,
      "ĠKong": 8161,
      "ĠRoad": 8162,
      "Ġblancs": 8163,
      "Ġvesti": 8164,
      "ĠIsraÃ«l": 8165,
      "ĠrÃ©fug": 8166,
      "orÃ©e": 8167,
      "ĠprÃ©sidence": 8168,
      "ĠNick": 8169,
      "Ġ1870": 8170,
      "uerite": 8171,
      "Ġromans": 8172,
      "unn": 8173,
      "ĠFou": 8174,
      "ĠthÃ¨se": 8175,
      "ĠCommunes": 8176,
      "Ġadministration": 8177,
      "elly": 8178,
      "Ġbranche": 8179,
      "utt": 8180,
      "Ġretourn": 8181,
      "ĠrÃ©cit": 8182,
      "tÃ©matique": 8183,
      "Ġcolonel": 8184,
      "baye": 8185,
      "articles": 8186,
      "Acteur": 8187,
      "incl": 8188,
      "Ġquar": 8189,
      "Dis": 8190,
      "Ġ1908": 8191,
      "ĠLub": 8192,
      "ĠStock": 8193,
      "ĠDeuxiÃ¨me": 8194,
      "ĠpÃ©tro": 8195,
      "âĶ": 8196,
      "Ġ81": 8197,
      "ĠalgÃ©ri": 8198,
      "cience": 8199,
      "Ġbus": 8200,
      "ĠrÃ©sidence": 8201,
      "ĠlittÃ©ra": 8202,
      "Ø§": 8203,
      "125": 8204,
      "sterdam": 8205,
      "Ġcroissance": 8206,
      "ĠÃ©vid": 8207,
      "ĠKat": 8208,
      "uge": 8209,
      "ourne": 8210,
      "Ġaccueilli": 8211,
      "Ġdimanche": 8212,
      "page": 8213,
      "ĠMt": 8214,
      "ĠMak": 8215,
      "Ġeffectue": 8216,
      "Journ": 8217,
      "ĠRenaissance": 8218,
      "reau": 8219,
      "1988": 8220,
      "Ġfisc": 8221,
      "amÃ©li": 8222,
      "Ġrense": 8223,
      "Ġ73": 8224,
      "Exp": 8225,
      "Mil": 8226,
      "Ġpourtant": 8227,
      "Ġadmis": 8228,
      "ritÃ©": 8229,
      "Ġvite": 8230,
      "Ġpertin": 8231,
      "Ġ86": 8232,
      "assÃ©": 8233,
      "Ġsurn": 8234,
      "Ġcommunale": 8235,
      "Ġhabitu": 8236,
      "ĠaÃ©riennes": 8237,
      "ĠBonn": 8238,
      "vit": 8239,
      "ilitÃ©s": 8240,
      "Ġdestru": 8241,
      "Ġcompose": 8242,
      "Ġpolonaise": 8243,
      "ĠPlace": 8244,
      "ĠHyd": 8245,
      "Ġ88": 8246,
      "ĠLot": 8247,
      "Ġoise": 8248,
      "Ġalbums": 8249,
      "ĠmÃ©tropolitaine": 8250,
      "emploi": 8251,
      "Ġcourte": 8252,
      "Ġnotes": 8253,
      "ĠprÃ©nom": 8254,
      "Ġpreuve": 8255,
      "ĠToponymie": 8256,
      "Ã©matique": 8257,
      "ĠMade": 8258,
      "ĠconnaÃ®tre": 8259,
      "rÃ©sor": 8260,
      "ĠRep": 8261,
      "allon": 8262,
      "Ġarab": 8263,
      "mel": 8264,
      "ĠAmb": 8265,
      "irst": 8266,
      "ĠdÃ©cÃ©dÃ©": 8267,
      "uvi": 8268,
      "Ã¥": 8269,
      "ĠBonne": 8270,
      "Ġ71": 8271,
      "ĠCN": 8272,
      "Ġconcurr": 8273,
      "Ġfiction": 8274,
      "Ġthermique": 8275,
      "ĠPyrÃ©nÃ©es": 8276,
      "ista": 8277,
      "ĠWolf": 8278,
      "ĠCameroun": 8279,
      "Ġcous": 8280,
      "Ġrecommand": 8281,
      "ĠNous": 8282,
      "ĠPrince": 8283,
      "Ġspir": 8284,
      "Ġchefs": 8285,
      "ĠbasÃ©e": 8286,
      "ĠentrÃ©e": 8287,
      "ĠInternet": 8288,
      "ĠEnter": 8289,
      "\")": 8290,
      "rob": 8291,
      "Ġenvers": 8292,
      "ĠGaz": 8293,
      "ĠÃ©toiles": 8294,
      "organ": 8295,
      "ĠsuÃ©dois": 8296,
      "ensive": 8297,
      "fait": 8298,
      "Ġseuls": 8299,
      "Club": 8300,
      "Ġguerres": 8301,
      "ogo": 8302,
      "Ġantique": 8303,
      "AA": 8304,
      "ĠprÃ©sents": 8305,
      "ĠrÃ©vol": 8306,
      "ĠRennes": 8307,
      "tesse": 8308,
      "ĠOlymp": 8309,
      "opposition": 8310,
      "ĠRoute": 8311,
      "Ġrisques": 8312,
      "pa": 8313,
      "Ġmurs": 8314,
      "Ġajou": 8315,
      "Ġgran": 8316,
      "ĠMach": 8317,
      "ĠopÃ©ra": 8318,
      "ĠexpÃ©riment": 8319,
      "annes": 8320,
      "ĠCompany": 8321,
      "ĠLNH": 8322,
      "Ã©mat": 8323,
      "ĠSamuel": 8324,
      "inson": 8325,
      "Ġcontinu": 8326,
      "Ġmassif": 8327,
      "ĠdiplÃ´me": 8328,
      "Ġ1905": 8329,
      "Ġdescription": 8330,
      "ĠConstitution": 8331,
      "Ġsusp": 8332,
      "Ġculte": 8333,
      "Ġtotalement": 8334,
      "ĠmÃ¨ne": 8335,
      "ĠQuatre": 8336,
      "Ġouvre": 8337,
      "Ġ04": 8338,
      "Ġfavoris": 8339,
      "ĠNot": 8340,
      "Ġsait": 8341,
      "Ġfili": 8342,
      "ĠrÃ©fÃ©r": 8343,
      "ignant": 8344,
      "amo": 8345,
      "Ġcollabor": 8346,
      "110": 8347,
      "ĠPres": 8348,
      "ĠKo": 8349,
      "ĠLit": 8350,
      "ĠPen": 8351,
      "ĠcommÃ©m": 8352,
      "ĠscÃ¨nes": 8353,
      "ĠrÃ©guliÃ¨re": 8354,
      "oma": 8355,
      "1926": 8356,
      "quitaine": 8357,
      "roc": 8358,
      "Philippe": 8359,
      "ĠCommunautÃ©": 8360,
      "Ġisl": 8361,
      "Ġlinguis": 8362,
      "ĠÃ©pous": 8363,
      "Ġdesserv": 8364,
      "ĠLouise": 8365,
      "Ġmunicipale": 8366,
      "ĠnuclÃ©aire": 8367,
      "Ġ06": 8368,
      "ustration": 8369,
      "115": 8370,
      "dep": 8371,
      "Gu": 8372,
      "Ġfoss": 8373,
      "Ġoccidentale": 8374,
      "onal": 8375,
      "issaire": 8376,
      "aÃ©roport": 8377,
      "oslav": 8378,
      "acre": 8379,
      "Ġquitter": 8380,
      "ĠsÃ»r": 8381,
      "1931": 8382,
      "Ġvolumes": 8383,
      "alisÃ©s": 8384,
      "Ġrester": 8385,
      "âĶĢ": 8386,
      "aou": 8387,
      "gi": 8388,
      "ocÃ©": 8389,
      "inves": 8390,
      "ĠCongo": 8391,
      "ĠRad": 8392,
      "Ġvisant": 8393,
      "ĠBand": 8394,
      "ashi": 8395,
      ".).": 8396,
      "SC": 8397,
      "ĠItal": 8398,
      "Ġprises": 8399,
      "ĠThierry": 8400,
      "ĠsiÃ¨cles": 8401,
      "etÃ©": 8402,
      "ĠMontage": 8403,
      "tile": 8404,
      "Ãīcosse": 8405,
      "ĠcatÃ©gorisÃ©e": 8406,
      "fiÃ©e": 8407,
      "igan": 8408,
      "ĠorganisÃ©e": 8409,
      "ĠPil": 8410,
      "ims": 8411,
      "ĠChi": 8412,
      "Ġbaron": 8413,
      "Ġroutes": 8414,
      "ĠFilms": 8415,
      "ĠSong": 8416,
      "ĠBow": 8417,
      "endue": 8418,
      "Ġstandard": 8419,
      "rophes": 8420,
      "len": 8421,
      "ĠPou": 8422,
      "ĠGame": 8423,
      "ĠAllemand": 8424,
      "Ġprivil": 8425,
      "ika": 8426,
      "Ġmissions": 8427,
      "Ġsupprimer": 8428,
      "Ġprovisoire": 8429,
      "Ã©tablissement": 8430,
      "Ġressort": 8431,
      "ĠPhilipp": 8432,
      "Î¿": 8433,
      "ĠconservÃ©": 8434,
      "Ġprennent": 8435,
      "Ġserbe": 8436,
      "ĠWat": 8437,
      "ĠâĢľ": 8438,
      "eneur": 8439,
      "Ġcycle": 8440,
      "UE": 8441,
      "arme": 8442,
      "onds": 8443,
      "1985": 8444,
      "shire": 8445,
      "ĠÃīdouard": 8446,
      "ĠmathÃ©matiques": 8447,
      "Ġpratiques": 8448,
      "eller": 8449,
      "Ġcontemporaine": 8450,
      "Ġorbite": 8451,
      "ĠrÃ©pert": 8452,
      "Sec": 8453,
      "cules": 8454,
      "orchestre": 8455,
      "ĠAnti": 8456,
      "Ġpatri": 8457,
      "oriÃ©tÃ©": 8458,
      "Ġprolong": 8459,
      "Ġmilieux": 8460,
      "Ġcouvrant": 8461,
      "ĠEmpire": 8462,
      "ĠJr": 8463,
      "ĠCru": 8464,
      "Ġpersonnelle": 8465,
      "ĠTaylor": 8466,
      "Ġavanc": 8467,
      "ĠProvence": 8468,
      "Ġaccueille": 8469,
      "Ġclimatique": 8470,
      "ĠAsh": 8471,
      "ĠdiplÃ´": 8472,
      "archie": 8473,
      "ĠLemmon": 8474,
      "Ġ110": 8475,
      "ĠCath": 8476,
      "Ġhor": 8477,
      "ĠDemandÃ©e": 8478,
      "Maur": 8479,
      "Ġbatterie": 8480,
      "Ġenvis": 8481,
      "ĠÃ©gyp": 8482,
      "ĠDum": 8483,
      "Ġmaximum": 8484,
      "ĠVictoria": 8485,
      "ĠprÃ©p": 8486,
      "ĠprÃ©serv": 8487,
      "cepti": 8488,
      "commune": 8489,
      "Ġdistribu": 8490,
      "Ġdehors": 8491,
      "mad": 8492,
      "1986": 8493,
      "positeur": 8494,
      "ĠEsc": 8495,
      "ĠGiovanni": 8496,
      "Sc": 8497,
      "Ġcouvert": 8498,
      "Ġcens": 8499,
      "ĠBrian": 8500,
      "fl": 8501,
      "ĠRoumanie": 8502,
      "ffe": 8503,
      "Ġconsiste": 8504,
      "Ġtempor": 8505,
      "cies": 8506,
      "Ġinconnu": 8507,
      "Ġabs": 8508,
      "ĠAri": 8509,
      "ouvement": 8510,
      "Ġlancer": 8511,
      "Ġ1907": 8512,
      "amen": 8513,
      "Ġcommunautaire": 8514,
      "erto": 8515,
      "'Â«": 8516,
      "ĠDern": 8517,
      "ĠDiff": 8518,
      "Ġtournage": 8519,
      "ĠdÃ©truit": 8520,
      "irurg": 8521,
      "gny": 8522,
      "yde": 8523,
      "ĠLion": 8524,
      "1980": 8525,
      "Ġer": 8526,
      "Ġtiers": 8527,
      "Ġconservation": 8528,
      "wig": 8529,
      "med": 8530,
      "ĠRÃ©partition": 8531,
      "chec": 8532,
      "Ġparticipants": 8533,
      "ĠVII": 8534,
      "sia": 8535,
      "ĠVel": 8536,
      "ted": 8537,
      "Ġservir": 8538,
      "erge": 8539,
      "Ġeau": 8540,
      "dus": 8541,
      "Ġtentative": 8542,
      "Ġordres": 8543,
      "ĠWol": 8544,
      "ĠBÃ©n": 8545,
      "ĠintÃ¨gre": 8546,
      "Ġstock": 8547,
      "dÃ©m": 8548,
      "ĠTest": 8549,
      "1921": 8550,
      "ĠBla": 8551,
      "ĠRud": 8552,
      "Pal": 8553,
      "Ġvoyageurs": 8554,
      "ĠSus": 8555,
      "ĠGood": 8556,
      "LocalitÃ©": 8557,
      "ĠUrb": 8558,
      "ĠÃ©crits": 8559,
      "background": 8560,
      "onction": 8561,
      "Ġ$": 8562,
      "mberg": 8563,
      "ĠAuguste": 8564,
      "ĠLet": 8565,
      "Ġvendre": 8566,
      "Ġacteurs": 8567,
      "ĠrÃ´les": 8568,
      "Ġmaritime": 8569,
      "Ġ92": 8570,
      "ĠRab": 8571,
      "ĠparallÃ¨le": 8572,
      "ĠAfric": 8573,
      "Ġinond": 8574,
      "ingen": 8575,
      "ĠcomÃ©di": 8576,
      "ĠScience": 8577,
      "FI": 8578,
      "ĠMontpellier": 8579,
      "jpg": 8580,
      "ther": 8581,
      "Ġfrapp": 8582,
      "ĠBulletin": 8583,
      "pement": 8584,
      "adis": 8585,
      "Ġremplacer": 8586,
      "ĠHard": 8587,
      "Ġcollections": 8588,
      "Ġinterne": 8589,
      "enreg": 8590,
      "Charles": 8591,
      "Antoine": 8592,
      "entrer": 8593,
      "ĠBritish": 8594,
      "hyd": 8595,
      "Gal": 8596,
      "Ġmultiples": 8597,
      "ĠBy": 8598,
      "Ġrej": 8599,
      "ĠEnc": 8600,
      "ĠinfÃ©rieur": 8601,
      "ĠprÃ©vu": 8602,
      "bie": 8603,
      "unt": 8604,
      "aum": 8605,
      "Ġscrutin": 8606,
      "Ġachev": 8607,
      "ĠSN": 8608,
      "Ġjazz": 8609,
      "Ġvivre": 8610,
      "ĠimmÃ©diatement": 8611,
      "ĠinspirÃ©": 8612,
      "ĠFace": 8613,
      "Ã¡s": 8614,
      "Ġtrains": 8615,
      "Ġacquis": 8616,
      "Ġinfluence": 8617,
      "Ġespaces": 8618,
      "uba": 8619,
      "ĠplacÃ©": 8620,
      "zig": 8621,
      "ĠprotÃ©ger": 8622,
      "ĠSl": 8623,
      "Ġconseillers": 8624,
      "Ġmos": 8625,
      "Ġchanti": 8626,
      "Ġenvoy": 8627,
      "cÃ©e": 8628,
      "ns": 8629,
      "Ġ95": 8630,
      "ĠBlo": 8631,
      "Ġvoitures": 8632,
      "ĠEmmanuel": 8633,
      "Ġment": 8634,
      "ĠMig": 8635,
      "Ġhumains": 8636,
      "Ġunies": 8637,
      "Ġoub": 8638,
      "Ġproch": 8639,
      "Ġdisposition": 8640,
      "Ġstations": 8641,
      "'t": 8642,
      "Sa": 8643,
      "thumb": 8644,
      "Ãªcher": 8645,
      "Ġrelais": 8646,
      "Ġvision": 8647,
      "Ġ79": 8648,
      "Ġdynastie": 8649,
      "dan": 8650,
      "ĠPrague": 8651,
      "Ġmodernes": 8652,
      "tir": 8653,
      "ĠprÃ©sentation": 8654,
      "tist": 8655,
      "Ġvaut": 8656,
      "ilÃ©": 8657,
      "Ġoui": 8658,
      "Ġallemands": 8659,
      "Ġpav": 8660,
      "ĠGri": 8661,
      "ovo": 8662,
      "ĠStef": 8663,
      "ĠMcC": 8664,
      "comp": 8665,
      "ĠLieux": 8666,
      "ĠprÃ©senter": 8667,
      "Ġestime": 8668,
      "Ġpuisse": 8669,
      "1987": 8670,
      "Ġcontemporain": 8671,
      "ĠLev": 8672,
      "ĠconsÃ©quence": 8673,
      "Ġvaste": 8674,
      "oper": 8675,
      "Ġchemins": 8676,
      "Ã©difice": 8677,
      "ĠrÃ©daction": 8678,
      "ellation": 8679,
      "RhÃ´ne": 8680,
      "Pas": 8681,
      "rison": 8682,
      "ĠSum": 8683,
      "Ġ84": 8684,
      "ands": 8685,
      "Ġrecueil": 8686,
      "Ġhydrographique": 8687,
      "ĠTimes": 8688,
      "ĠGrenoble": 8689,
      "Ġdevi": 8690,
      "igi": 8691,
      "owski": 8692,
      "ĠtÃ©lÃ©ph": 8693,
      "Ġmig": 8694,
      "ĠconÃ§u": 8695,
      "ĠKer": 8696,
      "ilton": 8697,
      "ĠFra": 8698,
      "ultes": 8699,
      "eh": 8700,
      "Ġ1906": 8701,
      "ciers": 8702,
      "ĠFant": 8703,
      "andon": 8704,
      "Ġquelqu": 8705,
      "Ġ05": 8706,
      "Ġperformance": 8707,
      "Ġforment": 8708,
      "raux": 8709,
      "ĠSub": 8710,
      "Ġrepos": 8711,
      "uvergne": 8712,
      "omÃ©trie": 8713,
      "armes": 8714,
      "Ġpointe": 8715,
      "ĠBach": 8716,
      "Ġukrain": 8717,
      "oro": 8718,
      "Ġdocteur": 8719,
      "Ġ1909": 8720,
      "Ġculturelle": 8721,
      "akes": 8722,
      "Ġattest": 8723,
      "yb": 8724,
      "Cou": 8725,
      "ĠEur": 8726,
      "Division": 8727,
      "Ġmass": 8728,
      "Fer": 8729,
      "ĠChapelle": 8730,
      "Actrice": 8731,
      "ĠBasse": 8732,
      "Ġsupport": 8733,
      "Ġconnus": 8734,
      "Ġmoteurs": 8735,
      "quÃªtes": 8736,
      "pective": 8737,
      "jectifs": 8738,
      "sans": 8739,
      "ĠTo": 8740,
      "ĠidÃ©es": 8741,
      "Ġfabrication": 8742,
      "Ġexposition": 8743,
      "Ã©crivain": 8744,
      "diction": 8745,
      "Ġsolo": 8746,
      "rÃªts": 8747,
      "ĠAub": 8748,
      "ĠeuropÃ©ennes": 8749,
      "ĠpossÃ©d": 8750,
      "Ancien": 8751,
      "board": 8752,
      "ĠdÃ©cidÃ©": 8753,
      "Ġterrains": 8754,
      "Ġ1904": 8755,
      "ĠÃ¢ge": 8756,
      "ulsion": 8757,
      "ÅĴuv": 8758,
      "Ġcourses": 8759,
      "Ġden": 8760,
      "ĠÂ»),": 8761,
      "utiliser": 8762,
      "ĠfÃ©dÃ©ration": 8763,
      "ĠTours": 8764,
      "Ġgalerie": 8765,
      "ĠCandid": 8766,
      "ĠJÃ©sus": 8767,
      "ĠDuc": 8768,
      "Ġproje": 8769,
      "ĠSac": 8770,
      "orgie": 8771,
      "Ġgrecque": 8772,
      "Ġmodern": 8773,
      "Ġusage": 8774,
      "lÃ¨ge": 8775,
      "Ġ93": 8776,
      "montre": 8777,
      "leg": 8778,
      "Ġgerm": 8779,
      "Ġdessins": 8780,
      "ĠdÃ©pos": 8781,
      "aquie": 8782,
      "vres": 8783,
      "Ġprogressivement": 8784,
      "ĠmenÃ©es": 8785,
      "Ġnoblesse": 8786,
      "ĠAy": 8787,
      "ĠÃ©tablissements": 8788,
      "Ġfe": 8789,
      "Ġdistingue": 8790,
      "Ġflotte": 8791,
      "cin": 8792,
      "Ġ],": 8793,
      "ĠBA": 8794,
      "ĠVoy": 8795,
      "ĠBenjamin": 8796,
      "Ġsouverain": 8797,
      "ĠRouen": 8798,
      "Mer": 8799,
      "ranch": 8800,
      "cass": 8801,
      "Ġtort": 8802,
      "Ġinten": 8803,
      "Ġconsommation": 8804,
      "Ġobjectif": 8805,
      "Ġimag": 8806,
      "ĠVend": 8807,
      "ingÃ©n": 8808,
      "ctobre": 8809,
      "Ġrusses": 8810,
      "Occident": 8811,
      "reb": 8812,
      "ĠNE": 8813,
      "ĠdÃ©finition": 8814,
      "ĠProf": 8815,
      "ĠLewis": 8816,
      "conte": 8817,
      "ĠLieu": 8818,
      ".--": 8819,
      "ĠhÃ´tel": 8820,
      "Ġ87": 8821,
      "ĠproposÃ©": 8822,
      "Ġhumain": 8823,
      "ĠFront": 8824,
      "ĠSchw": 8825,
      "ĠFormule": 8826,
      "ortie": 8827,
      "Ġprofessionnels": 8828,
      "Ġamical": 8829,
      "iquement": 8830,
      "ĠChron": 8831,
      "ĠlÃ©gÃ¨rement": 8832,
      ");": 8833,
      "Ġpublications": 8834,
      "adelph": 8835,
      "ĠFÃ©lix": 8836,
      "Ġessais": 8837,
      "Ġ%,": 8838,
      "IT": 8839,
      "ĠclassÃ©e": 8840,
      "ĠSÃ©nat": 8841,
      "Ġauxquels": 8842,
      "acher": 8843,
      "ĠFinaliste": 8844,
      "Ġcroise": 8845,
      "ĠfÃ©dÃ©rale": 8846,
      "Sp": 8847,
      "ĠWilson": 8848,
      "atine": 8849,
      "Ġdoctorat": 8850,
      "wik": 8851,
      "Ġsignific": 8852,
      "ĠcondamnÃ©": 8853,
      "Ã¨ques": 8854,
      "ĠCond": 8855,
      "ĠmÃ©diÃ©v": 8856,
      "usine": 8857,
      "Ġporter": 8858,
      "Ġnomme": 8859,
      "ĠcommunautÃ©s": 8860,
      "ĠlatÃ©": 8861,
      "ĠMill": 8862,
      "ĠalÃ©": 8863,
      "ĠlibÃ©ration": 8864,
      "ĠPenn": 8865,
      "Ill": 8866,
      "rices": 8867,
      "ĠEast": 8868,
      "ĠÃ©cologique": 8869,
      "Ġpatron": 8870,
      "Ġquart": 8871,
      "Ã¨ses": 8872,
      "phab": 8873,
      "ĠÂ»..": 8874,
      "obl": 8875,
      "annÃ©es": 8876,
      "Ġkg": 8877,
      "ĠidÃ©e": 8878,
      "etz": 8879,
      "aignÃ©es": 8880,
      "ĠMess": 8881,
      "ĠPoi": 8882,
      "ĠHC": 8883,
      "elop": 8884,
      "Ã©lÃ¨ve": 8885,
      "anny": 8886,
      "Ġsoup": 8887,
      "ĠcohÃ©r": 8888,
      "Ġsimilaire": 8889,
      "rum": 8890,
      "ĠPD": 8891,
      "Ġutilisateur": 8892,
      "ĠJÃ©rusalem": 8893,
      "df": 8894,
      "idata": 8895,
      "vince": 8896,
      "ĠportÃ©e": 8897,
      "Ġdonnant": 8898,
      "tz": 8899,
      "ĠSupp": 8900,
      "ĠServ": 8901,
      "ĠFu": 8902,
      "Ġissus": 8903,
      "Ñı": 8904,
      "asy": 8905,
      "ĠBataille": 8906,
      "ĠcÃ©lÃ©b": 8907,
      "ĠÃİle": 8908,
      "cadre": 8909,
      "ĠColumb": 8910,
      "Ġprovenant": 8911,
      "ĠÃģ": 8912,
      "ĠocÃ©anique": 8913,
      "ĠRhÃ´ne": 8914,
      "exception": 8915,
      "ĠTableau": 8916,
      "ĠDiscographie": 8917,
      "ases": 8918,
      "ĠrÃ©nov": 8919,
      "ĠNapolÃ©on": 8920,
      "enfant": 8921,
      "Ġfaute": 8922,
      "ĠAuc": 8923,
      "ĠAnthony": 8924,
      "not": 8925,
      "worth": 8926,
      "cemment": 8927,
      "ĠXIII": 8928,
      "Ġcouverture": 8929,
      "xx": 8930,
      "ĠboÃ®": 8931,
      "ĠReal": 8932,
      "ĠspÃ©ciale": 8933,
      "house": 8934,
      "Ġmentionn": 8935,
      "ĠSuz": 8936,
      "Ġnaturelles": 8937,
      "âĢĶâĢĶ": 8938,
      "ĠBertrand": 8939,
      "Ġpie": 8940,
      "duits": 8941,
      "ĠdÃ©v": 8942,
      "Ġperte": 8943,
      "ĠLocalisation": 8944,
      "1983": 8945,
      "amÃ©nagement": 8946,
      "istoires": 8947,
      "ÅĴuvre": 8948,
      "ĠAcade": 8949,
      "ouge": 8950,
      "ĠprÃªt": 8951,
      "etta": 8952,
      "Albert": 8953,
      "monte": 8954,
      "Nic": 8955,
      "ĠChristoph": 8956,
      "Georges": 8957,
      "atÃ©": 8958,
      "Ġvide": 8959,
      "ĠChampionship": 8960,
      "quier": 8961,
      "Ġbaie": 8962,
      "Ġabrite": 8963,
      "ĠimpÃ©riale": 8964,
      "chesse": 8965,
      "ĠGilbert": 8966,
      "ĠDavis": 8967,
      "Ġtrafic": 8968,
      "ĠrelÃ©g": 8969,
      "ĠexposÃ©e": 8970,
      "Ġfortif": 8971,
      "ĠCastel": 8972,
      "ism": 8973,
      "Ġpapier": 8974,
      "1906": 8975,
      "Ġquartiers": 8976,
      "ĠarchÃ©ologique": 8977,
      "ends": 8978,
      "km": 8979,
      "Ã©raire": 8980,
      "rai": 8981,
      "dinand": 8982,
      "Å¾": 8983,
      "lez": 8984,
      "ĠÃ©quival": 8985,
      "Ð´": 8986,
      "mÃ©diaire": 8987,
      "ĠStÃ©phane": 8988,
      "inde": 8989,
      "Ġjuridique": 8990,
      "tent": 8991,
      "Ġvain": 8992,
      "ĠMarch": 8993,
      "ouÃ©": 8994,
      "esc": 8995,
      "urie": 8996,
      "Ġ83": 8997,
      "astron": 8998,
      "Ġ1890": 8999,
      "ĠRiviÃ¨re": 9000,
      "Fin": 9001,
      "ĠtravaillÃ©": 9002,
      "Ġprogrammes": 9003,
      "doc": 9004,
      "agglomÃ©ration": 9005,
      "gan": 9006,
      "ĠOk": 9007,
      "Ġ1903": 9008,
      "isÃ©": 9009,
      "alition": 9010,
      "adt": 9011,
      "Ġautonome": 9012,
      "agh": 9013,
      "tille": 9014,
      "ĠcomplÃ¨tement": 9015,
      "Ġspe": 9016,
      "tem": 9017,
      "diff": 9018,
      "endo": 9019,
      "Ġvictime": 9020,
      "Ġauquel": 9021,
      "icon": 9022,
      "Ren": 9023,
      "Ġpeux": 9024,
      "Ġcontribution": 9025,
      "ĠRoland": 9026,
      "ĠrÃ©ussit": 9027,
      "Ġorganise": 9028,
      "ĠBeaux": 9029,
      "Ã¨dent": 9030,
      "Ġcontest": 9031,
      "ĠlibÃ©ral": 9032,
      "Ġchercher": 9033,
      "ĠnotoriÃ©tÃ©": 9034,
      "vÃ©g": 9035,
      "Ġsys": 9036,
      "Ġtableaux": 9037,
      "ĠmaÃ®tres": 9038,
      "GB": 9039,
      "avais": 9040,
      "orisation": 9041,
      "Ġconfiance": 9042,
      "ĠdifficultÃ©s": 9043,
      "ĠSantÃ©": 9044,
      "ĠPad": 9045,
      "ĠFriedrich": 9046,
      "1984": 9047,
      "Ġfrancophone": 9048,
      "ĠBun": 9049,
      "roits": 9050,
      "Ġallant": 9051,
      "ĠYam": 9052,
      "ĠInc": 9053,
      "Ġ1901": 9054,
      "Ġcorrespondant": 9055,
      "odore": 9056,
      "hen": 9057,
      "ustre": 9058,
      "irent": 9059,
      "ĠÃ©trangers": 9060,
      "Ġbrigade": 9061,
      "ĠDeb": 9062,
      "Ġquotidien": 9063,
      "SP": 9064,
      "1911": 9065,
      "ditÃ©": 9066,
      "Sch": 9067,
      "Ġinterdit": 9068,
      "ĠPon": 9069,
      "ouvez": 9070,
      "Ġphysiques": 9071,
      "ĠCommune": 9072,
      "ĠWay": 9073,
      "Ġfondament": 9074,
      "Ġaccident": 9075,
      "rein": 9076,
      "ĠJord": 9077,
      "Ġadjoint": 9078,
      "orce": 9079,
      "Iv": 9080,
      "linois": 9081,
      "pit": 9082,
      "ĠintÃ©rÃªt": 9083,
      "...)": 9084,
      "pÃ¨re": 9085,
      "espÃ¨ces": 9086,
      "Ġsalles": 9087,
      "Ġsouvenir": 9088,
      "ĠdÃ©finitivement": 9089,
      "aches": 9090,
      "Ġinternationaux": 9091,
      "relle": 9092,
      "nik": 9093,
      "ĠcompÃ©titions": 9094,
      "ĠRiver": 9095,
      "ergÃ©": 9096,
      "Ġsuscepti": 9097,
      "ĠTÃ©lÃ©vision": 9098,
      "andro": 9099,
      "oncer": 9100,
      "ĠMinistÃ¨re": 9101,
      "bonne": 9102,
      "Ġamoure": 9103,
      "Ġcost": 9104,
      "Ġwww": 9105,
      "ĠCana": 9106,
      "mage": 9107,
      "Ġconfond": 9108,
      "Ġtouch": 9109,
      "ouvern": 9110,
      "Ġlangage": 9111,
      "**": 9112,
      "lige": 9113,
      "erst": 9114,
      "onda": 9115,
      "Ġenseigne": 9116,
      "ĠenregistrÃ©": 9117,
      "ĠSom": 9118,
      "Ġcorrig": 9119,
      "mier": 9120,
      "Ġmodification": 9121,
      "Ġapprend": 9122,
      "ĠRugby": 9123,
      "ĠHon": 9124,
      "iÃ©es": 9125,
      "cade": 9126,
      "ĠRiv": 9127,
      "ĠGene": 9128,
      "ĠPetite": 9129,
      "Ġconsul": 9130,
      "ĠcoÃ»": 9131,
      "Arts": 9132,
      "Ġexc": 9133,
      "ĠHein": 9134,
      "ĠdestinÃ©": 9135,
      "Championnats": 9136,
      "omorph": 9137,
      "semb": 9138,
      "Ġtiss": 9139,
      "ĠSyl": 9140,
      "Ġmajoritaire": 9141,
      "No": 9142,
      "ĠMed": 9143,
      "ĠvÃ©hicule": 9144,
      "reurs": 9145,
      "ĠSarah": 9146,
      "liga": 9147,
      "Ġgrille": 9148,
      "ÏĦ": 9149,
      "ĠdÃ©clen": 9150,
      "tellect": 9151,
      "ĠRu": 9152,
      "Ġprincipes": 9153,
      "ĠConsultÃ©": 9154,
      "aron": 9155,
      "Ġaf": 9156,
      "ĠBah": 9157,
      "ingue": 9158,
      "ressionn": 9159,
      "ĠTrav": 9160,
      "ĠLord": 9161,
      "ĠSo": 9162,
      "agan": 9163,
      "ĠÃ©preuves": 9164,
      "Ġterritorial": 9165,
      "ĠcomplÃ©": 9166,
      "ĠTunisie": 9167,
      "Ġviolon": 9168,
      "Ġ~": 9169,
      "entraÃ®": 9170,
      "riss": 9171,
      "Ġcultiv": 9172,
      "Ġhuile": 9173,
      "]]": 9174,
      "ĠGib": 9175,
      "Ġsouter": 9176,
      "ĠBa": 9177,
      "Total": 9178,
      "mÃ©s": 9179,
      "helm": 9180,
      "ĠdÃ©nom": 9181,
      "ĠTournoi": 9182,
      "athlÃ©tisme": 9183,
      "quette": 9184,
      "173": 9185,
      "ĠBosnie": 9186,
      "ĠCorn": 9187,
      "Ġentier": 9188,
      "asa": 9189,
      "ardins": 9190,
      "ĠAutriche": 9191,
      "ĠrÃ©action": 9192,
      "ppen": 9193,
      "ĠsixiÃ¨me": 9194,
      "Ġlimites": 9195,
      "ĠBart": 9196,
      "ĠDark": 9197,
      "ĠDates": 9198,
      "ĠCannes": 9199,
      "ĠHerb": 9200,
      "Ġspiritu": 9201,
      "tÃ©rieures": 9202,
      "tils": 9203,
      "ĠPers": 9204,
      "illo": 9205,
      "drome": 9206,
      "Ġremis": 9207,
      "ĠrÃ©flex": 9208,
      "till": 9209,
      "Ġhonor": 9210,
      "ĠnorvÃ©g": 9211,
      "depuis": 9212,
      "Ġsymp": 9213,
      "ĠÃīmile": 9214,
      "Ġdavantage": 9215,
      ":#": 9216,
      "Ã©velop": 9217,
      "ĠhÃ´": 9218,
      "ĠAlli": 9219,
      "lave": 9220,
      "Ġbul": 9221,
      "ĠInstitu": 9222,
      "sv": 9223,
      "DA": 9224,
      "ĠNight": 9225,
      "zÃ©": 9226,
      "aver": 9227,
      "Ġlabor": 9228,
      "Ind": 9229,
      "ĠÃ©diteur": 9230,
      "ĠamÃ©liorer": 9231,
      "ĠCad": 9232,
      "Ãªques": 9233,
      "ĠPhiladelph": 9234,
      "fiques": 9235,
      "opold": 9236,
      "ĠAmerica": 9237,
      "Ġtourisme": 9238,
      "1979": 9239,
      "Ġlancement": 9240,
      "Ġmontagnes": 9241,
      "ingham": 9242,
      "Ġsports": 9243,
      "fran": 9244,
      "Chanson": 9245,
      "ĠMaire": 9246,
      "ĠTyp": 9247,
      "Ġtab": 9248,
      "ĠDiego": 9249,
      "ĠSophie": 9250,
      "ĠJi": 9251,
      "Ġestim": 9252,
      "ĠMarguerite": 9253,
      "ĠPri": 9254,
      "Ġassure": 9255,
      "Ġ89": 9256,
      "Ã©tranger": 9257,
      "Ġrig": 9258,
      "ĠTime": 9259,
      "iev": 9260,
      "Ġchinoise": 9261,
      "Ġorientale": 9262,
      "Ãªch": 9263,
      "ĠreprÃ©sentÃ©": 9264,
      "Ġrouges": 9265,
      "ĠCompÃ©tition": 9266,
      "ione": 9267,
      "Ġsurveill": 9268,
      "ĠHit": 9269,
      "Ġpeintures": 9270,
      "romp": 9271,
      "Ġappelle": 9272,
      "omique": 9273,
      "ĠNaples": 9274,
      "Ġcanon": 9275,
      "Ġadministratif": 9276,
      "mod": 9277,
      "ĠCher": 9278,
      "mane": 9279,
      "ĠcaractÃ¨res": 9280,
      "assadeur": 9281,
      "EM": 9282,
      "ender": 9283,
      "rolog": 9284,
      "ĠÃ©lectronique": 9285,
      "ĠÂ»).": 9286,
      "zabeth": 9287,
      "inÃ©e": 9288,
      "Ġbateau": 9289,
      "ĠÃīdition": 9290,
      "Ġanc": 9291,
      "Ġtir": 9292,
      "ĠrÃ©vÃ¨le": 9293,
      "lÃ¨s": 9294,
      "ĠÅĵ": 9295,
      "ĠÃ©coss": 9296,
      "Marc": 9297,
      "ĠSqu": 9298,
      "ĠextrÃªme": 9299,
      "130": 9300,
      "ĠPatrimoine": 9301,
      "Ġnar": 9302,
      "Ġcomprenant": 9303,
      "Ġmagas": 9304,
      "Ġethn": 9305,
      "Ġpen": 9306,
      "Ġtransfert": 9307,
      "ĠMir": 9308,
      "ĠrÃ©cent": 9309,
      "ĠJohann": 9310,
      "Ġfoi": 9311,
      "ĠKos": 9312,
      "ĠcoopÃ©ration": 9313,
      "lits": 9314,
      "Ġhol": 9315,
      "Ġcollectif": 9316,
      "rise": 9317,
      "Ġ96": 9318,
      "ĠÃītienne": 9319,
      "fils": 9320,
      "mosph": 9321,
      "attle": 9322,
      "Ġportent": 9323,
      "Ġassociations": 9324,
      "ĠdÃ©cern": 9325,
      "ĠAugust": 9326,
      "ĠGroup": 9327,
      "ĠCertaines": 9328,
      "mat": 9329,
      "Ã©raux": 9330,
      "ĠGonz": 9331,
      "182": 9332,
[...]
