{
  "version": "1.0",
  "truncation": null,
  "padding": null,
  "added_tokens": [
    {
      "id": 0,
      "content": "<pad>",
      "single_word": false,
      "lstrip": false,
      "rstrip": false,
      "normalized": false,
      "special": true
    },
    {
      "id": 1,
      "content": "<unk>",
      "single_word": false,
      "lstrip": false,
      "rstrip": false,
      "normalized": false,
      "special": true
    },
    {
      "id": 2,
      "content": "<bos>",
      "single_word": false,
      "lstrip": false,
      "rstrip": false,
      "normalized": false,
      "special": true
    },
    {
      "id": 3,
      "content": "<eos>",
      "single_word": false,
      "lstrip": false,
      "rstrip": false,
      "normalized": false,
      "special": true
    }
  ],
  "normalizer": null,
  "pre_tokenizer": {
    "type": "ByteLevel",
    "add_prefix_space": true,
    "trim_offsets": true,
    "use_regex": true
  },
  "post_processor": null,
  "decoder": {
    "type": "ByteLevel",
    "add_prefix_space": true,
    "trim_offsets": true,
    "use_regex": true
  },
  "model": {
    "type": "BPE",
    "dropout": null,
    "unk_token": null,
    "continuing_subword_prefix": null,
    "end_of_word_suffix": null,
    "fuse_unk": false,
    "byte_fallback": false,
    "ignore_merges": false,
    "vocab": {
      "<pad>": 0,
      "<unk>": 1,
      "<bos>": 2,
      "<eos>": 3,
      "!": 4,
      "\"": 5,
      "#": 6,
      "$": 7,
      "%": 8,
      "&": 9,
      "'": 10,
      "(": 11,
      ")": 12,
      "*": 13,
      "+": 14,
      ",": 15,
      "-": 16,
      ".": 17,
      "/": 18,
      "0": 19,
      "1": 20,
      "2": 21,
      "3": 22,
      "4": 23,
      "5": 24,
      "6": 25,
      "7": 26,
      "8": 27,
      "9": 28,
      ":": 29,
      ";": 30,
      "<": 31,
      "=": 32,
      ">": 33,
      "?": 34,
      "@": 35,
      "A": 36,
      "B": 37,
      "C": 38,
      "D": 39,
      "E": 40,
      "F": 41,
      "G": 42,
      "H": 43,
      "I": 44,
      "J": 45,
      "K": 46,
      "L": 47,
      "M": 48,
      "N": 49,
      "O": 50,
      "P": 51,
      "Q": 52,
      "R": 53,
      "S": 54,
      "T": 55,
      "U": 56,
      "V": 57,
      "W": 58,
      "X": 59,
      "Y": 60,
      "Z": 61,
      "[": 62,
      "\\": 63,
      "]": 64,
      "^": 65,
      "_": 66,
      "`": 67,
      "a": 68,
      "b": 69,
      "c": 70,
      "d": 71,
      "e": 72,
      "f": 73,
      "g": 74,
      "h": 75,
      "i": 76,
      "j": 77,
      "k": 78,
      "l": 79,
      "m": 80,
      "n": 81,
      "o": 82,
      "p": 83,
      "q": 84,
      "r": 85,
      "s": 86,
      "t": 87,
      "u": 88,
      "v": 89,
      "w": 90,
      "x": 91,
      "y": 92,
      "z": 93,
      "{": 94,
      "|": 95,
      "}": 96,
      "~": 97,
      "¡": 98,
      "¢": 99,
      "£": 100,
      "¤": 101,
      "¥": 102,
      "¦": 103,
      "§": 104,
      "¨": 105,
      "©": 106,
      "ª": 107,
      "«": 108,
      "¬": 109,
      "®": 110,
      "¯": 111,
      "°": 112,
      "±": 113,
      "²": 114,
      "³": 115,
      "´": 116,
      "µ": 117,
      "¶": 118,
      "·": 119,
      "¸": 120,
      "¹": 121,
      "º": 122,
      "»": 123,
      "¼": 124,
      "½": 125,
      "¾": 126,
      "¿": 127,
      "Â": 128,
      "Ã": 129,
      "Ä": 130,
      "Å": 131,
      "Æ": 132,
      "Ç": 133,
      "È": 134,
      "É": 135,
      "Ê": 136,
      "Ë": 137,
      "Ì": 138,
      "Í": 139,
      "Î": 140,
      "Ï": 141,
      "Ð": 142,
      "Ñ": 143,
      "Ò": 144,
      "Ó": 145,
      "Ô": 146,
      "Õ": 147,
      "Ö": 148,
      "×": 149,
      "Ø": 150,
      "Ù": 151,
      "Ú": 152,
      "Û": 153,
      "Ü": 154,
      "Ý": 155,
      "Þ": 156,
      "ß": 157,
      "à": 158,
      "á": 159,
      "â": 160,
      "ã": 161,
      "ä": 162,
      "å": 163,
      "æ": 164,
      "ç": 165,
      "è": 166,
      "é": 167,
      "ê": 168,
      "ë": 169,
      "ì": 170,
      "í": 171,
      "î": 172,
      "ï": 173,
      "ð": 174,
      "ñ": 175,
      "ó": 176,
      "ô": 177,
      "Ċ": 178,
      "Ġ": 179,
      "ġ": 180,
      "Ģ": 181,
      "ģ": 182,
      "Ĥ": 183,
      "ĥ": 184,
      "Ħ": 185,
      "ħ": 186,
      "Ĩ": 187,
      "ĩ": 188,
      "Ī": 189,
      "ī": 190,
      "Ĭ": 191,
      "ĭ": 192,
      "Į": 193,
      "į": 194,
      "İ": 195,
      "ı": 196,
      "Ĳ": 197,
      "ĳ": 198,
      "Ĵ": 199,
      "ĵ": 200,
      "Ķ": 201,
      "ķ": 202,
      "ĸ": 203,
      "Ĺ": 204,
      "ĺ": 205,
      "Ļ": 206,
      "ļ": 207,
      "Ľ": 208,
      "ľ": 209,
      "Ŀ": 210,
      "ŀ": 211,
      "Ł": 212,
      "ł": 213,
      "Ń": 214,
      "Ġd": 215,
      "Ã©": 216,
      "es": 217,
      "Ġl": 218,
      "en": 219,
      "on": 220,
      "an": 221,
      "Ġde": 222,
      "Ġp": 223,
      "re": 224,
      "er": 225,
      "ti": 226,
      "Ġs": 227,
      "Ġc": 228,
      "is": 229,
      "in": 230,
      "ar": 231,
      "ou": 232,
      "Ġa": 233,
      "or": 234,
      "le": 235,
      "qu": 236,
      "et": 237,
      "te": 238,
      "ent": 239,
      "Ġla": 240,
      "ur": 241,
      "ĠC": 242,
      "it": 243,
      "Ġm": 244,
      "un": 245,
      "il": 246,
      "ie": 247,
      "ĠÃ": 248,
      "al": 249,
      "ĠL": 250,
      "Ġet": 251,
      "Ġ1": 252,
      "at": 253,
      "tion": 254,
      "om": 255,
      "Ġle": 256,
      "Ġf": 257,
      "ĠÃł": 258,
      "Ġen": 259,
      "Ġ(": 260,
      "Ã¨": 261,
      "ra": 262,
      "Ġt": 263,
      "ĠS": 264,
      "que": 265,
      "Ġ2": 266,
      "us": 267,
      "Ġn": 268,
      "rÃ©": 269,
      "ri": 270,
      "el": 271,
      "Ġdes": 272,
      "ĠM": 273,
      "our": 274,
      "Ġdu": 275,
      "Ġun": 276,
      "est": 277,
      "ĠP": 278,
      "ro": 279,
      "ch": 280,
      "ce": 281,
      "ĠA": 282,
      "ant": 283,
      "ment": 284,
      "as": 285,
      "au": 286,
      "ĠB": 287,
      "ol": 288,
      "ans": 289,
      "Ġv": 290,
      "Ġpar": 291,
      "ne": 292,
      "Ġ:": 293,
      "ĠÃ©": 294,
      "Ġles": 295,
      "Ġ20": 296,
      "Ġau": 297,
      "me": 298,
      "ĠD": 299,
      "ation": 300,
      "se": 301,
      "Ġest": 302,
      "ont": 303,
      "Ã©g": 304,
      "ag": 305,
      "ĠR": 306,
      "si": 307,
      "ve": 308,
      "Ġ19": 309,
      "de": 310,
      "Ġb": 311,
      "ci": 312,
      "ai": 313,
      "res": 314,
      "ais": 315,
      "ĠT": 316,
      "Ġqu": 317,
      "Ã©e": 318,
      "am": 319,
      "li": 320,
      "ĠF": 321,
      "Ġcom": 322,
      "âĢ": 323,
      "ĠdÃ©": 324,
      "ĠG": 325,
      "Ġg": 326,
      "di": 327,
      "ĠE": 328,
      "Ġdans": 329,
      "tÃ©": 330,
      "oi": 331,
      "atÃ©g": 332,
      "orie": 333,
      "atÃ©gorie": 334,
      "ran": 335,
      "Ġre": 336,
      "ĠN": 337,
      "ĠCatÃ©gorie": 338,
      "Ġj": 339,
      "ain": 340,
      "ĠI": 341,
      "Ġcon": 342,
      "ĠrÃ©": 343,
      "ĠJ": 344,
      "ot": 345,
      "Ġune": 346,
      "op": 347,
      "Ġpour": 348,
      "ers": 349,
      "os": 350,
      "ĠH": 351,
      "Ġin": 352,
      "ig": 353,
      "ul": 354,
      "Ġse": 355,
      "Ġsur": 356,
      "ac": 357,
      "ter": 358,
      "ic": 359,
      "ale": 360,
      "Ġch": 361,
      "Ġe": 362,
      "ĠÂ": 363,
      "mp": 364,
      "âĢĻ": 365,
      "ĠLe": 366,
      "les": 367,
      "Ã©r": 368,
      "Ġpl": 369,
      "ĠV": 370,
      "ab": 371,
      "itÃ©": 372,
      "ist": 373,
      "Ġpro": 374,
      "og": 375,
      "Ġ|": 376,
      "ut": 377,
      "Ġque": 378,
      "ille": 379,
      "ait": 380,
      "Ġ[": 381,
      "Ã¨re": 382,
      "and": 383,
      "pe": 384,
      "ux": 385,
      "vi": 386,
      "Ġh": 387,
      "Ġ=": 388,
      "Ġ201": 389,
      "Ġr": 390,
      "ff": 391,
      "Ġqui": 392,
      "ort": 393,
      "Ġo": 394,
      "ue": 395,
      "ui": 396,
      "elle": 397,
      "ge": 398,
      "ion": 399,
      "ques": 400,
      "mb": 401,
      "ure": 402,
      "Ã¨s": 403,
      "20": 404,
      "ĠLa": 405,
      "tre": 406,
      "ique": 407,
      "ces": 408,
      "Ġil": 409,
      "ien": 410,
      "Ġ-": 411,
      "aire": 412,
      "teur": 413,
      "st": 414,
      "ouv": 415,
      "..": 416,
      "age": 417,
      "Ãª": 418,
      "vec": 419,
      "mi": 420,
      "ap": 421,
      "end": 422,
      "ĠCh": 423,
      "ĠK": 424,
      "ine": 425,
      "ĠW": 426,
      "Ġ200": 427,
      "ction": 428,
      "ph": 429,
      "Ġavec": 430,
      "ct": 431,
      "une": 432,
      "Ã©s": 433,
      "ad": 434,
      "19": 435,
      "ub": 436,
      "Ġex": 437,
      "ois": 438,
      "Ġplus": 439,
      "Ġdi": 440,
      "onn": 441,
      "ĠIl": 442,
      "oc": 443,
      "),": 444,
      "Ã©es": 445,
      "Ġson": 446,
      "ous": 447,
      "Ġ3": 448,
      "Ġpas": 449,
      "Ã§": 450,
      "che": 451,
      "ati": 452,
      "Ġ,": 453,
      "pr": 454,
      "ĠEn": 455,
      "Ġan": 456,
      "ĠO": 457,
      "ill": 458,
      "ay": 459,
      "um": 460,
      "ert": 461,
      "ir": 462,
      "ette": 463,
      "Ġcomm": 464,
      "Ã©n": 465,
      "ard": 466,
      "Ġou": 467,
      "uis": 468,
      "ĠprÃ©": 469,
      "ance": 470,
      "im": 471,
      "lle": 472,
      "ons": 473,
      "ĠÂ»": 474,
      "ord": 475,
      "urs": 476,
      "\"]": 477,
      "he": 478,
      "pp": 479,
      "Ã©ri": 480,
      "Ġ[\"": 481,
      "Ġpr": 482,
      "ob": 483,
      "Ġ.": 484,
      "ond": 485,
      "ĠÂ«": 486,
      "iv": 487,
      "ĠÃ©t": 488,
      "Ġar": 489,
      "00": 490,
      "Ġpe": 491,
      "ors": 492,
      "Ġ18": 493,
      "Ġsont": 494,
      "Ġ;": 495,
      "aux": 496,
      ").": 497,
      "nes": 498,
      "oir": 499,
      "ĠLes": 500,
      "Ġav": 501,
      "av": 502,
      "Ġparti": 503,
      "Ġ4": 504,
      "iste": 505,
      "ier": 506,
      "ise": 507,
      "Ġce": 508,
      "Ġtr": 509,
      "ĠU": 510,
      "ing": 511,
      "Ġsu": 512,
      "entre": 513,
      "od": 514,
      "Ġsi": 515,
      "Ġaux": 516,
      "Ã©t": 517,
      "ĠPar": 518,
      "Ã´": 519,
      "Ġcomp": 520,
      "id": 521,
      "Ã©c": 522,
      "ib": 523,
      "Ġnom": 524,
      "ence": 525,
      "oire": 526,
      "Ġsa": 527,
      "remi": 528,
      "Ġne": 529,
      "ĠMar": 530,
      "tin": 531,
      "all": 532,
      "Ġtra": 533,
      "ences": 534,
      "raph": 535,
      "ĠFran": 536,
      "ĠÃī": 537,
      "ens": 538,
      "du": 539,
      "fÃ©r": 540,
      "oy": 541,
      "tique": 542,
      "Ġ199": 543,
      "oin": 544,
      "ĠAn": 545,
      "out": 546,
      "Ġcont": 547,
      "ign": 548,
      "orm": 549,
      "18": 550,
      "Ġ5": 551,
      "Ã¢": 552,
      "tic": 553,
      "Ġra": 554,
      "ĠÃ©tÃ©": 555,
      "Ã©m": 556,
      "Ġmar": 557,
      "amp": 558,
      "ace": 559,
      "Ġ||": 560,
      "ations": 561,
      "sion": 562,
      "rit": 563,
      "Ġal": 564,
      "Ġdeux": 565,
      "par": 566,
      "Ã©d": 567,
      "ru": 568,
      "Ġfran": 569,
      "ograph": 570,
      "ang": 571,
      "tit": 572,
      "Ġpremi": 573,
      "Ġte": 574,
      "mbre": 575,
      "Ġ0": 576,
      "rou": 577,
      "cu": 578,
      "ĠJe": 579,
      "ĠDe": 580,
      "ĠAr": 581,
      "Ġ\"": 582,
      "erm": 583,
      "ĠâĢ": 584,
      "Ġcomme": 585,
      "lÃ©": 586,
      "Ã§ais": 587,
      "Ġ202": 588,
      "Ġmais": 589,
      "cip": 590,
      "tat": 591,
      "tt": 592,
      "tif": 593,
      "ĠdÃ©c": 594,
      "Ġmon": 595,
      "Ã¨me": 596,
      "ass": 597,
      "CE": 598,
      "aint": 599,
      "omm": 600,
      "iens": 601,
      "Ġcl": 602,
      "Ġ6": 603,
      "fÃ©rences": 604,
      "aine": 605,
      "Ġac": 606,
      "ours": 607,
      "oci": 608,
      "ĠfranÃ§ais": 609,
      "Ġses": 610,
      "ron": 611,
      "tres": 612,
      "ubli": 613,
      "Ã©ra": 614,
      "olog": 615,
      "lis": 616,
      "alis": 617,
      "ite": 618,
      "ments": 619,
      "Ãī": 620,
      "Ġdis": 621,
      "alement": 622,
      "ants": 623,
      "ussi": 624,
      "co": 625,
      "ss": 626,
      "Ã®": 627,
      "ud": 628,
      "ts": 629,
      "Ġentre": 630,
      "ann": 631,
      "Ġje": 632,
      "tions": 633,
      "Ġcons": 634,
      "ong": 635,
      "Ġ198": 636,
      "Ġfait": 637,
      "ov": 638,
      "Ġann": 639,
      "fr": 640,
      "Ġcar": 641,
      "Ġfin": 642,
      "Ġme": 643,
      "ww": 644,
      "Ġ{": 645,
      "otes": 646,
      "oit": 647,
      "aiss": 648,
      "Ġ7": 649,
      "ec": 650,
      "enne": 651,
      "prÃ¨s": 652,
      "la": 653,
      "aires": 654,
      "ilm": 655,
      "ales": 656,
      "ĠSt": 657,
      "ik": 658,
      "ĠAl": 659,
      "ia": 660,
      "Ãªme": 661,
      "ref": 662,
      "ich": 663,
      "th": 664,
      "po": 665,
      "rand": 666,
      "ex": 667,
      "bre": 668,
      "imp": 669,
      "Ġam": 670,
      "iques": 671,
      "ographie": 672,
      "able": 673,
      "min": 674,
      "ip": 675,
      "Ãł": 676,
      "rois": 677,
      "Ġapp": 678,
      "Ġ}": 679,
      "alitÃ©": 680,
      "Ġaussi": 681,
      "Ġst": 682,
      "tiques": 683,
      "Ġ%": 684,
      "Ġ17": 685,
      "Ġ8": 686,
      "mes": 687,
      "ĠFrance": 688,
      "lan": 689,
      "Ġ197": 690,
      "tes": 691,
      "Ġcette": 692,
      "ĠY": 693,
      "pop": 694,
      "Ã©di": 695,
      "Ġor": 696,
      "12": 697,
      "oli": 698,
      "Ġes": 699,
      "onne": 700,
      "ĠIn": 701,
      "ouve": 702,
      "ourn": 703,
      "ate": 704,
      "rie": 705,
      "Ġinter": 706,
      "Ġelle": 707,
      "Ġser": 708,
      "Ġ},": 709,
      "Ġju": 710,
      "man": 711,
      "ĠQ": 712,
      "use": 713,
      "uer": 714,
      "Ġfor": 715,
      "if": 716,
      "ĠNotes": 717,
      "ateur": 718,
      "sent": 719,
      "Ġexter": 720,
      "ern": 721,
      "ak": 722,
      "Ã¯": 723,
      "ven": 724,
      "Ġont": 725,
      "ĠrÃ©g": 726,
      "aissance": 727,
      "10": 728,
      "ĠRÃ©": 729,
      "ins": 730,
      "ĠSaint": 731,
      "Ġsous": 732,
      "Ã©rie": 733,
      "Ġ15": 734,
      "ante": 735,
      "ĠLiens": 736,
      "ente": 737,
      "Ġexternes": 738,
      "sid": 739,
      "Ã¨res": 740,
      "uti": 741,
      "Ġcol": 742,
      "17": 743,
      "ĠElle": 744,
      "Ġ9": 745,
      "Ġter": 746,
      "uite": 747,
      "itu": 748,
      "ĠRe": 749,
      "cl": 750,
      "ĠÃ©g": 751,
      "Ġth": 752,
      "ĠrÃ©fÃ©rences": 753,
      "ps": 754,
      "Ġof": 755,
      "Un": 756,
      "Ġmin": 757,
      "ode": 758,
      "Ã©tÃ©": 759,
      "ris": 760,
      "ow": 761,
      "ampion": 762,
      "vis": 763,
      "tis": 764,
      "oue": 765,
      "ath": 766,
      "uv": 767,
      "ĠgÃ©n": 768,
      "jet": 769,
      "elles": 770,
      "igne": 771,
      "ures": 772,
      "ages": 773,
      "Ã©v": 774,
      "Ġy": 775,
      "Ġ16": 776,
      "ĠParis": 777,
      "ĠÃ©c": 778,
      "15": 779,
      "are": 780,
      "Ġ196": 781,
      "Ġ10": 782,
      "14": 783,
      "px": 784,
      "rib": 785,
      "ug": 786,
      "ersonn": 787,
      "agne": 788,
      "ution": 789,
      "Ġche": 790,
      "ton": 791,
      "Ã©ric": 792,
      "Ġtrav": 793,
      "ach": 794,
      "az": 795,
      "em": 796,
      "asse": 797,
      "ell": 798,
      "ST": 799,
      "Ġpuis": 800,
      "ire": 801,
      "ĠUn": 802,
      "tement": 803,
      "Ġti": 804,
      "ari": 805,
      "erv": 806,
      "ĠmÃªme": 807,
      "ĠX": 808,
      "Ġpubli": 809,
      "Ġans": 810,
      "Ġcommune": 811,
      "13": 812,
      "Ġcommun": 813,
      "ays": 814,
      "ieu": 815,
      "16": 816,
      "lement": 817,
      "aison": 818,
      "agn": 819,
      "ĠCl": 820,
      "Ġlors": 821,
      "ivers": 822,
      "Ġlui": 823,
      "ĠCar": 824,
      "Ã¹": 825,
      "Ġad": 826,
      "Ġprin": 827,
      "rig": 828,
      "Ġnation": 829,
      "qui": 830,
      "Ġrec": 831,
      "ĠZ": 832,
      "puis": 833,
      "200": 834,
      "ĠcrÃ©": 835,
      "cien": 836,
      "int": 837,
      "endant": 838,
      "aut": 839,
      "Ġph": 840,
      "ail": 841,
      "Ġdiff": 842,
      "Ġdont": 843,
      "ouver": 844,
      "ust": 845,
      "Ġsp": 846,
      "Ġpos": 847,
      "insi": 848,
      "emp": 849,
      "oh": 850,
      "ĠTh": 851,
      "erg": 852,
      "Ġmil": 853,
      "istoire": 854,
      "Ġimp": 855,
      "CEST": 856,
      "iss": 857,
      "onc": 858,
      "Ġjus": 859,
      "riv": 860,
      "Ġleur": 861,
      "Ġob": 862,
      "ĠJean": 863,
      "lÃ¨": 864,
      "aient": 865,
      "Ġro": 866,
      "ric": 867,
      "Ġ12": 868,
      "art": 869,
      "tiv": 870,
      "Ġtout": 871,
      "ges": 872,
      "oute": 873,
      "ade": 874,
      "fin": 875,
      "ĠÃ©galement": 876,
      "omp": 877,
      "Åĵ": 878,
      "Ã»": 879,
      "ah": 880,
      "ense": 881,
      "ĠÃª": 882,
      "Ġ14": 883,
      "yn": 884,
      "ĠoÃ¹": 885,
      "roupe": 886,
      "lection": 887,
      "ess": 888,
      "Ġtrois": 889,
      "ats": 890,
      "Naissance": 891,
      "ult": 892,
      "Ġmus": 893,
      "//": 894,
      "gn": 895,
      "one": 896,
      "orte": 897,
      "tats": 898,
      "Ġma": 899,
      "Ġ13": 900,
      "ĠÃªtre": 901,
      "Ġcou": 902,
      "ĠThe": 903,
      "pl": 904,
      "ies": 905,
      "Ġpoli": 906,
      "ĠaprÃ¨s": 907,
      "ues": 908,
      "utilis": 909,
      "Ġder": 910,
      "att": 911,
      "ĠÃ©tait": 912,
      "prÃ©": 913,
      "Ġret": 914,
      "aille": 915,
      "://": 916,
      "An": 917,
      "ry": 918,
      "ĠNe": 919,
      "Ġsec": 920,
      "Ġnombre": 921,
      "its": 922,
      "ils": 923,
      "Ġ195": 924,
      "eau": 925,
      "ĠnÃ©": 926,
      "ature": 927,
      "stru": 928,
      "Ġnil": 929,
      "Ġainsi": 930,
      "Ġpeut": 931,
      "ore": 932,
      "ole": 933,
      "Ġsc": 934,
      "urop": 935,
      "istor": 936,
      "iel": 937,
      "ĠsiÃ¨": 938,
      "Ġcontre": 939,
      "Ã©p": 940,
      "ĠdÃ©b": 941,
      "Ġsitu": 942,
      "gl": 943,
      "cher": 944,
      "oul": 945,
      "pos": 946,
      "enti": 947,
      "Ġres": 948,
      "teurs": 949,
      "Ġtemp": 950,
      "uc": 951,
      "Ġpremier": 952,
      "iÃ¨me": 953,
      "Ġ194": 954,
      "ains": 955,
      "ĠCe": 956,
      "ĠamÃ©ric": 957,
      "vier": 958,
      "ticles": 959,
      "up": 960,
      "Ġalors": 961,
      "Ġno": 962,
      "11": 963,
      "mand": 964,
      "form": 965,
      "ĠÂ»,": 966,
      "ok": 967,
      "anis": 968,
      "Ġon": 969,
      "Ġthe": 970,
      "ticle": 971,
      "nement": 972,
      "enn": 973,
      "ble": 974,
      "ĠpremiÃ¨re": 975,
      "ieurs": 976,
      "uel": 977,
      "Ġpartie": 978,
      "ents": 979,
      "rim": 980,
      "Ġpersonn": 981,
      "omb": 982,
      "dis": 983,
      "esse": 984,
      "mar": 985,
      "Ar": 986,
      "Ã©rÃ©": 987,
      "atis": 988,
      "port": 989,
      "ici": 990,
      "Ġ--": 991,
      "25": 992,
      "uerre": 993,
      "Ġville": 994,
      "Ġnot": 995,
      "ose": 996,
      "Ġbas": 997,
      "ĠCon": 998,
      "Ġdepuis": 999,
      "Ġsoci": 1000,
      "Ã©ral": 1001,
      "Ã©lÃ©": 1002,
      "Ġfut": 1003,
      "www": 1004,
      "omme": 1005,
      "ĠPro": 1006,
      "Ġaut": 1007,
      "Ġren": 1008,
      "cle": 1009,
      "Ġ193": 1010,
      "ht": 1011,
      "Ġtrans": 1012,
      "CET": 1013,
      "Ġvers": 1014,
      "sp": 1015,
      "ĠÃĢ": 1016,
      "ĠrÃ©gion": 1017,
      "Ġperm": 1018,
      "Ġprincip": 1019,
      "quipe": 1020,
      "elon": 1021,
      "orti": 1022,
      "...": 1023,
      "Ġman": 1024,
      "23": 1025,
      "Ġâ": 1026,
      "||": 1027,
      "Ġdire": 1028,
      "ĠÃ©p": 1029,
      "Ġgrand": 1030,
      "Ġacc": 1031,
      "Ã¨ne": 1032,
      "In": 1033,
      "Ġcor": 1034,
      "Ġremp": 1035,
      "ĠâĢĵ": 1036,
      "ĠannÃ©es": 1037,
      "Ġsep": 1038,
      "lin": 1039,
      "Ġesp": 1040,
      "ĠSe": 1041,
      "ix": 1042,
      "Ġmonde": 1043,
      "Ġdonn": 1044,
      "land": 1045,
      "ttps": 1046,
      "ori": 1047,
      "ĠÃ©v": 1048,
      "Ġsui": 1049,
      "Ġprodu": 1050,
      "ĠMe": 1051,
      "ampionn": 1052,
      "atch": 1053,
      "Ġconc": 1054,
      "ignette": 1055,
      "nex": 1056,
      "rier": 1057,
      "Ġcour": 1058,
      "Ġfilm": 1059,
      "aul": 1060,
      "Ġces": 1061,
      "Ġutilis": 1062,
      "ĠSh": 1063,
      "cuter": 1064,
      "ĠAu": 1065,
      "itÃ©s": 1066,
      "oins": 1067,
      "anc": 1068,
      "ae": 1069,
      "Ġsou": 1070,
      "Ġsol": 1071,
      "Ġab": 1072,
      "aur": 1073,
      "ĠPh": 1074,
      "ĠQu": 1075,
      "ten": 1076,
      "Ã©cÃ¨s": 1077,
      "ler": 1078,
      "ze": 1079,
      "avi": 1080,
      "ke": 1081,
      "ierre": 1082,
      "Ch": 1083,
      "ver": 1084,
      "ption": 1085,
      "Ġw": 1086,
      "Ġform": 1087,
      "Ġnon": 1088,
      "Ġsans": 1089,
      "Ġjusqu": 1090,
      "opul": 1091,
      "see": 1092,
      "vel": 1093,
      "Ġoff": 1094,
      "ves": 1095,
      "Ġfam": 1096,
      "Ġprof": 1097,
      "Ġdern": 1098,
      "Ġfond": 1099,
      "nation": 1100,
      "Ġconn": 1101,
      "lu": 1102,
      "riÃ¨re": 1103,
      "oÃ»": 1104,
      "onde": 1105,
      "ram": 1106,
      "DÃ©cÃ¨s": 1107,
      "Al": 1108,
      "Ġmort": 1109,
      "aÃ®": 1110,
      "24": 1111,
      "Ġavant": 1112,
      "sition": 1113,
      "Ġk": 1114,
      "ĠDans": 1115,
      "Ġper": 1116,
      "ouvelle": 1117,
      "Ġgroupe": 1118,
      "Ġbien": 1119,
      "ane": 1120,
      "rix": 1121,
      "ieux": 1122,
      "ice": 1123,
      "ĠrÃ©s": 1124,
      "Ġplusieurs": 1125,
      "ast": 1126,
      "oot": 1127,
      "ana": 1128,
      "Ġeff": 1129,
      "Ġcin": 1130,
      "ball": 1131,
      "ĠrÃ©p": 1132,
      "ĠdÃ©par": 1133,
      "tel": 1134,
      "Ãªte": 1135,
      "vient": 1136,
      "org": 1137,
      "Ġ|-": 1138,
      "Ġdro": 1139,
      "ĠChar": 1140,
      "oueur": 1141,
      "Ġ?": 1142,
      "uss": 1143,
      "ologie": 1144,
      "199": 1145,
      "ĠtrÃ¨s": 1146,
      "ax": 1147,
      "illet": 1148,
      "Ġpays": 1149,
      "Ġass": 1150,
      "26": 1151,
      "io": 1152,
      "alle": 1153,
      "50": 1154,
      "ĠrÃ©alis": 1155,
      "cri": 1156,
      "vers": 1157,
      "30": 1158,
      "II": 1159,
      "Ã¡": 1160,
      "Ġvignette": 1161,
      "ome": 1162,
      "ĠMont": 1163,
      "Ġpoin": 1164,
      "ril": 1165,
      "ĠCol": 1166,
      "Ġfois": 1167,
      "oph": 1168,
      "Ġcel": 1169,
      "Ġ11": 1170,
      "https": 1171,
      "anvier": 1172,
      "fic": 1173,
      ".,": 1174,
      "mble": 1175,
      "ĠâĢĶ": 1176,
      "cc": 1177,
      "illes": 1178,
      "eu": 1179,
      "lo": 1180,
      "discuter": 1181,
      "nexes": 1182,
      "Ġmai": 1183,
      "vant": 1184,
      "Ġmod": 1185,
      "aines": 1186,
      "22": 1187,
      "Ġ2010": 1188,
      "atistiques": 1189,
      "Ġz": 1190,
      "Ġand": 1191,
      "ĠBi": 1192,
      "amment": 1193,
      "rice": 1194,
      "ive": 1195,
      "Ġlong": 1196,
      "amb": 1197,
      "Ã©b": 1198,
      "vin": 1199,
      "Ġconf": 1200,
      "mis": 1201,
      "ls": 1202,
      "ame": 1203,
      "ourg": 1204,
      "ĠVoir": 1205,
      "erie": 1206,
      "ital": 1207,
      "Ġpopul": 1208,
      "tive": 1209,
      "Ġfaire": 1210,
      "core": 1211,
      "Ġpo": 1212,
      "Ġjanvier": 1213,
      "aill": 1214,
      "rent": 1215,
      "Ġsy": 1216,
      "obre": 1217,
      "ett": 1218,
      "dre": 1219,
      "uit": 1220,
      "yp": 1221,
      "21": 1222,
      "ĠPour": 1223,
      "oÃ»t": 1224,
      "=\"": 1225,
      "ĠCette": 1226,
      "Ġvol": 1227,
      "Ġcap": 1228,
      "ctions": 1229,
      "yle": 1230,
      "rande": 1231,
      "ret": 1232,
      "ulture": 1233,
      "tÃ©s": 1234,
      "rait": 1235,
      "Ġport": 1236,
      "ĠDes": 1237,
      "Ġ+": 1238,
      "Ġoct": 1239,
      "ĠCor": 1240,
      "uni": 1241,
      "ibli": 1242,
      "Ġmont": 1243,
      "CO": 1244,
      "ule": 1245,
      "endre": 1246,
      "app": 1247,
      "Ġmars": 1248,
      "Ġautres": 1249,
      "iÃ¨re": 1250,
      "ĠBar": 1251,
      "ĠfranÃ§aise": 1252,
      "insee": 1253,
      "chn": 1254,
      "udi": 1255,
      "Ġprop": 1256,
      "ict": 1257,
      "Ġatt": 1258,
      "ĠÃītats": 1259,
      "ienne": 1260,
      "Ġri": 1261,
      "lig": 1262,
      "Ġsorti": 1263,
      "Ġpolitique": 1264,
      "Ã©ration": 1265,
      "ĠPl": 1266,
      "Ġcert": 1267,
      "Ã©ro": 1268,
      "ki": 1269,
      "Ġquel": 1270,
      "vision": 1271,
      "Ġsite": 1272,
      "Ġtour": 1273,
      "ĠreprÃ©": 1274,
      "Ġnouve": 1275,
      "aque": 1276,
      "ĠGu": 1277,
      "28": 1278,
      "ches": 1279,
      "tembre": 1280,
      "ĠsÃ©": 1281,
      "ral": 1282,
      "lex": 1283,
      "arg": 1284,
      "Ġlib": 1285,
      "ĠAm": 1286,
      "bum": 1287,
      "des": 1288,
      "90": 1289,
      "ack": 1290,
      "lim": 1291,
      "Ġloc": 1292,
      "Ġquat": 1293,
      "ines": 1294,
      "ide": 1295,
      "cteur": 1296,
      "Ġpass": 1297,
      "ĠdÃ©p": 1298,
      "Ġent": 1299,
      "Ġ2011": 1300,
      "Ġop": 1301,
      "Ġavoir": 1302,
      "umb": 1303,
      "Ġ2020": 1304,
      "Ġsaison": 1305,
      "Ġplace": 1306,
      "iversitÃ©": 1307,
      "Ġ/": 1308,
      "ĠmÃ©t": 1309,
      "ĠsiÃ¨cle": 1310,
      "ĠListe": 1311,
      "Ġjuin": 1312,
      "ĠpÃ©ri": 1313,
      "Ġtemps": 1314,
      "ĠJoh": 1315,
      "Ġ2018": 1316,
      "val": 1317,
      "mande": 1318,
      "lier": 1319,
      "aÃ¯": 1320,
      "oly": 1321,
      "rÃ©e": 1322,
      "ouvert": 1323,
      "Ġ2012": 1324,
      "je": 1325,
      "ĠRÃ©fÃ©rences": 1326,
      "Ġ()": 1327,
      "Ġjuillet": 1328,
      "Unis": 1329,
      "ande": 1330,
      "Ġaff": 1331,
      "Ġtitre": 1332,
      "rer": 1333,
      "ĠprÃ©sent": 1334,
      "Ġoctobre": 1335,
      "Ġseptembre": 1336,
      "Ġligne": 1337,
      "cembre": 1338,
      "Ġ2008": 1339,
      "Ġ2014": 1340,
      "Ġfem": 1341,
      "ĠgÃ©nÃ©ral": 1342,
      "Ã´le": 1343,
      "Ġcent": 1344,
      "ĠUne": 1345,
      "Ġpart": 1346,
      "Ã¨ce": 1347,
      "vembre": 1348,
      "Ġins": 1349,
      "Ġexp": 1350,
      "Ġmo": 1351,
      "ĠCou": 1352,
      "Ġ2015": 1353,
      "Ġ2009": 1354,
      "Ã©vrier": 1355,
      "son": 1356,
      "uelle": 1357,
      "ĠGe": 1358,
      "Ġ2013": 1359,
      "itaire": 1360,
      "27": 1361,
      "Ġcours": 1362,
      "Ġsour": 1363,
      "istes": 1364,
      "iti": 1365,
      "ĠlÃ©g": 1366,
      "Ġ23": 1367,
      "Ġ2007": 1368,
      "Ġconstru": 1369,
      "ĠdiffÃ©r": 1370,
      "Ġnotamment": 1371,
      "\",": 1372,
      "statistiques": 1373,
      "ony": 1374,
      "Ã©ci": 1375,
      "titu": 1376,
      "Ġfamille": 1377,
      "jour": 1378,
      "velop": 1379,
      "rop": 1380,
      "ĠamÃ©ricain": 1381,
      "dition": 1382,
      "act": 1383,
      "Ã©l": 1384,
      "ĠÂ».": 1385,
      "assi": 1386,
      "Ã©li": 1387,
      "Ġrel": 1388,
      "ĠdÃ©f": 1389,
      "ĠdÃ©but": 1390,
      "ĠdÃ©cembre": 1391,
      "Ġsoit": 1392,
      "ĠtÃ©lÃ©": 1393,
      "cul": 1394,
      "antes": 1395,
      "ĠArticles": 1396,
      "rage": 1397,
      "Ġnovembre": 1398,
      "29": 1399,
      "aw": 1400,
      "ĠfÃ©vrier": 1401,
      "Ġhistor": 1402,
      "Ġinternation": 1403,
      "ouis": 1404,
      "ras": 1405,
      "Ġver": 1406,
      "Ġmoins": 1407,
      "erci": 1408,
      "ĠsÃ©rie": 1409,
      "enant": 1410,
      "Ġcas": 1411,
      "COM": 1412,
      "ft": 1413,
      "Ġrom": 1414,
      "aise": 1415,
      "ano": 1416,
      "ĠprÃ©sid": 1417,
      "ed": 1418,
      "illage": 1419,
      "Ġavril": 1420,
      "ys": 1421,
      "geo": 1422,
      "Ġ2016": 1423,
      "ĠprÃ©c": 1424,
      "viron": 1425,
      "arm": 1426,
      "Ãªtre": 1427,
      "istre": 1428,
      "Ġsud": 1429,
      "arti": 1430,
      "Ġindi": 1431,
      "oup": 1432,
      "oth": 1433,
      "ox": 1434,
      "Ġpeu": 1435,
      "ĠMich": 1436,
      "Ġrapp": 1437,
      "Ġtous": 1438,
      "Ġsuite": 1439,
      "Ġ2006": 1440,
      "chÃ©": 1441,
      "sement": 1442,
      "per": 1443,
      "ĠOn": 1444,
      "ampionnat": 1445,
      "âĢĵ": 1446,
      "Ġpartir": 1447,
      "Ġsupp": 1448,
      "ĠprÃ©s": 1449,
      "uses": 1450,
      "atique": 1451,
      "Ġvis": 1452,
      "ĠdÃ©velop": 1453,
      "rique": 1454,
      "ĠdÃ©partement": 1455,
      "rÃ©s": 1456,
      "Ġmal": 1457,
      "ĠaoÃ»t": 1458,
      "Ġ21": 1459,
      "Ġconnexes": 1460,
      "ĠNew": 1461,
      "ind": 1462,
      "ili": 1463,
      "cid": 1464,
      "ÃŃ": 1465,
      "ration": 1466,
      "Ġfr": 1467,
      "Ġterrit": 1468,
      "Ġfon": 1469,
      "aud": 1470,
      "ĠSch": 1471,
      "Ġavait": 1472,
      "Ġguerre": 1473,
      "Ġnord": 1474,
      "lect": 1475,
      "Ġvie": 1476,
      "ĠCan": 1477,
      "Ġat": 1478,
      "Ġpage": 1479,
      "cont": 1480,
      "Ġact": 1481,
      "minist": 1482,
      "ress": 1483,
      "Ġli": 1484,
      "Ġpublic": 1485,
      "ith": 1486,
      "40": 1487,
      "Ġnational": 1488,
      "Ġselon": 1489,
      "ĠAprÃ¨s": 1490,
      "198": 1491,
      "illi": 1492,
      "ĠAd": 1493,
      "nÃ©": 1494,
      "Ġ2017": 1495,
      "Ġag": 1496,
      "Ġ&": 1497,
      "Ã³": 1498,
      "ote": 1499,
      "Ġmen": 1500,
      "cent": 1501,
      "Ġclub": 1502,
      "lise": 1503,
      "Ã¢te": 1504,
      "ĠRob": 1505,
      "tÃ©rie": 1506,
      "Ġas": 1507,
      "rÃª": 1508,
      "Ġdom": 1509,
      "Ġ22": 1510,
      "Ġrest": 1511,
      "onom": 1512,
      "autres": 1513,
      "mÃ©": 1514,
      "be": 1515,
      "ĠBr": 1516,
      "ĠreprÃ©sent": 1517,
      "Åĵuv": 1518,
      "tex": 1519,
      "Ã¼": 1520,
      "cup": 1521,
      "ĠSon": 1522,
      "oun": 1523,
      "Ġorig": 1524,
      "ĠBe": 1525,
      "ument": 1526,
      "Ġcompr": 1527,
      "ĠspÃ©ci": 1528,
      "Ġ25": 1529,
      "Ġleurs": 1530,
      "Ġ30": 1531,
      "urope": 1532,
      "ditions": 1533,
      "Ġencore": 1534,
      "Ġ..": 1535,
      "Ġ2019": 1536,
      "ites": 1537,
      "Ġ24": 1538,
      "ile": 1539,
      "Ġorg": 1540,
      "oix": 1541,
      "olution": 1542,
      "Ġlieu": 1543,
      "Ġdonc": 1544,
      "36": 1545,
      "Ã¨le": 1546,
      "ype": 1547,
      "ient": 1548,
      "Ġsign": 1549,
      "rat": 1550,
      "ĠJohn": 1551,
      "Ġhab": 1552,
      "ĠPe": 1553,
      "Ġgouver": 1554,
      "acc": 1555,
      "Ġint": 1556,
      "aume": 1557,
      "ĠSp": 1558,
      "Ġim": 1559,
      "Mar": 1560,
      "Ġmoy": 1561,
      "Ġnouveau": 1562,
      "Ġalle": 1563,
      "Ġmis": 1564,
      "rÃ¨s": 1565,
      "yant": 1566,
      "uli": 1567,
      "ribu": 1568,
      "Ġfa": 1569,
      "Ã©ti": 1570,
      "ĠBiographie": 1571,
      "alif": 1572,
      "Ġdist": 1573,
      "ĠcÃ´": 1574,
      "ĠthÃ©": 1575,
      "ck": 1576,
      "els": 1577,
      "ina": 1578,
      "aliste": 1579,
      "Ġcan": 1580,
      "iers": 1581,
      "pt": 1582,
      "ison": 1583,
      "auche": 1584,
      "ĠEl": 1585,
      "ĠComm": 1586,
      "Ġpendant": 1587,
      "Ġnouvelle": 1588,
      "Ġfer": 1589,
      "Ġpouv": 1590,
      "right": 1591,
      "ables": 1592,
      "ĠHistoire": 1593,
      "Ġprojet": 1594,
      "Ġdevient": 1595,
      "Ġdur": 1596,
      "resse": 1597,
      "Film": 1598,
      "ĠMon": 1599,
      "ĠBibli": 1600,
      "Ġpi": 1601,
      "Ġmondi": 1602,
      "ouse": 1603,
      "ly": 1604,
      "60": 1605,
      "Ġ!": 1606,
      "ĠâĢ¢": 1607,
      "ange": 1608,
      "sh": 1609,
      "Ġco": 1610,
      "ĠAb": 1611,
      "ression": 1612,
      "cture": 1613,
      "Ġ2022": 1614,
      "position": 1615,
      "Ġmatch": 1616,
      "34": 1617,
      "Ġquatre": 1618,
      "ouvent": 1619,
      "Ġimport": 1620,
      "arge": 1621,
      "80": 1622,
      "Ġfoot": 1623,
      "Le": 1624,
      "ative": 1625,
      "ances": 1626,
      "ka": 1627,
      "ĠMus": 1628,
      "ĠWik": 1629,
      "ĠHe": 1630,
      "ĠMan": 1631,
      "Ġtechn": 1632,
      "ĠdÃ©m": 1633,
      "ettre": 1634,
      "Ġ190": 1635,
      "fs": 1636,
      "Ġjourn": 1637,
      "oires": 1638,
      "aj": 1639,
      "Ãītat": 1640,
      "ets": 1641,
      "cription": 1642,
      "ĠÃ©qu": 1643,
      "ime": 1644,
      "ĠBel": 1645,
      "Ġnationale": 1646,
      "Ġprob": 1647,
      "Ġtou": 1648,
      "Â°": 1649,
      "ork": 1650,
      "iter": 1651,
      "Ġemp": 1652,
      "ars": 1653,
      "quÃ©": 1654,
      "Ġtourn": 1655,
      "ĠpÃ©riode": 1656,
      "ĠPierre": 1657,
      "Ġ2005": 1658,
      "Ġdess": 1659,
      "apon": 1660,
      "Ġmeille": 1661,
      "ger": 1662,
      "Ã§ois": 1663,
      "Ġ2021": 1664,
      "197": 1665,
      "ĠGrand": 1666,
      "com": 1667,
      "ilitÃ©": 1668,
      "tal": 1669,
      "isme": 1670,
      "ritann": 1671,
      "39": 1672,
      "adi": 1673,
      "Ġ)": 1674,
      "entes": 1675,
      "Ġoc": 1676,
      "Ġdou": 1677,
      "unicip": 1678,
      "37": 1679,
      "arch": 1680,
      "ateurs": 1681,
      "Ã¶": 1682,
      "Ġnature": 1683,
      "Ġservi": 1684,
      "ĠMo": 1685,
      "suite": 1686,
      "Ġautre": 1687,
      "Ġcompte": 1688,
      "Ġind": 1689,
      "Ġvous": 1690,
      "Ġgrande": 1691,
      "Ġbat": 1692,
      "yl": 1693,
      "Ġliv": 1694,
      "Ġconse": 1695,
      "emple": 1696,
      "Fran": 1697,
      "vent": 1698,
      "55": 1699,
      "Ã¢teau": 1700,
      "rain": 1701,
      "ick": 1702,
      "red": 1703,
      "uropÃ©": 1704,
      "Ã¨te": 1705,
      "ĠPal": 1706,
      "rin": 1707,
      "sions": 1708,
      "Ġorigin": 1709,
      "af": 1710,
      "ĠDi": 1711,
      "ros": 1712,
      "ĠDis": 1713,
      "Ġclim": 1714,
      "Ġparticip": 1715,
      "ock": 1716,
      "Ġ26": 1717,
      "Ġoffic": 1718,
      "Ġcomb": 1719,
      "38": 1720,
      "sionn": 1721,
      "Ġangl": 1722,
      "Ġ27": 1723,
      "enc": 1724,
      "cation": 1725,
      "Ġ2000": 1726,
      "oris": 1727,
      "ada": 1728,
      "ĠPort": 1729,
      "aff": 1730,
      "mer": 1731,
      "Ġpat": 1732,
      "Joueur": 1733,
      "35": 1734,
      "enre": 1735,
      "ĠMal": 1736,
      "tr": 1737,
      "udes": 1738,
      "Ġcelui": 1739,
      "rag": 1740,
      "Ġparticu": 1741,
      "Ġinc": 1742,
      "usion": 1743,
      "ĠOr": 1744,
      "erb": 1745,
      "actÃ©": 1746,
      "old": 1747,
      "45": 1748,
      "66": 1749,
      "Ġthumb": 1750,
      "tiÃ¨re": 1751,
      "Ã´t": 1752,
      "Ġils": 1753,
      "ision": 1754,
      "Ġpetit": 1755,
      "urb": 1756,
      "ĠCom": 1757,
      "ĠsituÃ©e": 1758,
      "Ġ2004": 1759,
      "ĠRen": 1760,
      "ones": 1761,
      "oine": 1762,
      "ara": 1763,
      "fois": 1764,
      "Ġsecond": 1765,
      "ata": 1766,
      "lections": 1767,
      "Ġforme": 1768,
      "Ġquelques": 1769,
      "seau": 1770,
      "Ġplan": 1771,
      "ost": 1772,
      "Ġprog": 1773,
      "Ġayant": 1774,
      "Ġ28": 1775,
      "ĠBl": 1776,
      "ley": 1777,
      "Ã¨de": 1778,
      "Ġcri": 1779,
      "Ġtant": 1780,
      "Ġtrouve": 1781,
      "Ã¨g": 1782,
      "oles": 1783,
      "ity": 1784,
      "yd": 1785,
      "lev": 1786,
      "mbl": 1787,
      "ĠJac": 1788,
      "Ã«": 1789,
      "lie": 1790,
      "article": 1791,
      "Ġlang": 1792,
      "crit": 1793,
      "ĠLouis": 1794,
      "olymp": 1795,
      "Ġ2023": 1796,
      "Ġinf": 1797,
      "Ġcelle": 1798,
      "Ġrepr": 1799,
      "ĠSte": 1800,
      "000": 1801,
      "ycl": 1802,
      "46": 1803,
      "Ġvillage": 1804,
      "Ã©quipe": 1805,
      "Ġfils": 1806,
      "temp": 1807,
      "Ġconsid": 1808,
      "cs": 1809,
      "ĠPaul": 1810,
      "Ġenf": 1811,
      "era": 1812,
      "orn": 1813,
      "air": 1814,
      "Ġital": 1815,
      "ini": 1816,
      "sur": 1817,
      "Ġ2024": 1818,
      "ĠeuropÃ©": 1819,
      "Ġrou": 1820,
      "Ġterm": 1821,
      "Ã¢tre": 1822,
      "ĠNord": 1823,
      "Ġolymp": 1824,
      "ene": 1825,
      "ĠFl": 1826,
      "Ġnive": 1827,
      "duction": 1828,
      "Ġfonction": 1829,
      "ĠgÃ©nÃ©ra": 1830,
      "ĠBibliographie": 1831,
      "Ġmes": 1832,
      "ĠSur": 1833,
      "Ġmunicip": 1834,
      "anti": 1835,
      "ĠRoy": 1836,
      "histoire": 1837,
      "oie": 1838,
      "tient": 1839,
      "Ġbut": 1840,
      "Ġcir": 1841,
      "ville": 1842,
      "Ġrecher": 1843,
      "Ġjoue": 1844,
      "utÃ©": 1845,
      "En": 1846,
      "ĠdeuxiÃ¨me": 1847,
      "Ġpopulation": 1848,
      "Ã¢ti": 1849,
      "Ġappel": 1850,
      "Ã©dia": 1851,
      "ĠSal": 1852,
      "Ġcompos": 1853,
      "cienne": 1854,
      "Ġclasse": 1855,
      "ĠEx": 1856,
      "cus": 1857,
      "esp": 1858,
      "pect": 1859,
      "ĠSc": 1860,
      "urg": 1861,
      "idÃ©": 1862,
      "ules": 1863,
      "nom": 1864,
      "Ġgouvernement": 1865,
      "iles": 1866,
      "align": 1867,
      "ca": 1868,
      "Ġsub": 1869,
      "ase": 1870,
      "ash": 1871,
      "ĠFin": 1872,
      "ĠBon": 1873,
      "poque": 1874,
      "quer": 1875,
      "ĠAnd": 1876,
      "ĠVal": 1877,
      "ises": 1878,
      "ĠCoupe": 1879,
      "rale": 1880,
      "31": 1881,
      "70": 1882,
      "Ġtoute": 1883,
      "ĠSi": 1884,
      "orig": 1885,
      "ublique": 1886,
      "iÃ©": 1887,
      "tien": 1888,
      "oss": 1889,
      "'s": 1890,
      "join": 1891,
      "urent": 1892,
      "erre": 1893,
      "ĠJeux": 1894,
      "Ġmois": 1895,
      "ĠHen": 1896,
      "Ġvi": 1897,
      "Ġ29": 1898,
      "ĠCharles": 1899,
      "Ġsuiv": 1900,
      "Ġprovin": 1901,
      "ĠTe": 1902,
      "Ġcentre": 1903,
      "Ġca": 1904,
      "ĠSud": 1905,
      "Ġrencont": 1906,
      "Ġarticle": 1907,
      "ĠPhil": 1908,
      "ner": 1909,
      "Ġbritann": 1910,
      "quel": 1911,
      "44": 1912,
      "ĠComp": 1913,
      "ĠrÃ´le": 1914,
      "iz": 1915,
      "Ġcontin": 1916,
      "fÃ©rence": 1917,
      "Ġjour": 1918,
      "ĠSa": 1919,
      "Ġcommunes": 1920,
      "annÃ©e": 1921,
      "Or": 1922,
      "33": 1923,
      "Ġorganis": 1924,
      "76": 1925,
      "let": 1926,
      "ĠTour": 1927,
      "hui": 1928,
      "ĠRobert": 1929,
      "Ġtard": 1930,
      "rist": 1931,
      "Ġensuite": 1932,
      "ordre": 1933,
      "Ġlit": 1934,
      "Ġbar": 1935,
      "odes": 1936,
      "inter": 1937,
      "Ġgr": 1938,
      "Ġdernier": 1939,
      "ĠBer": 1940,
      "actÃ©ris": 1941,
      "bert": 1942,
      "ĠprÃ©sident": 1943,
      "Ġhabit": 1944,
      "Ġchez": 1945,
      "estion": 1946,
      "Ġdev": 1947,
      "Ġjou": 1948,
      "58": 1949,
      "ĠSoci": 1950,
      "Ã¨tres": 1951,
      "Ġculture": 1952,
      "ĠIs": 1953,
      "by": 1954,
      "ĠParti": 1955,
      "ect": 1956,
      "ĠsociÃ©tÃ©": 1957,
      "Ã©ma": 1958,
      "aÃ®t": 1959,
      "Ġbase": 1960,
      "Ġ189": 1961,
      "Ġdeven": 1962,
      "48": 1963,
      "eng": 1964,
      "ting": 1965,
      "tiste": 1966,
      "atiques": 1967,
      "ommes": 1968,
      "ĠII": 1969,
      "oll": 1970,
      "Ã¨se": 1971,
      "ĠgÃ©": 1972,
      "off": 1973,
      "ma": 1974,
      "Ġsyst": 1975,
      "Ġroi": 1976,
      "pendant": 1977,
      "autÃ©": 1978,
      "ĠAng": 1979,
      "Ġgra": 1980,
      "ĠmÃ©di": 1981,
      "Ġfl": 1982,
      "ĠdÃ©s": 1983,
      "Ġreg": 1984,
      "196": 1985,
      "ĠGal": 1986,
      "raÃ®": 1987,
      "ĠprÃ¨s": 1988,
      "59": 1989,
      "usse": 1990,
      "ĠDan": 1991,
      "ĠPremi": 1992,
      "Ġdisp": 1993,
      "ĠGeor": 1994,
      "Ġterritoire": 1995,
      "universitÃ©": 1996,
      "cole": 1997,
      "cess": 1998,
      "Ġrue": 1999,
      "56": 2000,
      "alitÃ©s": 2001,
      "cad": 2002,
      "pes": 2003,
      "ha": 2004,
      "ĠPrix": 2005,
      "ĠreÃ§": 2006,
      "jours": 2007,
      "dic": 2008,
      "iller": 2009,
      "ĠdonnÃ©es": 2010,
      "ĠTr": 2011,
      "Ġcamp": 2012,
      "Ġallemand": 2013,
      "Ġchef": 2014,
      "ĠRo": 2015,
      "Ġfootball": 2016,
      "cientif": 2017,
      "sib": 2018,
      "Ġafin": 2019,
      "ards": 2020,
      "Ġbi": 2021,
      "Ã¤": 2022,
      "origine": 2023,
      "Ġjeu": 2024,
      "Ġroy": 2025,
      "aute": 2026,
      "ultats": 2027,
      "igue": 2028,
      "ĠdÃ©t": 2029,
      "pose": 2030,
      "ape": 2031,
      "ipÃ©dia": 2032,
      "sible": 2033,
      "ĠHar": 2034,
      "Ġ2003": 2035,
      "mbres": 2036,
      "Ġgar": 2037,
      "Ġprot": 2038,
      "Ġpoint": 2039,
      "Ġmise": 2040,
      "Ġsup": 2041,
      "ĠannÃ©e": 2042,
      "Ġ2025": 2043,
      "dia": 2044,
      "ĠAnn": 2045,
      "ouest": 2046,
      "ĠGr": 2047,
      "serv": 2048,
      "isode": 2049,
      "49": 2050,
      "Ġface": 2051,
      "ication": 2052,
      "ĠRÃ©p": 2053,
      "Ġcad": 2054,
      "Ġdoit": 2055,
      "Ġfinale": 2056,
      "ĠPat": 2057,
      "magne": 2058,
      "avoir": 2059,
      "ume": 2060,
      "tifs": 2061,
      "ĠPays": 2062,
      "Ġprix": 2063,
      "Ã¨ces": 2064,
      "ologique": 2065,
      "eb": 2066,
      "did": 2067,
      "Ġ1999": 2068,
      "Ġenviron": 2069,
      "Ġdemande": 2070,
      "itre": 2071,
      "Ġ2002": 2072,
      "ames": 2073,
      "Ġdroit": 2074,
      "Ġphot": 2075,
      "ĠMais": 2076,
      "ĠEd": 2077,
      "ald": 2078,
      "Ġadminist": 2079,
      "ĠÅĵuv": 2080,
      "Ġtot": 2081,
      "Ġ100": 2082,
      "isl": 2083,
      "86": 2084,
      "Ġsucc": 2085,
      "iche": 2086,
      "rec": 2087,
      "ĠrÃ©v": 2088,
      "ĠFranÃ§ois": 2089,
      "Ġconserv": 2090,
      "ĠrÃ©c": 2091,
      "Ġservice": 2092,
      "ĠLors": 2093,
      "ĠdÃ©veloppe": 2094,
      "ĠTra": 2095,
      "ĠÃ©quip": 2096,
      "ĠInter": 2097,
      "ĠsituÃ©": 2098,
      "Ġouv": 2099,
      "Ġrapport": 2100,
      "Ġpermet": 2101,
      "ĠpÃ¨re": 2102,
      "ute": 2103,
      "Ġmusique": 2104,
      "Ġscientif": 2105,
      "47": 2106,
      "06": 2107,
      "ĠGuerre": 2108,
      "Ġclass": 2109,
      "Ġproduction": 2110,
      "iment": 2111,
      "ĠGi": 2112,
      "Ã©min": 2113,
      "Ġniveau": 2114,
      "tionn": 2115,
      "01": 2116,
      "ĠÃ©crit": 2117,
      "ĠdÃ©si": 2118,
      "Ġmondiale": 2119,
      "ĠYork": 2120,
      "Ġpers": 2121,
      "Ġnombreux": 2122,
      "Ġexemple": 2123,
      "reg": 2124,
      "rid": 2125,
      "Ġaur": 2126,
      "ribution": 2127,
      "Ġappar": 2128,
      "La": 2129,
      "ical": 2130,
      "Ġarticles": 2131,
      "neur": 2132,
      "mont": 2133,
      "left": 2134,
      "ott": 2135,
      "ĠCes": 2136,
      "Ġess": 2137,
      "Ġpersonnes": 2138,
      "Ġbl": 2139,
      "Ġreste": 2140,
      "llemagne": 2141,
      "Ġjours": 2142,
      "Ã¨rent": 2143,
      "ociation": 2144,
      "Ġmilli": 2145,
      "Ġsuis": 2146,
      "ultÃ©": 2147,
      "cident": 2148,
      "ission": 2149,
      "ovi": 2150,
      "Ġtex": 2151,
      "Ġrempl": 2152,
      "Ġcro": 2153,
      "cipe": 2154,
      "ennes": 2155,
      "cons": 2156,
      "ĠXX": 2157,
      "Ġprend": 2158,
      "57": 2159,
      "Ġsimp": 2160,
      "ition": 2161,
      "rang": 2162,
      "anton": 2163,
      "Ġtravail": 2164,
      "ĠÃ©tant": 2165,
      "Ã©tique": 2166,
      "Ġdoc": 2167,
      "Ġ2001": 2168,
      "ĠFC": 2169,
      "ĠÐ": 2170,
      "--": 2171,
      "ĠÃ©lect": 2172,
      "Â«": 2173,
      "erne": 2174,
      "ĠAut": 2175,
      "Ġblan": 2176,
      "Ġlog": 2177,
      "Ã©rique": 2178,
      "Ġchans": 2179,
      "Ġpouvoir": 2180,
      "lab": 2181,
      "Ġmembre": 2182,
      "Ġpra": 2183,
      "ĠnommÃ©": 2184,
      "text": 2185,
      "Ġbritannique": 2186,
      "54": 2187,
      "ĠbÃ¢ti": 2188,
      "inture": 2189,
      "Europe": 2190,
      "Ġtu": 2191,
      "prise": 2192,
      "ĠIls": 2193,
      "ĠÃ©taient": 2194,
      "jourd": 2195,
      "erc": 2196,
      "jÃł": 2197,
      "mon": 2198,
      "Ã©qu": 2199,
      "uk": 2200,
      "Ġ1990": 2201,
      "mÃ©e": 2202,
      "Ġtoujours": 2203,
      "Åĵur": 2204,
      "ĠGar": 2205,
      "ĠdÃ©fin": 2206,
      "inf": 2207,
      "Ġliste": 2208,
      "Ġref": 2209,
      "ung": 2210,
      "Ġtoutes": 2211,
      "ĠSan": 2212,
      "lande": 2213,
      "rich": 2214,
      "unes": 2215,
      "Ġnum": 2216,
      "con": 2217,
      "ĠBen": 2218,
      "talie": 2219,
      "uvent": 2220,
      "Ġsouvent": 2221,
      "rom": 2222,
      "der": 2223,
      "auv": 2224,
      "Ġhomme": 2225,
      "alisation": 2226,
      "Ġstyle": 2227,
      "Ã©glise": 2228,
      "oise": 2229,
      "Ġense": 2230,
      "otre": 2231,
      "ĠscÃ¨ne": 2232,
      "ĠDu": 2233,
      "Ġchaque": 2234,
      "32": 2235,
      "Ġroman": 2236,
      "Ġali": 2237,
      "Ġrep": 2238,
      "Ġparc": 2239,
      "ĠSec": 2240,
      "78": 2241,
      "Ġsources": 2242,
      "leur": 2243,
      "ĠprÃ©sente": 2244,
      "Ġvit": 2245,
      "Ġbeau": 2246,
      "ds": 2247,
      "Ġcet": 2248,
      "Ġ1998": 2249,
      "Ã§on": 2250,
      "ennent": 2251,
      "Ġprom": 2252,
      "ellement": 2253,
      "ian": 2254,
      "Ġanglais": 2255,
      "ysi": 2256,
      "aye": 2257,
      "AR": 2258,
      "Ġraison": 2259,
      "for": 2260,
      "da": 2261,
      "Ġcoup": 2262,
      "uire": 2263,
      "ĠmÃ©": 2264,
      "avid": 2265,
      "reur": 2266,
      "estiv": 2267,
      "cep": 2268,
      "enir": 2269,
      "ĠRÃ©s": 2270,
      "ĠWikipÃ©dia": 2271,
      "Ġmembres": 2272,
      "tÃ©rieur": 2273,
      "Ġpropos": 2274,
      "Ġpoints": 2275,
      "ĠdÃ©jÃł": 2276,
      "Ġconst": 2277,
      "orth": 2278,
      "rog": 2279,
      "Ġdit": 2280,
      "Ġancien": 2281,
      "ĠSu": 2282,
      "cussion": 2283,
      "Ġfemme": 2284,
      "uve": 2285,
      "ĠAlex": 2286,
      "illiam": 2287,
      "Ġ50": 2288,
      "yc": 2289,
      "ĠBou": 2290,
      "ham": 2291,
      "ĠMin": 2292,
      "cte": 2293,
      "uments": 2294,
      "Ġrap": 2295,
      "Ġinternational": 2296,
      "Ġmilitaire": 2297,
      "Ġcath": 2298,
      "ĠChe": 2299,
      "Ġposs": 2300,
      "Ġseul": 2301,
      "ll": 2302,
      "Ġporte": 2303,
      "ĠPet": 2304,
      "ude": 2305,
      "Ġgl": 2306,
      "berg": 2307,
      "ĠMarie": 2308,
      "Ġdurant": 2309,
      "col": 2310,
      "ĠcaractÃ©ris": 2311,
      "Ġcal": 2312,
      "Ġrev": 2313,
      "ĠÃ©quipe": 2314,
      "Ġtype": 2315,
      "51": 2316,
      "Ġauc": 2317,
      "duit": 2318,
      "enu": 2319,
      "och": 2320,
      "Ġmot": 2321,
      "Ã¨rement": 2322,
      "Ġpeuvent": 2323,
      "Ġchampionnat": 2324,
      "ĠsystÃ¨me": 2325,
      "Ġcinq": 2326,
      "aprÃ¨s": 2327,
      "Ġ188": 2328,
      "Am": 2329,
      "ĠsupÃ©rie": 2330,
      "Ġid": 2331,
      "ĠcarriÃ¨re": 2332,
      "ĠchÃ¢teau": 2333,
      "eth": 2334,
      "Ġsyn": 2335,
      "lles": 2336,
      "vo": 2337,
      "77": 2338,
      "Ġsera": 2339,
      "Ġprovince": 2340,
      "Ġcapit": 2341,
      "Ġprofes": 2342,
      "41": 2343,
      "Ġhistorique": 2344,
      "Ġsujet": 2345,
      "bourg": 2346,
      "exp": 2347,
      "52": 2348,
      "alt": 2349,
      "Ġcertains": 2350,
      "Ġmodi": 2351,
      "ustral": 2352,
      "ood": 2353,
      "ception": 2354,
      "estival": 2355,
      "ira": 2356,
      "Ġministre": 2357,
      "risti": 2358,
      "ĠPer": 2359,
      "ĠJacques": 2360,
      "Ġtravers": 2361,
      "Ã¨ge": 2362,
      "lant": 2363,
      "issement": 2364,
      "ĠtroisiÃ¨me": 2365,
      "oÃ¯": 2366,
      "style": 2367,
      "Ġolympiques": 2368,
      "NE": 2369,
      "Ġvoit": 2370,
      "oration": 2371,
      "atoire": 2372,
      "ĠNic": 2373,
      "chi": 2374,
      "ĠFor": 2375,
      "Je": 2376,
      "ĠLu": 2377,
      "ĠCas": 2378,
      "ampionnats": 2379,
      "ĠDur": 2380,
      "agit": 2381,
      "ĠLib": 2382,
      "ĠMad": 2383,
      "auteur": 2384,
      "ĠRÃ©publique": 2385,
      "ica": 2386,
      "cupation": 2387,
      "asion": 2388,
      "quelle": 2389,
      "urt": 2390,
      "stall": 2391,
      "Ġfais": 2392,
      "Ġend": 2393,
      "aude": 2394,
      "rict": 2395,
      "ĠamÃ©ricaine": 2396,
      "ĠSer": 2397,
      "ark": 2398,
      "Ġhum": 2399,
      "Ġmaison": 2400,
      "dien": 2401,
      "ĠÃ©tab": 2402,
      "ates": 2403,
      "Ġversion": 2404,
      "Ġreconn": 2405,
      "ocra": 2406,
      "ĠrÃ©alisÃ©": 2407,
      "ĠMarc": 2408,
      "Ġtit": 2409,
      "once": 2410,
      "ĠHistor": 2411,
      "Ġjoueur": 2412,
      "ĠMichel": 2413,
      "Ġbou": 2414,
      "ĠMor": 2415,
      "Ġnouv": 2416,
      "oseph": 2417,
      "Ġsci": 2418,
      "rant": 2419,
      "oz": 2420,
      "tier": 2421,
      "ĠPrÃ©": 2422,
      "ĠGÃ©": 2423,
      "Ġvict": 2424,
      "Ġrelig": 2425,
      "tein": 2426,
      "Ġretour": 2427,
      "08": 2428,
      "Ġmat": 2429,
      "Ġrend": 2430,
      "ĠWilliam": 2431,
      "Ġsix": 2432,
      "Ġto": 2433,
      "ĠBro": 2434,
      "Ġqualif": 2435,
      "alog": 2436,
      "ulaire": 2437,
      "Ġlaquelle": 2438,
      "As": 2439,
      "Ġalbum": 2440,
      "Ġconcern": 2441,
      "ym": 2442,
      "09": 2443,
      "ainte": 2444,
      "Ġ'": 2445,
      "Ġcela": 2446,
      "aci": 2447,
      "ende": 2448,
      "ĠDavid": 2449,
      "Ġfemmes": 2450,
      "ĠLond": 2451,
      "alisme": 2452,
      "Ġrecherche": 2453,
      "Ġroute": 2454,
      "ĠMc": 2455,
      "ĠÅ": 2456,
      "aite": 2457,
      "Ġsein": 2458,
      "Ġgenre": 2459,
      "ĠRich": 2460,
      "43": 2461,
      "anie": 2462,
      "Ġmouve": 2463,
      "Ġproc": 2464,
      "ĠSelon": 2465,
      "action": 2466,
      "iver": 2467,
      "grÃ©": 2468,
      "Ġzone": 2469,
      "rad": 2470,
      "ĠRou": 2471,
      "autre": 2472,
      "titution": 2473,
      "Ã©ch": 2474,
      "cal": 2475,
      "intre": 2476,
      "Ġpriv": 2477,
      "Ã¢ce": 2478,
      "ĠCour": 2479,
      "anne": 2480,
      "100": 2481,
      "fe": 2482,
      "Ã©mie": 2483,
      "Ġadministra": 2484,
      "99": 2485,
      "ouverte": 2486,
      "ĠlittÃ©": 2487,
      "Ġpremiers": 2488,
      "07": 2489,
      "ĠrÃ¨g": 2490,
      "ĠÃ©ch": 2491,
      "ublic": 2492,
      "Ġsort": 2493,
      "Esp": 2494,
      "ino": 2495,
      "viÃ¨re": 2496,
      "frique": 2497,
      "42": 2498,
      "ĠâĶ": 2499,
      "inÃ©": 2500,
      "ĠtÃ©lÃ©vis": 2501,
      "Ã©bec": 2502,
      "ĠcrÃ©ation": 2503,
      "ld": 2504,
      "Ġcontribu": 2505,
      "roph": 2506,
      "uf": 2507,
      "ĠtÃªte": 2508,
      "ortÃ©": 2509,
      "ĠNo": 2510,
      "oritÃ©": 2511,
      "ĠConse": 2512,
      "Ġchap": 2513,
      "ĠmÃ©d": 2514,
      "Ġfille": 2515,
      "erve": 2516,
      "mÃªme": 2517,
      "ĠRec": 2518,
      "Ġgauche": 2519,
      "Ġofficiel": 2520,
      "Ġrejoin": 2521,
      "53": 2522,
      "Ġ1997": 2523,
      "Ã©tition": 2524,
      "ĠCo": 2525,
      "lÃ©ment": 2526,
      "ĠCons": 2527,
      "ĠCanada": 2528,
      "Åį": 2529,
      "ĠÃ§": 2530,
      "ippe": 2531,
      "dit": 2532,
      "ĠBelg": 2533,
      "ĠMil": 2534,
      "Ġlarge": 2535,
      "ographique": 2536,
      "ĠÃ©conom": 2537,
      "Ã¨que": 2538,
      "ĠClub": 2539,
      "armÃ©e": 2540,
      "St": 2541,
      "ĠBern": 2542,
      "cis": 2543,
      "coup": 2544,
      "Ġpasse": 2545,
      "ĠdÃ¨s": 2546,
      "Ġ1996": 2547,
      "ĠcinÃ©ma": 2548,
      "ario": 2549,
      "rÃªt": 2550,
      "02": 2551,
      "lec": 2552,
      "ani": 2553,
      "Ġlim": 2554,
      "ainque": 2555,
      "Ġjeune": 2556,
      "hi": 2557,
      "Ã©f": 2558,
      "itt": 2559,
      "Ġvoy": 2560,
      "Ġscientifique": 2561,
      "Ġenfants": 2562,
      "ĠdÃ©veloppement": 2563,
      "Ã©die": 2564,
      "Ġpris": 2565,
      "aqu": 2566,
      "67": 2567,
      "ky": 2568,
      "glise": 2569,
      "ĠÃ§a": 2570,
      "oni": 2571,
      "Ġpol": 2572,
      "ĠcÃ©": 2573,
      "Ġmoi": 2574,
      "ords": 2575,
      "Ġnous": 2576,
      "Ġ31": 2577,
      "France": 2578,
      "men": 2579,
      "uy": 2580,
      "ĠpubliÃ©": 2581,
      "Ġpermett": 2582,
      "ĠfÃ©min": 2583,
      "tite": 2584,
      "formation": 2585,
      "ustrie": 2586,
      "ĠsiÃ¨ge": 2587,
      "Ġconstruction": 2588,
      "Ġtable": 2589,
      "Ãªt": 2590,
      "03": 2591,
      "Ġitalien": 2592,
      "Ġhe": 2593,
      "ael": 2594,
      "ieur": 2595,
      "ĠJo": 2596,
      "Ġprofessionn": 2597,
      "Ġsuivant": 2598,
      "ource": 2599,
      "ouss": 2600,
      "Ġdirection": 2601,
      "ary": 2602,
      "ĠCap": 2603,
      "ĠÃ©tudes": 2604,
      "Ġposte": 2605,
      "Ġdate": 2606,
      "Ġfig": 2607,
      "Ġsal": 2608,
      "Ġeffet": 2609,
      "raire": 2610,
      "ĠGra": 2611,
      "Ġlongue": 2612,
      "ĠMerci": 2613,
      "Ġmari": 2614,
      "Ġdivers": 2615,
      "dam": 2616,
      "Ġvari": 2617,
      "xim": 2618,
      "212": 2619,
      "04": 2620,
      "ĠLi": 2621,
      "05": 2622,
      "ĠvidÃ©": 2623,
      "ĠDel": 2624,
      "68": 2625,
      "ura": 2626,
      "ĠRuss": 2627,
      "illeurs": 2628,
      "we": 2629,
      "Ã¨ve": 2630,
      "ena": 2631,
      "part": 2632,
      "ĠVer": 2633,
      "ĠThom": 2634,
      "ĠSociÃ©tÃ©": 2635,
      "ĠRom": 2636,
      "ible": 2637,
      "ĠXV": 2638,
      "Ġmag": 2639,
      "Ġactiv": 2640,
      "pond": 2641,
      "my": 2642,
      "Ġ).": 2643,
      "Ġcorps": 2644,
      "Ġnombreuses": 2645,
      "ĠcrÃ©Ã©": 2646,
      "ĠrÃ©fÃ©rence": 2647,
      "Ġobten": 2648,
      "Ãªque": 2649,
      "ives": 2650,
      "ĠAs": 2651,
      "Ġceux": 2652,
      "Ġ1995": 2653,
      "onie": 2654,
      "ĠMartin": 2655,
      "esseur": 2656,
      "estre": 2657,
      "Ã«l": 2658,
      "Ġprogram": 2659,
      "Cl": 2660,
      "Ġvoir": 2661,
      "Ġmaj": 2662,
      "ĠCro": 2663,
      "Ð°": 2664,
      "Ġcontr": 2665,
      "Ġpropri": 2666,
      "gh": 2667,
      "Ġprincipale": 2668,
      "ĠNation": 2669,
      "aces": 2670,
      "Ġcher": 2671,
      "atif": 2672,
      "Ġsols": 2673,
      "Ġap": 2674,
      "olique": 2675,
      "Ã¨mes": 2676,
      "hÃ´": 2677,
      "car": 2678,
      "],": 2679,
      "Ġ1991": 2680,
      "ĠPlus": 2681,
      "Ġbel": 2682,
      "ĠGl": 2683,
      "ĠFer": 2684,
      "ĠdÃ©cl": 2685,
      "Ġhabitants": 2686,
      "Ġ1980": 2687,
      "ĠFilm": 2688,
      "ks": 2689,
      "iki": 2690,
      "avant": 2691,
      "Ã©poque": 2692,
      "Ġdivision": 2693,
      "tie": 2694,
      "Ġbr": 2695,
      "orÃ©": 2696,
      "dec": 2697,
      "Ð¾": 2698,
      "Ġconnu": 2699,
      "Ġurb": 2700,
      "Ã©on": 2701,
      "Ġfont": 2702,
      "Ã¨nes": 2703,
      "Ġci": 2704,
      "acÃ©": 2705,
      "sy": 2706,
      "ĠQuÃ©bec": 2707,
      "rond": 2708,
      "Ġ*": 2709,
      "ĠChampionnat": 2710,
      "ĠCentre": 2711,
      "ĠcommunautÃ©": 2712,
      "yon": 2713,
      "Ġsemble": 2714,
      "uÃ©": 2715,
      "Ġarch": 2716,
      "ices": 2717,
      "ĠAg": 2718,
      "Ġstat": 2719,
      "ker": 2720,
      "',": 2721,
      "Ġ1994": 2722,
      "ĠCal": 2723,
      "Ġve": 2724,
      "Ġformation": 2725,
      "Ġ1992": 2726,
      "ĠespÃ¨ce": 2727,
      "ĠdÃ©rou": 2728,
      "ĠcÃ´tÃ©": 2729,
      "Ġchampion": 2730,
      "Ġplu": 2731,
      "ĠSam": 2732,
      "Ġmarqu": 2733,
      "Ġquand": 2734,
      "Ġremporte": 2735,
      "Ġviol": 2736,
      "ardin": 2737,
      "Ġeu": 2738,
      "aris": 2739,
      "Ġseu": 2740,
      "ĠVol": 2741,
      "Ġhommes": 2742,
      "AS": 2743,
      "itaires": 2744,
      "ola": 2745,
      "roÃ¯": 2746,
      "idi": 2747,
      "Ġassoci": 2748,
      "ney": 2749,
      "ĠdÃ©couvert": 2750,
      ")..": 2751,
      "ĠÃ©quipes": 2752,
      "respond": 2753,
      "Ġva": 2754,
      "Ġfort": 2755,
      "Ã´me": 2756,
      "illon": 2757,
      "Ġclassi": 2758,
      "Ġespagn": 2759,
      "key": 2760,
      "tra": 2761,
      "Ġloi": 2762,
      "Ġsortie": 2763,
      "erce": 2764,
      "Ġunivers": 2765,
      "Ġlivre": 2766,
      "Ã©dition": 2767,
      "ama": 2768,
      "leurs": 2769,
      "ĠPas": 2770,
      "pec": 2771,
      "Ġconstitu": 2772,
      "lÃ¨ve": 2773,
      "ĠderniÃ¨re": 2774,
      "Ġcanton": 2775,
      "vie": 2776,
      "Ġaj": 2777,
      "ĠKar": 2778,
      "vre": 2779,
      "ber": 2780,
      "atives": 2781,
      "Ġdevant": 2782,
      "rages": 2783,
      "Ġ1988": 2784,
      "ĠHenri": 2785,
      "ĠÃ©lections": 2786,
      "titut": 2787,
      "oile": 2788,
      "Ġaujourd": 2789,
      "less": 2790,
      "posi": 2791,
      "Ġmilieu": 2792,
      "Ġ<": 2793,
      "und": 2794,
      "Car": 2795,
      "omin": 2796,
      "assin": 2797,
      "Saint": 2798,
      "Personn": 2799,
      "lit": 2800,
      "75": 2801,
      "dess": 2802,
      "Ġbeaucoup": 2803,
      "ielle": 2804,
      "Ġtrop": 2805,
      "Ġcadre": 2806,
      "ĠNouvelle": 2807,
      "Ġtechnique": 2808,
      "ĠVict": 2809,
      "ainqueur": 2810,
      "andis": 2811,
      "Ġsem": 2812,
      "89": 2813,
      "Ġcommence": 2814,
      "ĠCam": 2815,
      "terre": 2816,
      "aly": 2817,
      "ko": 2818,
      "ĠmusÃ©e": 2819,
      "ĠsuccÃ¨s": 2820,
      "lic": 2821,
      "Ġmoyenne": 2822,
      "Ġhaut": 2823,
      "tice": 2824,
      "Ġ1993": 2825,
      "Ġlangue": 2826,
      "Ġquarti": 2827,
      "Ġ1970": 2828,
      "Ġmeilleur": 2829,
      "landais": 2830,
      "lique": 2831,
      "ĠprÃ©cÃ©d": 2832,
      "ĠmodÃ¨le": 2833,
      "oign": 2834,
      "Ġbois": 2835,
      "ĠConseil": 2836,
      "ĠgrÃ¢ce": 2837,
      "otte": 2838,
      "Ġanim": 2839,
      "Ġterme": 2840,
      "orter": 2841,
      "ĠWe": 2842,
      "Ġtravaill": 2843,
      "ources": 2844,
      "Ġpal": 2845,
      "ĠCel": 2846,
      "isse": 2847,
      "Ġserait": 2848,
      "Ġrencontre": 2849,
      "Ġviv": 2850,
      "ĠBo": 2851,
      "ourt": 2852,
      "Ġrapide": 2853,
      "Ġfac": 2854,
      "ĠKe": 2855,
      "time": 2856,
      "umi": 2857,
      "Ġquestion": 2858,
      "ĠrÃ©seau": 2859,
      "Ġchanson": 2860,
      "Union": 2861,
      "ĠlÃ©gisl": 2862,
      "agnie": 2863,
      "ĠGen": 2864,
      "za": 2865,
      "tout": 2866,
      "Ġdonne": 2867,
      "ĠTur": 2868,
      "ĠThÃ©": 2869,
      "tÃ©roÃ¯": 2870,
      "Ġdispar": 2871,
      "Ġparticuli": 2872,
      "tivement": 2873,
      "net": 2874,
      "Ġmet": 2875,
      "ĠDemand": 2876,
      "Ġchange": 2877,
      "Ġtravaux": 2878,
      "ions": 2879,
      "ĠBra": 2880,
      "ĠJapon": 2881,
      "ĠChampion": 2882,
      "ĠsÃ©lection": 2883,
      "urÃ©": 2884,
      "of": 2885,
      "Ġparticipe": 2886,
      "ologne": 2887,
      "own": 2888,
      "onneur": 2889,
      "ĠBonjour": 2890,
      "ĠMag": 2891,
      "83": 2892,
      "ĠSim": 2893,
      "ports": 2894,
      "cide": 2895,
      "Ġjapon": 2896,
      "utes": 2897,
      "Ġsens": 2898,
      "ave": 2899,
      "ĠGre": 2900,
      "ĠutilisÃ©": 2901,
      "Pierre": 2902,
      "ĠLigue": 2903,
      "jec": 2904,
      "Ġni": 2905,
      "ĠintÃ©g": 2906,
      "Ġsource": 2907,
      "79": 2908,
      "Ġmom": 2909,
      "Ġdemand": 2910,
      "ĠthÃ©Ã¢tre": 2911,
      "rivain": 2912,
      "ĠSite": 2913,
      "dire": 2914,
      "Jean": 2915,
      "olas": 2916,
      "Ġtradition": 2917,
      "Ġfeu": 2918,
      "ĠDepuis": 2919,
      "Ġautom": 2920,
      "ĠâĶĤ": 2921,
      "osi": 2922,
      "temps": 2923,
      "The": 2924,
      "Ġimm": 2925,
      "nel": 2926,
      "Ġdel": 2927,
      "ĠBelgique": 2928,
      "Ġcorrespond": 2929,
      "ĠJoseph": 2930,
      "62": 2931,
      "face": 2932,
      "ĠmaÃ®": 2933,
      "ĠtÃ©lÃ©visÃ©e": 2934,
      "eff": 2935,
      "ensemble": 2936,
      "na": 2937,
      "Ġproduit": 2938,
      "uest": 2939,
      "ĠvidÃ©o": 2940,
      "ttp": 2941,
      "album": 2942,
      "Ġmine": 2943,
      "Ġcommand": 2944,
      "rimoine": 2945,
      "ĠSant": 2946,
      "Ġdix": 2947,
      "ĠEt": 2948,
      "ĠdÃ©sign": 2949,
      "ĠEsp": 2950,
      "Ġbon": 2951,
      "ĠMat": 2952,
      "Ġis": 2953,
      "69": 2954,
      "Ġjam": 2955,
      "Ã®le": 2956,
      "ĠconsidÃ©rÃ©": 2957,
      "anique": 2958,
      "leterre": 2959,
      "Ġtomb": 2960,
      "ĠDeux": 2961,
      "ĠfÃ©d": 2962,
      "oub": 2963,
      "Ã©pend": 2964,
      "ight": 2965,
      "oud": 2966,
      "lÃ©g": 2967,
      "raine": 2968,
      "Ġsuper": 2969,
      "Ġdroite": 2970,
      "72": 2971,
      "osc": 2972,
      "ĠcomtÃ©": 2973,
      "argent": 2974,
      "Ġdemi": 2975,
      "Ġpages": 2976,
      "Ġunique": 2977,
      "yclop": 2978,
      "Ġdessin": 2979,
      "ĠfrÃ©": 2980,
      "anci": 2981,
      "PersonnalitÃ©": 2982,
      "Ġcrois": 2983,
      "ĠWh": 2984,
      "yr": 2985,
      "ied": 2986,
      "Ġâī": 2987,
      "Ġbande": 2988,
      "abb": 2989,
      "Ġchar": 2990,
      "fication": 2991,
      "Ġfaut": 2992,
      "Ang": 2993,
      "Ġseulement": 2994,
      "Ġfra": 2995,
      "Ð¸": 2996,
      "uisse": 2997,
      "Ġparticulier": 2998,
      "va": 2999,
      "Ġlibre": 3000,
      "gne": 3001,
      "oux": 3002,
      "ablement": 3003,
      "ĠdiffÃ©rentes": 3004,
      "Ġpres": 3005,
      "Ġrusse": 3006,
      "Ġ(),": 3007,
      "Ġenv": 3008,
      "bel": 3009,
      "ĠRome": 3010,
      "Ġexpl": 3011,
      "onse": 3012,
      "abord": 3013,
      "ĠAw": 3014,
      "Ġconseil": 3015,
      "Ġmul": 3016,
      "88": 3017,
      "go": 3018,
      "ĠBas": 3019,
      "Ġcandid": 3020,
      "ĠEr": 3021,
      "ĠnÃ©cess": 3022,
      "ĠDist": 3023,
      "mpire": 3024,
      "ĠÃ©tudi": 3025,
      "65": 3026,
      "ĠLondres": 3027,
      "anisation": 3028,
      "ĠmÃ¨re": 3029,
      "Ġsignif": 3030,
      "64": 3031,
      "Ġsais": 3032,
      "ĠdiffÃ©rents": 3033,
      "ĠEurope": 3034,
      "arc": 3035,
      "Ġ1989": 3036,
      "ket": 3037,
      "ĠAlexand": 3038,
      "Ġici": 3039,
      "Ġlanc": 3040,
      "Ġailleurs": 3041,
      "Ġjamais": 3042,
      "Est": 3043,
      "Ġvue": 3044,
      ".)": 3045,
      "ĠPhilippe": 3046,
      "Ã©ment": 3047,
      "ĠâīĪ": 3048,
      "iÃ¨res": 3049,
      "tienne": 3050,
      "Ġserv": 3051,
      "61": 3052,
      "sembl": 3053,
      "Ã©cur": 3054,
      "Ġord": 3055,
      "ĠmÃ©th": 3056,
      "ĠAvec": 3057,
      "Ġradi": 3058,
      "Ġclimat": 3059,
      "Ġtyp": 3060,
      "titude": 3061,
      "Ġeffect": 3062,
      "Ġtandis": 3063,
      "Ġparmi": 3064,
      "fi": 3065,
      "aug": 3066,
      "balle": 3067,
      "ĠnumÃ©ro": 3068,
      "SS": 3069,
      "ĠChrist": 3070,
      "ĠThomas": 3071,
      "onyme": 3072,
      "Ġquit": 3073,
      "ye": 3074,
      "Ġval": 3075,
      "Ġincl": 3076,
      "idae": 3077,
      "sort": 3078,
      "Ġinscrit": 3079,
      "93": 3080,
      "orde": 3081,
      "ueil": 3082,
      "ĠMÃ©d": 3083,
      "Ġbataille": 3084,
      "Ġchemin": 3085,
      "Ġmas": 3086,
      "marÃ¨s": 3087,
      "74": 3088,
      "sibilitÃ©": 3089,
      "vention": 3090,
      "Ġdistrict": 3091,
      "Ã¡n": 3092,
      "Ġiniti": 3093,
      "Ġsus": 3094,
      "volution": 3095,
      "Ġbord": 3096,
      "Ġobserv": 3097,
      "voir": 3098,
      "ĠAc": 3099,
      "ignes": 3100,
      "ren": 3101,
      "2020": 3102,
      "ĠCont": 3103,
      "Ġpersonne": 3104,
      "Ġdirecteur": 3105,
      "atin": 3106,
      "Ġvra": 3107,
      "Ġdo": 3108,
      "ĠmaniÃ¨re": 3109,
      "rondissement": 3110,
      "Les": 3111,
      "Ġstation": 3112,
      "atur": 3113,
      "ĠMac": 3114,
      "ĠAt": 3115,
      "stes": 3116,
      "tation": 3117,
      "aÃ®tre": 3118,
      "Ġphysi": 3119,
      "Ġaurait": 3120,
      "ĠeuropÃ©enne": 3121,
      "âĢ¦": 3122,
      "tine": 3123,
      "Ġmesure": 3124,
      "ĠTrans": 3125,
      "uil": 3126,
      "Ġsuff": 3127,
      "Ġmoyen": 3128,
      "ĠCent": 3129,
      "Ġempl": 3130,
      "istÃ¨re": 3131,
      "Ġmer": 3132,
      "Ġetc": 3133,
      "occupation": 3134,
      "mment": 3135,
      "Ġdocument": 3136,
      "Ġdestin": 3137,
      "Ġeng": 3138,
      "ĠClasse": 3139,
      "atrice": 3140,
      "Ġparfois": 3141,
      "Ġcause": 3142,
      "Ġsuivante": 3143,
      "ory": 3144,
      "ĠSup": 3145,
      "Ġpeintre": 3146,
      "Ġtri": 3147,
      "III": 3148,
      "Ġvale": 3149,
      "rir": 3150,
      "Ġconsac": 3151,
      "ĠNom": 3152,
      "Ġ1971": 3153,
      "rige": 3154,
      "sive": 3155,
      "Ġ1960": 3156,
      "enf": 3157,
      "Ġnouvelles": 3158,
      "tern": 3159,
      "ĠJames": 3160,
      "eur": 3161,
      "Ġsavoir": 3162,
      "Ġtrouv": 3163,
      "ĠEm": 3164,
      "texte": 3165,
      "rite": 3166,
      "Ġmouvement": 3167,
      "ĠForm": 3168,
      "Ġsept": 3169,
      "Ã©tait": 3170,
      "ĠMaur": 3171,
      "71": 3172,
      "ailles": 3173,
      "Ġ40": 3174,
      "Ġobtient": 3175,
      "parti": 3176,
      "igh": 3177,
      "Ġresp": 3178,
      "Ã³n": 3179,
      "Ġinform": 3180,
      "Ġmoment": 3181,
      "veur": 3182,
      "ĠPi": 3183,
      "Ġpetite": 3184,
      "ĠVi": 3185,
      "Ġdomaine": 3186,
      "UniversitÃ©": 3187,
      "ambre": 3188,
      "Ã©lection": 3189,
      "ĠÃ©pouse": 3190,
      "rÃ©es": 3191,
      "ĠCependant": 3192,
      "ĠRichard": 3193,
      "ja": 3194,
      "ĠEs": 3195,
      "Ġcit": 3196,
      "Ġposition": 3197,
      "orld": 3198,
      "Ġremar": 3199,
      "Ã¢ge": 3200,
      "Ġcollab": 3201,
      "Ðµ": 3202,
      "ĠGrande": 3203,
      "empl": 3204,
      "ya": 3205,
      "Ġpropre": 3206,
      "ĠÂ·": 3207,
      "Ġsuc": 3208,
      "Ġenc": 3209,
      "Ġphil": 3210,
      "ford": 3211,
      "Ph": 3212,
      "ĠDon": 3213,
      "Ã¨tre": 3214,
      "Ġnoir": 3215,
      "ĠVan": 3216,
      "Ġtent": 3217,
      "Ġautour": 3218,
      "quÃªte": 3219,
      "Ab": 3220,
      "Ġris": 3221,
      "reuve": 3222,
      "Pro": 3223,
      "unis": 3224,
      "rÃ©t": 3225,
      "osÃ©": 3226,
      "mission": 3227,
      "ĠÃ©l": 3228,
      "Ġdisc": 3229,
      "Ġseule": 3230,
      "ĠMotif": 3231,
      "ington": 3232,
      "Ġprobl": 3233,
      "Ġreven": 3234,
      "tim": 3235,
      "ĠRussie": 3236,
      "ago": 3237,
      "96": 3238,
      "ĠMi": 3239,
      "Me": 3240,
      "ĠBal": 3241,
      "ĠRoyaume": 3242,
      "ĠChristi": 3243,
      "ĠKh": 3244,
      "Ġpossible": 3245,
      "Ġsurtout": 3246,
      "ĠdÃ©g": 3247,
      "ĠSainte": 3248,
      "icile": 3249,
      "ĠDescription": 3250,
      "Ġhistoriques": 3251,
      "ĠJu": 3252,
      "Ġprincipal": 3253,
      "Ġbloc": 3254,
      "ita": 3255,
      "Ġmaint": 3256,
      "occ": 3257,
      "ault": 3258,
      "Ġbelge": 3259,
      "uellement": 3260,
      "Ġcana": 3261,
      "aval": 3262,
      "Ġvon": 3263,
      "mann": 3264,
      "Ġelles": 3265,
      "Ġarg": 3266,
      "ĠmÃ©dec": 3267,
      "mond": 3268,
      "Ġstru": 3269,
      "mie": 3270,
      "Ġgrou": 3271,
      "osse": 3272,
      "Ġnavi": 3273,
      "ĠÃ¢": 3274,
      "Ġtexte": 3275,
      "ĠSes": 3276,
      "ĠdÃ©pl": 3277,
      "posÃ©": 3278,
      "Ġcommerci": 3279,
      "ades": 3280,
      "ĠXXe": 3281,
      "tte": 3282,
      "Ins": 3283,
      "inc": 3284,
      "Ã©si": 3285,
      "tives": 3286,
      "Ġmaje": 3287,
      "âĢĶ": 3288,
      "Ġdipl": 3289,
      "ĠLuc": 3290,
      "dy": 3291,
      "anisme": 3292,
      "Ġus": 3293,
      "ront": 3294,
      "Ġi": 3295,
      "ĠIII": 3296,
      "73": 3297,
      "Ġgrands": 3298,
      "Ġ1986": 3299,
      "Ġclassement": 3300,
      "Ġalign": 3301,
      "rÃ©g": 3302,
      "ĠAss": 3303,
      "ĠfrÃ¨re": 3304,
      "Ġcourse": 3305,
      "ĠriviÃ¨re": 3306,
      "Uni": 3307,
      "ski": 3308,
      "lÃ¨te": 3309,
      "ĠGeorges": 3310,
      "Ã©cole": 3311,
      "ĠRos": 3312,
      "63": 3313,
      "ares": 3314,
      "ora": 3315,
      "ek": 3316,
      "Com": 3317,
      "ĠintÃ©": 3318,
      "Ġinternationale": 3319,
      "aie": 3320,
      "ĠBeau": 3321,
      "intÃ©": 3322,
      "Ġretr": 3323,
      "Ġzones": 3324,
      "bo": 3325,
      "Ġdiffus": 3326,
      "Ġartis": 3327,
      "ague": 3328,
      "Ġjournal": 3329,
      "Ġiss": 3330,
      "ĠrÃ©d": 3331,
      "ta": 3332,
      "anger": 3333,
      "Ġmatchs": 3334,
      "Ġseconde": 3335,
      "Ġcharg": 3336,
      "ĠentraÃ®": 3337,
      "Ġjur": 3338,
      "ries": 3339,
      "ilis": 3340,
      "avec": 3341,
      "ĠnÃ©e": 3342,
      "eux": 3343,
      "ultat": 3344,
      "Ġfai": 3345,
      "ĠÃ©vol": 3346,
      "Ġmillions": 3347,
      "Ex": 3348,
      "ĠtÃ©lÃ©vision": 3349,
      "95": 3350,
      "yth": 3351,
      "roit": 3352,
      "rÃ©sil": 3353,
      "arn": 3354,
      "Ġatte": 3355,
      "Ġquartier": 3356,
      "Ġgare": 3357,
      "à¤": 3358,
      "Bas": 3359,
      "Ġ1987": 3360,
      "Ġexiste": 3361,
      "ĠWal": 3362,
      "environ": 3363,
      "ache": 3364,
      "Comm": 3365,
      "Ġvictoire": 3366,
      "ĠLo": 3367,
      "Ġvilles": 3368,
      "Ġsoi": 3369,
      "ockey": 3370,
      "Ġmarque": 3371,
      "ĠArch": 3372,
      "ĠGeorge": 3373,
      "85": 3374,
      "ĠlÃł": 3375,
      "2017": 3376,
      "Ġinstall": 3377,
      "91": 3378,
      "ĠÃīt": 3379,
      "ĠAnt": 3380,
      "Ġlequel": 3381,
      "arde": 3382,
      "ĠJuli": 3383,
      "Ġconstr": 3384,
      "Ġmain": 3385,
      "limin": 3386,
      "Ġmettre": 3387,
      "ĠMichael": 3388,
      "ĠTer": 3389,
      "Aut": 3390,
      "Ġcat": 3391,
      "ester": 3392,
      "ĠJus": 3393,
      "ouvre": 3394,
      "igneur": 3395,
      "Ġcomprend": 3396,
      "ĠbÃ©n": 3397,
      "ĠSy": 3398,
      "Ġ1984": 3399,
      "til": 3400,
      "ĠpremiÃ¨res": 3401,
      "film": 3402,
      "Re": 3403,
      "ĠLang": 3404,
      "ĠdonnÃ©": 3405,
      "ĠÃ©lu": 3406,
      "dÃ©": 3407,
      "Ġgal": 3408,
      "Ġmor": 3409,
      "onomie": 3410,
      "ĠChine": 3411,
      "rive": 3412,
      "Ġfurent": 3413,
      "ope": 3414,
      "ager": 3415,
      "ĠrÃ©f": 3416,
      "Ġill": 3417,
      "Ġ000": 3418,
      "balleur": 3419,
      "\".": 3420,
      "ĠmÃ¨tres": 3421,
      "rick": 3422,
      "Ġprincipalement": 3423,
      "ancien": 3424,
      "ouverture": 3425,
      "Ġchois": 3426,
      "Ġvoix": 3427,
      "Ġcul": 3428,
      "Ġprofesseur": 3429,
      "quent": 3430,
      "Ġcertaines": 3431,
      "Ġpil": 3432,
      "ĠXI": 3433,
      "nÃ©e": 3434,
      "Ġpolitiques": 3435,
      "ĠBien": 3436,
      "ĠHol": 3437,
      "Ġpub": 3438,
      "Ġeux": 3439,
      "ĠBul": 3440,
      "ji": 3441,
      "Ġsau": 3442,
      "Ġrejoint": 3443,
      "ĠSyn": 3444,
      "obile": 3445,
      "Ġlorsque": 3446,
      "ĠÃ©pisode": 3447,
      "kin": 3448,
      "hab": 3449,
      "Ġrouge": 3450,
      "ĠJack": 3451,
      "ĠMeille": 3452,
      "Ġfourn": 3453,
      "ĠTor": 3454,
      "ĠdÃ©velopp": 3455,
      "olf": 3456,
      "quant": 3457,
      "homme": 3458,
      "ĠTom": 3459,
      "itz": 3460,
      "Ġvic": 3461,
      "retagne": 3462,
      "ĠTrois": 3463,
      "Ġ1985": 3464,
      "Ġenreg": 3465,
      "isodes": 3466,
      "Ġlance": 3467,
      "Ġarm": 3468,
      "don": 3469,
      "ination": 3470,
      "ĠPrin": 3471,
      "ignement": 3472,
      "ova": 3473,
      "Ġsaint": 3474,
      "ĠreÃ§oit": 3475,
      "tection": 3476,
      "Ġconstruit": 3477,
      "ĠscÃ©n": 3478,
      "Ġplupart": 3479,
      "ĠBu": 3480,
      "Ġrem": 3481,
      "Ġterre": 3482,
      "Ã©rer": 3483,
      "Ġpuiss": 3484,
      "ficie": 3485,
      "enue": 3486,
      "ĠÅĵuvre": 3487,
      "Ġcependant": 3488,
      "center": 3489,
      "Ãīt": 3490,
      "81": 3491,
      "ĠUnivers": 3492,
      "Ġ],": 3493,
      "Ġconcernant": 3494,
      "den": 3495,
      "Ġpu": 3496,
      "erts": 3497,
      "ĠDou": 3498,
      "Th": 3499,
      "Ġrespons": 3500,
      "endu": 3501,
      "Ġ1982": 3502,
      "cadÃ©mie": 3503,
      "US": 3504,
      "ĠprÃ©v": 3505,
      "ings": 3506,
      "ĠÃ©ditions": 3507,
      "Ġ00": 3508,
      "ĠprÃ©sence": 3509,
      "utÃ´t": 3510,
      "ĠSm": 3511,
      "ĠcatÃ©gorie": 3512,
      "Ġpours": 3513,
      "Ġlaiss": 3514,
      "Ġvois": 3515,
      "ogne": 3516,
      "ugby": 3517,
      "ĠPalmarÃ¨s": 3518,
      "Ã©tat": 3519,
      "ĠAngel": 3520,
      "Ġkm": 3521,
      "Ġindivi": 3522,
      "lÃ©ments": 3523,
      "illa": 3524,
      "Ġcombat": 3525,
      "Ġcomment": 3526,
      "chet": 3527,
      "ĠÃīditions": 3528,
      "Ġtravaille": 3529,
      "2000": 3530,
      "rÃ©al": 3531,
      "ĠBerlin": 3532,
      "ĠBur": 3533,
      "entin": 3534,
      "Ġuti": 3535,
      "Ġanti": 3536,
      "ĠAllemagne": 3537,
      "Ġdroits": 3538,
      "van": 3539,
      "Ġ#": 3540,
      "Ġpopulaire": 3541,
      "Ġrestaur": 3542,
      "uts": 3543,
      "ducation": 3544,
      "ministration": 3545,
      "Ġvan": 3546,
      "allÃ©e": 3547,
      "ĠComme": 3548,
      "Italie": 3549,
      "sez": 3550,
      "Ġcr": 3551,
      "aide": 3552,
      "ga": 3553,
      "oyen": 3554,
      "inn": 3555,
      "Ġmeurt": 3556,
      "ĠPremiÃ¨re": 3557,
      "ĠDÃ©m": 3558,
      "ĠMax": 3559,
      "Ad": 3560,
      "98": 3561,
      "ĠHistorique": 3562,
      "honneur": 3563,
      "Ġpont": 3564,
      "pen": 3565,
      "outh": 3566,
      "ĠSuisse": 3567,
      "ĠGÃ©ographie": 3568,
      "isc": 3569,
      "Ġ1975": 3570,
      "ico": 3571,
      "Ãīc": 3572,
      "hum": 3573,
      "do": 3574,
      "cesse": 3575,
      "Ġrien": 3576,
      "ĠEst": 3577,
      "2009": 3578,
      "quis": 3579,
      "Ġvoyage": 3580,
      "odie": 3581,
      "âĢł": 3582,
      "ĠSar": 3583,
      "Ġappr": 3584,
      "Ġlac": 3585,
      "ĠHam": 3586,
      "antÃ©": 3587,
      "Ġminutes": 3588,
      "ĠdÃ©clar": 3589,
      "Ġofficielle": 3590,
      "Ġ...": 3591,
      "ĠrÃ©guli": 3592,
      "Ġ1983": 3593,
      "ĠcrÃ©Ã©e": 3594,
      "Ġmonuments": 3595,
      "ĠprÃ©f": 3596,
      "sident": 3597,
      "Ġsciences": 3598,
      "2010": 3599,
      "ĠAndrÃ©": 3600,
      "emb": 3601,
      "ingt": 3602,
      "quÃ©e": 3603,
      "ciens": 3604,
      "fric": 3605,
      "ĠTitre": 3606,
      "ĠIns": 3607,
      "Ġdirige": 3608,
      "Ġfab": 3609,
      "ĠDemandÃ©": 3610,
      "Ã©curitÃ©": 3611,
      "ĠSeconde": 3612,
      "Allemagne": 3613,
      "Ġblanc": 3614,
      "Ġsimple": 3615,
      "Ġsection": 3616,
      "ĠBernard": 3617,
      "Ġprendre": 3618,
      "ĠproblÃ¨me": 3619,
      "agement": 3620,
      "Ġacteur": 3621,
      "92": 3622,
      "Ġcompt": 3623,
      "forme": 3624,
      "ĠLI": 3625,
      "Ġcomte": 3626,
      "itch": 3627,
      "ĠCarriÃ¨re": 3628,
      "ĠLand": 3629,
      "ĠnÃ©g": 3630,
      "anth": 3631,
      "tempor": 3632,
      "ĠÃīp": 3633,
      "Ġancienne": 3634,
      "2012": 3635,
      "AC": 3636,
      "ĠdÃ©cision": 3637,
      "Ġbibli": 3638,
      "ĠÃīc": 3639,
      "ĠÅĵuvres": 3640,
      "ots": 3641,
      "iro": 3642,
      "iat": 3643,
      "ĠespÃ¨ces": 3644,
      "Ġpeup": 3645,
      "ĠFrancis": 3646,
      "Ġnorm": 3647,
      "2015": 3648,
      "Äĩ": 3649,
      "Ġarriv": 3650,
      "Ġimportant": 3651,
      "ĠplutÃ´t": 3652,
      "nements": 3653,
      "Ð½": 3654,
      "ops": 3655,
      "acement": 3656,
      "Ġoriginale": 3657,
      "Ġcy": 3658,
      "Ġple": 3659,
      "Ã©h": 3660,
      "ater": 3661,
      "essage": 3662,
      "arts": 3663,
      "ĠÃ®": 3664,
      "Ġfinalement": 3665,
      "ĠWar": 3666,
      "AN": 3667,
      "Ġ35": 3668,
      "2014": 3669,
      "ĠÃ©lev": 3670,
      "bles": 3671,
      "ĠdÃ©fense": 3672,
      "Ġservices": 3673,
      "bi": 3674,
      "ĠAll": 3675,
      "Ġ1981": 3676,
      "ĠdÃ©mocra": 3677,
      "rature": 3678,
      "ĠFestival": 3679,
      "ĠEntre": 3680,
      "Ġpublique": 3681,
      "othÃ¨que": 3682,
      "ĠMet": 3683,
      "ala": 3684,
      "Ġentrepr": 3685,
      "Is": 3686,
      "Ġgroupes": 3687,
      "ronze": 3688,
      "ĠMas": 3689,
      "Ġvu": 3690,
      "ĠBos": 3691,
      "ĠÃ©dition": 3692,
      "Ġdouble": 3693,
      "pro": 3694,
      "ĠbÃ¢timent": 3695,
      "tisme": 3696,
      "Ġproche": 3697,
      "Ġjeunes": 3698,
      "ish": 3699,
      "ologiques": 3700,
      "Ġciv": 3701,
      "cÃ©": 3702,
      "Espagne": 3703,
      "Ġban": 3704,
      "ĠgÃ©nÃ©rale": 3705,
      "Ġvoie": 3706,
      "Ġcheval": 3707,
      "ĠArt": 3708,
      "Ġnaissance": 3709,
      "Ġcritique": 3710,
      "comm": 3711,
      "ĠAli": 3712,
      "2013": 3713,
      "2011": 3714,
      "ĠClaude": 3715,
      "ctures": 3716,
      "lov": 3717,
      "Ġtotal": 3718,
      "ides": 3719,
      "Ġcop": 3720,
      "94": 3721,
      "Ã©cu": 3722,
      "enz": 3723,
      "Ġspect": 3724,
      "ĠTop": 3725,
      "ĠWorld": 3726,
      "Ġscul": 3727,
      "Afrique": 3728,
      "ĠAlbert": 3729,
      "abilitÃ©": 3730,
      "Ġtels": 3731,
      "unesse": 3732,
      "2021": 3733,
      "ĠWil": 3734,
      "ires": 3735,
      "ĠdÃ©crit": 3736,
      "ĠrÃ©pond": 3737,
      "2008": 3738,
      "Ġparois": 3739,
      "Ġpresse": 3740,
      "ĠrÃ©sultats": 3741,
      "ÑĢ": 3742,
      "Ġaccomp": 3743,
      "ĠNational": 3744,
      "Ġprod": 3745,
      "tivitÃ©": 3746,
      "uxelles": 3747,
      "ĠdÃ©part": 3748,
      "AT": 3749,
      "ĠBri": 3750,
      "Ġlut": 3751,
      "Ã©sie": 3752,
      "Ġtitres": 3753,
      "ettres": 3754,
      "line": 3755,
      "ĠÃ©trang": 3756,
      "Ġassez": 3757,
      "ĠRÃ©g": 3758,
      "aro": 3759,
      "Ġactrice": 3760,
      "lon": 3761,
      "Ġclimatiques": 3762,
      "Ġfilms": 3763,
      "ĠVictor": 3764,
      "ĠPremier": 3765,
      "Ġ1979": 3766,
      "ancienne": 3767,
      "Åĵuvre": 3768,
      "itecture": 3769,
      "84": 3770,
      "cept": 3771,
      "Ġorient": 3772,
      "97": 3773,
      "chev": 3774,
      "itation": 3775,
      "ĠSpace": 3776,
      "ĠRÃ©sultats": 3777,
      "ĠpÃ©n": 3778,
      "aix": 3779,
      "ĠappelÃ©": 3780,
      "Ġvotre": 3781,
      "Empire": 3782,
      "log": 3783,
      "ĠWest": 3784,
      "Ġaucun": 3785,
      "ĠPol": 3786,
      "ĠgÃ©nÃ©ralement": 3787,
      "ER": 3788,
      "Ġ1976": 3789,
      "ppe": 3790,
      "21290": 3791,
      "oto": 3792,
      "Ġ(âĢł": 3793,
      "ologue": 3794,
      "ĠBat": 3795,
      "2016": 3796,
      "Ġadap": 3797,
      "ĠRog": 3798,
      "ĠPress": 3799,
      "Ġdiscussion": 3800,
      "ĠDaniel": 3801,
      "ĠÃ©m": 3802,
      "Ġ1978": 3803,
      "ield": 3804,
      "ĠcompÃ©tition": 3805,
      "Ġcircons": 3806,
      "ĠLÃ©g": 3807,
      "ĠOli": 3808,
      "87": 3809,
      "AcadÃ©mie": 3810,
      "ĠMod": 3811,
      "Ġdirig": 3812,
      "Ġ1977": 3813,
      "ĠLyon": 3814,
      "ustralie": 3815,
      "Ġperd": 3816,
      "oule": 3817,
      "ĠAndre": 3818,
      "iff": 3819,
      "chen": 3820,
      "ĠprotÃ©g": 3821,
      "uz": 3822,
      "Ġcatholique": 3823,
      "ĠAnnexes": 3824,
      "orer": 3825,
      "anim": 3826,
      "Ġlien": 3827,
      "ĠcontrÃ´le": 3828,
      "ĠAnton": 3829,
      "ĠqualitÃ©": 3830,
      "ĠBre": 3831,
      "Ġgrandes": 3832,
      "ĠpossÃ¨de": 3833,
      "way": 3834,
      "Ġprogramme": 3835,
      "ĠMusÃ©e": 3836,
      "quet": 3837,
      "Ġphilos": 3838,
      "Ġ1972": 3839,
      "ĠaÃ©ri": 3840,
      "arb": 3841,
      "ĠCat": 3842,
      "Ġannonce": 3843,
      "ĠOs": 3844,
      "Se": 3845,
      "2007": 3846,
      "ĠAug": 3847,
      "istance": 3848,
      "Ġespagnol": 3849,
      "Ġcampagne": 3850,
      "ĠGuill": 3851,
      "cier": 3852,
      "Ġcollection": 3853,
      "Ġpens": 3854,
      "Ġdoi": 3855,
      "Ġnouveaux": 3856,
      "ĠÃ©di": 3857,
      "Ġcelles": 3858,
      "Ġ1968": 3859,
      "Ġcarte": 3860,
      "NEAR": 3861,
      "Ġ1950": 3862,
      "ophe": 3863,
      "ĠfaÃ§on": 3864,
      "umes": 3865,
      "Ġmusic": 3866,
      "Ġpublie": 3867,
      "ĠclassÃ©": 3868,
      "ĠJourn": 3869,
      "ĠGo": 3870,
      "Ġrapidement": 3871,
      "Ob": 3872,
      "Ġsupprim": 3873,
      "Ġtermin": 3874,
      "2006": 3875,
      "Ġmaire": 3876,
      "Ġdat": 3877,
      "ĠMontrÃ©al": 3878,
      "Ã¨les": 3879,
      "ĠYou": 3880,
      "ulÃ©": 3881,
      "ĠNor": 3882,
      "Ã©rit": 3883,
      "Ġtransf": 3884,
      "ivision": 3885,
      "Ġcompagnie": 3886,
      "Ouest": 3887,
      "ĠBour": 3888,
      "Ġsim": 3889,
      "Ġobjet": 3890,
      "ĠÃ©d": 3891,
      "ĠToul": 3892,
      "ĠSol": 3893,
      "Ġsex": 3894,
      "ĠmÃ©m": 3895,
      "riÃ¨me": 3896,
      "ĠItalie": 3897,
      "ĠDen": 3898,
      "Ãªtes": 3899,
      "Ã©mique": 3900,
      "ariste": 3901,
      "cel": 3902,
      "azz": 3903,
      "tip": 3904,
      "Ġpatrimoine": 3905,
      "ingle": 3906,
      "Ĵuv": 3907,
      "Ġchamp": 3908,
      "ĠMel": 3909,
      "Ġmanif": 3910,
      "ĠChampionnats": 3911,
      "ulation": 3912,
      "Ġallemande": 3913,
      "Louis": 3914,
      "Ġ1974": 3915,
      "ophie": 3916,
      "ĠDÃ©c": 3917,
      "Ġ1973": 3918,
      "ĠauprÃ¨s": 3919,
      "ĠDistribution": 3920,
      "ĠUS": 3921,
      "Ġchin": 3922,
      "ctor": 3923,
      "gauche": 3924,
      "sych": 3925,
      "ĠDate": 3926,
      "amille": 3927,
      "Ġtrib": 3928,
      "Ġcycl": 3929,
      "ĠdÃ©couverte": 3930,
      "ĠPeter": 3931,
      "Ġsovi": 3932,
      "orts": 3933,
      "ĠMay": 3934,
      "ling": 3935,
      "cia": 3936,
      "Ġhistoire": 3937,
      "Ġ),": 3938,
      "Ġcentrale": 3939,
      "Ġforces": 3940,
      "Ġbless": 3941,
      "Ġpratique": 3942,
      "stan": 3943,
      "ami": 3944,
      "run": 3945,
      "ĠrÃ©sid": 3946,
      "ĠRh": 3947,
      "82": 3948,
      "rÃ©taire": 3949,
      "onnÃ©": 3950,
      "acitÃ©": 3951,
      "este": 3952,
      "FF": 3953,
      "2019": 3954,
      "objet": 3955,
      "expl": 3956,
      "range": 3957,
      "Ãīcole": 3958,
      "ĠPo": 3959,
      "ÅĤ": 3960,
      "Ġbe": 3961,
      "Ġcollec": 3962,
      "Ġceinture": 3963,
      "roy": 3964,
      "ĠGab": 3965,
      "Ġcommande": 3966,
      "ĠAmer": 3967,
      "ider": 3968,
      "ĠCin": 3969,
      "Ġpersonnage": 3970,
      "Ġcharge": 3971,
      "Ġferm": 3972,
      "Ġmention": 3973,
      "las": 3974,
      "gÃ©n": 3975,
      "aune": 3976,
      "lication": 3977,
      "pital": 3978,
      "nd": 3979,
      "lor": 3980,
      "uls": 3981,
      "2018": 3982,
      "kh": 3983,
      "ĠDie": 3984,
      "Ġcontempor": 3985,
      "ĠcÃ©lÃ¨": 3986,
      "Ass": 3987,
      "ĠMik": 3988,
      "ĠcrÃ©er": 3989,
      "raction": 3990,
      "ĠRay": 3991,
      "ĠAir": 3992,
      "gu": 3993,
      "Ġaug": 3994,
      "ĠCong": 3995,
      "Ã¨tes": 3996,
      "Ġfav": 3997,
      "Ġ45": 3998,
      "import": 3999,
      "ĠmÃ©c": 4000,
      "ĠMa": 4001,
      "Ġpassage": 4002,
      "ĠsupÃ©rieur": 4003,
      "ĠNicolas": 4004,
      "ĠBruxelles": 4005,
      "Ġkil": 4006,
      "onnes": 4007,
      "Å¡": 4008,
      "abe": 4009,
      "Ġright": 4010,
      "ĠSil": 4011,
      "oupe": 4012,
      "ĠStade": 4013,
      "Ġjaponais": 4014,
      "illy": 4015,
      "ĠdÃ©n": 4016,
      "mph": 4017,
      "Ġdirec": 4018,
      "ications": 4019,
      "national": 4020,
      "vey": 4021,
      "Ã±": 4022,
      "Ġpourrait": 4023,
      "ĠarrÃª": 4024,
      "ĠLINEAR": 4025,
      "rouve": 4026,
      "Ġrecense": 4027,
      "Ġaucune": 4028,
      "Ġfaisant": 4029,
      "Ġiden": 4030,
      "ĠmunicipalitÃ©": 4031,
      "ateau": 4032,
      "Ġterrain": 4033,
      "luence": 4034,
      "ennis": 4035,
      "Ġaccue": 4036,
      "ĠdÃ©cide": 4037,
      "Ġx": 4038,
      "Ġinv": 4039,
      "ĠchaÃ®": 4040,
      "ĠÃ©conomique": 4041,
      "oupes": 4042,
      "tionnaire": 4043,
      "Ġsac": 4044,
      "del": 4045,
      "ĠrÃ©un": 4046,
      "Ġcompris": 4047,
      "Ġseigneur": 4048,
      "Ġgrec": 4049,
      "rÃ©d": 4050,
      "ĠBan": 4051,
      "ĠRi": 4052,
      "Ġ32": 4053,
      "gin": 4054,
      "Ñģ": 4055,
      "otal": 4056,
      "Ġensemble": 4057,
      "Ġcouleur": 4058,
      "ographe": 4059,
      "Ġavaient": 4060,
      "burg": 4061,
      "Ġspor": 4062,
      "icier": 4063,
      "Ġsalle": 4064,
      "ĠMy": 4065,
      "heim": 4066,
      "Ġmieux": 4067,
      "ĠPr": 4068,
      "roup": 4069,
      "Ġ80": 4070,
      "orp": 4071,
      "Ġretrouve": 4072,
      "Ġ60": 4073,
      "Ã©putÃ©": 4074,
      "Ġall": 4075,
      "ĠÃ©pisodes": 4076,
      "Ġtableau": 4077,
      "Ġbes": 4078,
      "ON": 4079,
      "Ġcer": 4080,
      "itaine": 4081,
      "itations": 4082,
      "oure": 4083,
      "inst": 4084,
      "roche": 4085,
      "ather": 4086,
      "ĠFrank": 4087,
      "data": 4088,
      "Ġhors": 4089,
      "='": 4090,
      "Ġtroupes": 4091,
      "ĠtempÃ©r": 4092,
      "Ġcomposi": 4093,
      "alyse": 4094,
      "information": 4095,
      "Ã´ne": 4096,
      "termin": 4097,
      "value": 4098,
      "azine": 4099,
      "ĠÎ": 4100,
      "onymie": 4101,
      "Marie": 4102,
      "Ġcli": 4103,
      "ĠcomposÃ©": 4104,
      "Ġir": 4105,
      "uste": 4106,
      "Ġoccup": 4107,
      "Ġ150": 4108,
      "Ġdra": 4109,
      "ĠsÃ©curitÃ©": 4110,
      "Ġindustrie": 4111,
      "any": 4112,
      "fique": 4113,
      "Ġouvert": 4114,
      "Ġfil": 4115,
      "mite": 4116,
      "ĠMur": 4117,
      "alise": 4118,
      "ĠVin": 4119,
      "Ġmusical": 4120,
      "watch": 4121,
      "ĠLab": 4122,
      "ĠTri": 4123,
      "PS": 4124,
      "Ġreti": 4125,
      "tiÃ©": 4126,
      "ĠCity": 4127,
      "Ġtermine": 4128,
      "ĠRecords": 4129,
      "Ġcommenc": 4130,
      "ĠTim": 4131,
      "Ã©dÃ©": 4132,
      "aliforn": 4133,
      "Ġprise": 4134,
      "Ġarb": 4135,
      "ĠsÃ©par": 4136,
      "orial": 4137,
      "Ġvingt": 4138,
      "uels": 4139,
      "Ġbronze": 4140,
      "ĠFre": 4141,
      "ureau": 4142,
      "Ġdesc": 4143,
      "ention": 4144,
      "outes": 4145,
      "ĠCamp": 4146,
      "Ġtraite": 4147,
      "entrÃ©e": 4148,
      "Ġnav": 4149,
      "Ġpense": 4150,
      "Ġmand": 4151,
      "fort": 4152,
      "Ġlorsqu": 4153,
      "Ġvitesse": 4154,
      "ĠAinsi": 4155,
      "onique": 4156,
      "Ġliens": 4157,
      "Ãīglise": 4158,
      "ister": 4159,
      "gg": 4160,
      "CatÃ©gorie": 4161,
      "Ġimportante": 4162,
      "Ġfusion": 4163,
      "Ġavis": 4164,
      "ige": 4165,
      "Ġhyd": 4166,
      "ĠHer": 4167,
      "Ġdram": 4168,
      "uch": 4169,
      "ĠTerre": 4170,
      "Ġ1967": 4171,
      "Ġsituation": 4172,
      "Ġindividu": 4173,
      "riche": 4174,
      "ĠsantÃ©": 4175,
      "ĠConc": 4176,
      "Ġjoueurs": 4177,
      "Ġocc": 4178,
      "nelle": 4179,
      "Ġpolon": 4180,
      "Ġproduits": 4181,
      "ĠCarl": 4182,
      "sol": 4183,
      "Ġchac": 4184,
      "odi": 4185,
      "ĠinterprÃ©": 4186,
      "'|": 4187,
      "han": 4188,
      "ĠMer": 4189,
      "Ġ33": 4190,
      "ĠcatÃ©g": 4191,
      "Ġvand": 4192,
      "Ne": 4193,
      "ĠfondÃ©e": 4194,
      "Ġexist": 4195,
      "Ġsocial": 4196,
      "Ġatteint": 4197,
      "Ġbonne": 4198,
      "Ġfron": 4199,
      "dessus": 4200,
      "gÃ©": 4201,
      "Ġbuts": 4202,
      "ctrice": 4203,
      "ĠNotre": 4204,
      "ĠPologne": 4205,
      "ĠClassement": 4206,
      "ettes": 4207,
      "\"|": 4208,
      "ĠmÃ©daille": 4209,
      "Ġcontrat": 4210,
      "ĠactivitÃ©s": 4211,
      "ergie": 4212,
      "ali": 4213,
      "Institut": 4214,
      "ĠÃ©lÃ©ments": 4215,
      "ĠArticle": 4216,
      "ĠNÃ©": 4217,
      "Ġmeilleure": 4218,
      "Ġsuivi": 4219,
      "tistes": 4220,
      "ĠSav": 4221,
      "Ġhockey": 4222,
      "Ġ%),": 4223,
      "ĠPoin": 4224,
      "no": 4225,
      "ĠÃ©poque": 4226,
      "ardi": 4227,
      "lav": 4228,
      "span": 4229,
      "ĠVille": 4230,
      "Ġsouh": 4231,
      "ÑĤ": 4232,
      "ĠtÃ©m": 4233,
      "ĠCet": 4234,
      "agÃ©": 4235,
      "acer": 4236,
      "Ġurbaine": 4237,
      "ĠGuy": 4238,
      "Ġcapitale": 4239,
      "aisse": 4240,
      "Ġduc": 4241,
      "ĠPoli": 4242,
      "upright": 4243,
      "Ġconv": 4244,
      "Ġaccord": 4245,
      "ury": 4246,
      "entreprise": 4247,
      "rs": 4248,
      "Ġnuit": 4249,
      "ĠparticuliÃ¨rement": 4250,
      "Ġ1969": 4251,
      "image": 4252,
      "ommage": 4253,
      "Ġvoi": 4254,
      "Ġkilom": 4255,
      "lissement": 4256,
      "Ġcaract": 4257,
      "Ġbatt": 4258,
      "oÃ¯v": 4259,
      "alisÃ©": 4260,
      "Ġtransport": 4261,
      "ĠreprÃ©s": 4262,
      "partition": 4263,
      "ĠpropriÃ©tÃ©": 4264,
      "ĠJan": 4265,
      "Ġ(Â«": 4266,
      "Ġconfir": 4267,
      "ereur": 4268,
      "ĠLor": 4269,
      "Ġtaux": 4270,
      "ĠmajoritÃ©": 4271,
      "awa": 4272,
      "ĠFranÃ§ais": 4273,
      "bon": 4274,
      "erson": 4275,
      "ĠPan": 4276,
      "Ġhuit": 4277,
      "semblÃ©e": 4278,
      "Ġvaleur": 4279,
      "ĠFiche": 4280,
      "Ġblo": 4281,
      "Ã§ant": 4282,
      "Ġdispon": 4283,
      "ĠLos": 4284,
      "ĠBert": 4285,
      ";'|": 4286,
      "ĠVie": 4287,
      "Ġaband": 4288,
      "ĠVainqueur": 4289,
      "ĠDÃ©": 4290,
      "ĠCert": 4291,
      "ĠBlan": 4292,
      "Ġroyaume": 4293,
      "Ġfranc": 4294,
      "Ġtaille": 4295,
      "Ġ</": 4296,
      "ores": 4297,
      "Ġpot": 4298,
      "source": 4299,
      "quels": 4300,
      "Ġsurface": 4301,
      "Histoire": 4302,
      "udio": 4303,
      "ories": 4304,
      "Ġparties": 4305,
      "Ġjeux": 4306,
      "}}": 4307,
      "Ð¾Ð": 4308,
      "indi": 4309,
      "Jeu": 4310,
      "oyÃ©": 4311,
      "ĠPendant": 4312,
      "ube": 4313,
      "uves": 4314,
      "Ġlieux": 4315,
      ".-": 4316,
      "ĠexpÃ©ri": 4317,
      "Ġheures": 4318,
      "ĠSpacewatch": 4319,
      "ĠIm": 4320,
      "Ġvolont": 4321,
      "ĠLin": 4322,
      "positions": 4323,
      "ĠOb": 4324,
      "ĠfondÃ©": 4325,
      "oti": 4326,
      "Ġ1964": 4327,
      "RÃ©": 4328,
      "ĠCulture": 4329,
      "Ġlignes": 4330,
      "ormais": 4331,
      "Ġgestion": 4332,
      "Ġannuelle": 4333,
      "At": 4334,
      "tÃ©roÃ¯de": 4335,
      "athÃ©m": 4336,
      "Ġintit": 4337,
      "Ã©hic": 4338,
      "axe": 4339,
      "tÃ©es": 4340,
      "nÃ©es": 4341,
      "Ġprincipaux": 4342,
      "dou": 4343,
      "Ġvient": 4344,
      "Ġ1940": 4345,
      "Ġnoms": 4346,
      "gar": 4347,
      "Ġmarch": 4348,
      "Ġautor": 4349,
      "Ġpap": 4350,
      "Ġsold": 4351,
      "Ġpolice": 4352,
      "ĠFab": 4353,
      "ĠÃ©n": 4354,
      "ota": 4355,
      "And": 4356,
      "oÃ®": 4357,
      "Ġadop": 4358,
      "ban": 4359,
      "ado": 4360,
      "ĠpassÃ©": 4361,
      "ĠcitÃ©": 4362,
      "Ġchapelle": 4363,
      "Ġradio": 4364,
      "ĠBay": 4365,
      "ua": 4366,
      "Ġoutre": 4367,
      "zz": 4368,
      "Ġretra": 4369,
      "Ġpropose": 4370,
      "utÃ©s": 4371,
      "chestre": 4372,
      "Ġpri": 4373,
      "Ġaffir": 4374,
      "main": 4375,
      "oble": 4376,
      "oÃ¯vodie": 4377,
      "Ie": 4378,
      "Ã´te": 4379,
      "Ġ1966": 4380,
      "elli": 4381,
      "ĠThÃ©Ã¢tre": 4382,
      "Ġ70": 4383,
      "Ġprotection": 4384,
      "ato": 4385,
      "urr": 4386,
      "Ġvoul": 4387,
      "ĠAff": 4388,
      "Carte": 4389,
      "ster": 4390,
      "Ġ1930": 4391,
      "Ġlangues": 4392,
      "Ã©dÃ©ration": 4393,
      "Ġsigne": 4394,
      "Ġsomm": 4395,
      "Ġhttps": 4396,
      "sk": 4397,
      "oncÃ©": 4398,
      "ĠAth": 4399,
      "ĠGir": 4400,
      "Ġcam": 4401,
      "Ġ1945": 4402,
      "Ġlongueur": 4403,
      "Ġsout": 4404,
      "Ġ1965": 4405,
      "Ġmascul": 4406,
      "ĠFe": 4407,
      "ny": 4408,
      "Ã©rations": 4409,
      "appar": 4410,
      "ĠBru": 4411,
      "Ġfinanci": 4412,
      "Ġmati": 4413,
      "esti": 4414,
      "her": 4415,
      "ĠPersonn": 4416,
      "ĠAnne": 4417,
      "Ġdonner": 4418,
      "ronique": 4419,
      "ĠprÃ©cip": 4420,
      "ray": 4421,
      "ĠVe": 4422,
      "ĠLong": 4423,
      "ho": 4424,
      "ĠchrÃ©": 4425,
      "ieuse": 4426,
      "ĠHong": 4427,
      "Mich": 4428,
      "rire": 4429,
      "occasion": 4430,
      "ctes": 4431,
      "Ġterres": 4432,
      "Ġfrom": 4433,
      "Ġ09": 4434,
      "Ġcourt": 4435,
      "Ãº": 4436,
      "ĠSci": 4437,
      "ĠJosÃ©": 4438,
      "Ġcouleurs": 4439,
      "ĠCrÃ©": 4440,
      "Ag": 4441,
      "Ġcondam": 4442,
      "urer": 4443,
      "Ġrur": 4444,
      "ĠChap": 4445,
      "Ġmission": 4446,
      "ĠdÃ©fini": 4447,
      "Ġpermettant": 4448,
      "Ġcolon": 4449,
      "Ġ36": 4450,
      "cule": 4451,
      "ĠHaute": 4452,
      "entiel": 4453,
      "Ġclassique": 4454,
      "oman": 4455,
      "ĠdÃ©putÃ©": 4456,
      "Ġtrouver": 4457,
      "fier": 4458,
      "ĠHenry": 4459,
      "ĠprÃ©cis": 4460,
      "ĠBrun": 4461,
      "Ġchant": 4462,
      "ĠMaurice": 4463,
      "ĠreprÃ©sentant": 4464,
      "Ġgagn": 4465,
      "ao": 4466,
      "Ġartistique": 4467,
      "imetiÃ¨re": 4468,
      "GC": 4469,
      "Ãªche": 4470,
      "sÃ©rie": 4471,
      "Ġrespec": 4472,
      "itude": 4473,
      "Ġ48": 4474,
      "ootball": 4475,
      "ĠconsÃ©qu": 4476,
      "Ġlivres": 4477,
      "Ã£": 4478,
      "idth": 4479,
      "Ġ34": 4480,
      "Angleterre": 4481,
      "ĠvoÃ¯vodie": 4482,
      "Ġcherche": 4483,
      "Ġsymb": 4484,
      "ĠLiv": 4485,
      "ĠpiÃ¨ces": 4486,
      "Ġagric": 4487,
      "Ġami": 4488,
      "Ġolympique": 4489,
      "ĠPortail": 4490,
      "Paul": 4491,
      "Ġblocage": 4492,
      "Ġ1962": 4493,
      "ĠpiÃ¨ce": 4494,
      "bes": 4495,
      "Ġillust": 4496,
      "ross": 4497,
      "Ġprim": 4498,
      "ty": 4499,
      "ĠNap": 4500,
      "ĠreprÃ©sente": 4501,
      "ographiques": 4502,
      "Qu": 4503,
      "ĠsoviÃ©tique": 4504,
      "Ã©taire": 4505,
      "ake": 4506,
      "ĠChÃ¢teau": 4507,
      "aste": 4508,
      "olo": 4509,
      "Ġfaible": 4510,
      "ĠcollÃ¨": 4511,
      "alogue": 4512,
      "ĠBourg": 4513,
      "Ġtelle": 4514,
      "Ġmoderne": 4515,
      "ĠMark": 4516,
      "urn": 4517,
      "atre": 4518,
      "Ġconseiller": 4519,
      "Ġforce": 4520,
      "ĠministÃ¨re": 4521,
      "Ġjuste": 4522,
      "Ġ43": 4523,
      "rez": 4524,
      "Ġparticipation": 4525,
      "ĠentiÃ¨re": 4526,
      "itant": 4527,
      "Xe": 4528,
      "Ġcivi": 4529,
      "ĠVers": 4530,
      "Dame": 4531,
      "ĠSuper": 4532,
      "Ġdoivent": 4533,
      "orb": 4534,
      "FA": 4535,
      "ĠRac": 4536,
      "itecte": 4537,
      "Ġprobablement": 4538,
      "ĠtempÃ©rature": 4539,
      "can": 4540,
      "cession": 4541,
      "2022": 4542,
      "RE": 4543,
      "Ġby": 4544,
      "Ġcirconscription": 4545,
      "ommÃ©": 4546,
      "ĠLou": 4547,
      "Ġstructure": 4548,
      "Ġgen": 4549,
      "De": 4550,
      "Ġtop": 4551,
      "Ġdoute": 4552,
      "oyer": 4553,
      "histor": 4554,
      "Ġpasser": 4555,
      "Ġtournoi": 4556,
      "ĠrÃ©volution": 4557,
      "ĠâĨ": 4558,
      "ĠquatriÃ¨me": 4559,
      "ĠMaria": 4560,
      "DÃ©putÃ©": 4561,
      "ĠmarchÃ©": 4562,
      "ĠPetit": 4563,
      "Ġoriginal": 4564,
      "Ġjui": 4565,
      "ictionnaire": 4566,
      "ĠRoyal": 4567,
      "Ġcompar": 4568,
      "organisation": 4569,
      "ĠPont": 4570,
      "2023": 4571,
      "anteur": 4572,
      "Ġsit": 4573,
      "Ġportant": 4574,
      "Ġund": 4575,
      "Ġsuppression": 4576,
      "erman": 4577,
      "accord": 4578,
      "Ġfix": 4579,
      "ĠHug": 4580,
      "ĠdÃ©sormais": 4581,
      "ĠmalgrÃ©": 4582,
      "mo": 4583,
      "Ġ||-": 4584,
      "ĠlittÃ©rature": 4585,
      "ni": 4586,
      "anterie": 4587,
      "orme": 4588,
      "IN": 4589,
      "ĠChristian": 4590,
      "Ġmariage": 4591,
      "Ã©ries": 4592,
      "seud": 4593,
      "Ġgaz": 4594,
      "ĠRam": 4595,
      "eck": 4596,
      "ican": 4597,
      "]]": 4598,
      "Ãªmes": 4599,
      "ĠNorm": 4600,
      "Ġcrit": 4601,
      "ĠnÃ©er": 4602,
      "oirs": 4603,
      "ĠFond": 4604,
      "ĠGuillaume": 4605,
      "fer": 4606,
      "Ġbassin": 4607,
      "ĠÃīglise": 4608,
      "Ge": 4609,
      "Ġclubs": 4610,
      "Ġquitte": 4611,
      "duc": 4612,
      "Äį": 4613,
      "Ġhttp": 4614,
      "espace": 4615,
      "ĠMaison": 4616,
      "mir": 4617,
      "ĠDom": 4618,
      "ĠQue": 4619,
      "Ġreli": 4620,
      "ĠTre": 4621,
      "Ġsan": 4622,
      "IS": 4623,
      "Ġprince": 4624,
      "ĠMex": 4625,
      "dienne": 4626,
      "ĠBlack": 4627,
      "Ãªts": 4628,
      "Ġdevenu": 4629,
      "ĠCD": 4630,
      "ĠGold": 4631,
      "Ġrecon": 4632,
      "ws": 4633,
      "ĠJournal": 4634,
      "ÃŃa": 4635,
      "Ġpeinture": 4636,
      "otion": 4637,
      "omie": 4638,
      "Ġ90": 4639,
      "ĠVir": 4640,
      "rac": 4641,
      "rient": 4642,
      "Ġ1963": 4643,
      "vue": 4644,
      "Ġconnue": 4645,
      "redresse": 4646,
      "Ġdevenir": 4647,
      "ĠRenÃ©": 4648,
      "Ġrugby": 4649,
      "Ġrais": 4650,
      "Ġguit": 4651,
      "tell": 4652,
      "pin": 4653,
      "iÃ©e": 4654,
      "Ġcomplex": 4655,
      "intÃ©rieur": 4656,
      "Ġsuisse": 4657,
      "Ġloin": 4658,
      "ĠDemande": 4659,
      "amin": 4660,
      "ĠNi": 4661,
      "FranÃ§ois": 4662,
      "ona": 4663,
      "Ġlocale": 4664,
      "astique": 4665,
      "wood": 4666,
      "ĠDire": 4667,
      "bor": 4668,
      "ension": 4669,
      "Ġgros": 4670,
      "ĠGroupe": 4671,
      "Ġble": 4672,
      "VD": 4673,
      "ĠVill": 4674,
      "ĠindÃ©pend": 4675,
      "Ġoccident": 4676,
      "ĠmoitiÃ©": 4677,
      "Es": 4678,
      "ĠmaÃ®tre": 4679,
      "Ġvice": 4680,
      "Ġsociale": 4681,
      "ĠutilisÃ©e": 4682,
      "Ġconditions": 4683,
      "ĠRod": 4684,
      "ailleurs": 4685,
      "ĠJules": 4686,
      "tig": 4687,
      "ĠSÃ©n": 4688,
      "Mon": 4689,
      "ĠvallÃ©e": 4690,
      "ĠMoyen": 4691,
      "ĠMiss": 4692,
      "ĠNav": 4693,
      "ĠGÃ©n": 4694,
      "Ġconstit": 4695,
      "Â»": 4696,
      "İle": 4697,
      "ĠMuse": 4698,
      "riques": 4699,
      "iger": 4700,
      "chant": 4701,
      "Ġlatin": 4702,
      "tilis": 4703,
      "ĠMonde": 4704,
      "enseignement": 4705,
      "ĠcomposÃ©e": 4706,
      "gÃ©rie": 4707,
      "jectif": 4708,
      "Ġsecteur": 4709,
      "acÃ©e": 4710,
      "ĠIV": 4711,
      "acteur": 4712,
      "Ġlettres": 4713,
      "ĠSous": 4714,
      "ĠRed": 4715,
      "sier": 4716,
      "Ġderniers": 4717,
      "Ġrevue": 4718,
      "Ġrisque": 4719,
      "Ġrefus": 4720,
      "oo": 4721,
      "Ġstatut": 4722,
      "ĠinfÃ©r": 4723,
      "Ġlocal": 4724,
      "ĠGui": 4725,
      "outer": 4726,
      "Ġquelque": 4727,
      "ĠreÃ§u": 4728,
      "ĠPlusieurs": 4729,
      "Ġauteur": 4730,
      "Ġcertain": 4731,
      "ĠremplacÃ©": 4732,
      "gue": 4733,
      "ĠCop": 4734,
      "Ġ01": 4735,
      "Ã©tab": 4736,
      "prit": 4737,
      "Ġcode": 4738,
      "ĠApp": 4739,
      "Ġ38": 4740,
      "Ġsoutien": 4741,
      "Ġtechniques": 4742,
      "ĠfranÃ§aises": 4743,
      "eld": 4744,
      "ĠRadi": 4745,
      "1999": 4746,
      "lem": 4747,
      "utenant": 4748,
      "ĠBarb": 4749,
      "Ġ1958": 4750,
      "Ġglob": 4751,
      "lÃ¨mes": 4752,
      "ĠamÃ©li": 4753,
      "Ġmontagne": 4754,
      "ĠrÃ©alisateur": 4755,
      "Ġmoteur": 4756,
      "Ġpersonnages": 4757,
      "crip": 4758,
      "ĠLac": 4759,
      "sements": 4760,
      "Ġjuge": 4761,
      "Ġglace": 4762,
      "ĠcÃ©rÃ©": 4763,
      "Ġmonument": 4764,
      "CF": 4765,
      "Ġpsych": 4766,
      "ĠÃ©tat": 4767,
      "moins": 4768,
      "Ġappart": 4769,
      "2005": 4770,
      "Ġcond": 4771,
      "ĠconsultÃ©": 4772,
      "Ġ44": 4773,
      "ĠÃīquipe": 4774,
      "ĠLoire": 4775,
      "cer": 4776,
      "Ġparce": 4777,
      "rivÃ©e": 4778,
      "Ã©tro": 4779,
      "oids": 4780,
      "Ġjournaliste": 4781,
      "Ġpetits": 4782,
      "ĠParlement": 4783,
      "administration": 4784,
      "opsis": 4785,
      "ĠPlan": 4786,
      "Ġdyn": 4787,
      "ĠvÃ©hic": 4788,
      "ĠCela": 4789,
      "Ġmondial": 4790,
      "ouveau": 4791,
      "quoi": 4792,
      "Ġenregist": 4793,
      "Ġchoix": 4794,
      "ĠAwards": 4795,
      "cha": 4796,
      "Ġvert": 4797,
      "Ġchasse": 4798,
      "Ġfonctions": 4799,
      "asc": 4800,
      "wiki": 4801,
      "Ġanciens": 4802,
      "Ġinsp": 4803,
      "ĠWP": 4804,
      "Ġtest": 4805,
      "ĠReg": 4806,
      "Ġloge": 4807,
      "als": 4808,
      "ajor": 4809,
      "ĠMusique": 4810,
      "ĠfÃ©minin": 4811,
      "seille": 4812,
      "anche": 4813,
      "ĠSaison": 4814,
      "abeth": 4815,
      "dialement": 4816,
      "enses": 4817,
      "Ġposi": 4818,
      "Ġinstru": 4819,
      "Ġax": 4820,
      "Ġrang": 4821,
      "utilisation": 4822,
      "ĠTex": 4823,
      "ĠSimon": 4824,
      "rest": 4825,
      "ĠeuropÃ©en": 4826,
      "dd": 4827,
      "uant": 4828,
      "Ġmilitaires": 4829,
      "Ġmode": 4830,
      "ĠFlor": 4831,
      "Ġmunicipal": 4832,
      "ĠColomb": 4833,
      "Ġress": 4834,
      "Ġeaux": 4835,
      "Ġpierre": 4836,
      "ĠrÃ©serv": 4837,
      "pedia": 4838,
      "Ġlie": 4839,
      "eter": 4840,
      "Ġ1939": 4841,
      "ibles": 4842,
      "Ĥge": 4843,
      "Ġdirectement": 4844,
      "Ġvia": 4845,
      "Ġrecensement": 4846,
      "ĠUniversity": 4847,
      "ĠÃ©vÃ©": 4848,
      "ancer": 4849,
      "ĠDÃ©mographie": 4850,
      "Ġ(Â°": 4851,
      "Ġ1920": 4852,
      "rÃ©dÃ©ric": 4853,
      "tant": 4854,
      "Ġpartis": 4855,
      "ãģ": 4856,
      "Ġmultip": 4857,
      "ool": 4858,
      "fred": 4859,
      "ĠIr": 4860,
      "udiant": 4861,
      "Ġdiffic": 4862,
      "Ġemb": 4863,
      "ament": 4864,
      "Ġ37": 4865,
      "cy": 4866,
      "ĠCaliforn": 4867,
      "vignette": 4868,
      "ĠsecrÃ©taire": 4869,
      "ousse": 4870,
      "exist": 4871,
      "yo": 4872,
      "oral": 4873,
      "Ġfigure": 4874,
      "Ġattribu": 4875,
      "inte": 4876,
      "Ġnaturelle": 4877,
      "pi": 4878,
      "ĠapparaÃ®t": 4879,
      "nie": 4880,
      "rien": 4881,
      "rey": 4882,
      "Ġnos": 4883,
      "rance": 4884,
      "Ġconcl": 4885,
      "oscou": 4886,
      "Ġdisting": 4887,
      "ound": 4888,
      "Ġ1956": 4889,
      "ruit": 4890,
      "Ġpresque": 4891,
      "vid": 4892,
      "ĠLoc": 4893,
      "ima": 4894,
      "ĠPark": 4895,
      "iennes": 4896,
      "Ġmaxim": 4897,
      "Ġaugment": 4898,
      "Ġprovo": 4899,
      "ĠtraitÃ©": 4900,
      "ĠVen": 4901,
      "ĠÂ»)": 4902,
      "cht": 4903,
      "ĠDurant": 4904,
      "entine": 4905,
      "ĠTourn": 4906,
      "Ġfootballeur": 4907,
      "Ġ1961": 4908,
      "leste": 4909,
      "ĠBob": 4910,
      "hiver": 4911,
      "ĠPS": 4912,
      "Ġrelations": 4913,
      "inet": 4914,
      "Ġamb": 4915,
      "ero": 4916,
      "ĠrÃ©gions": 4917,
      "Pe": 4918,
      "ĠRoger": 4919,
      "Ġcommerce": 4920,
      "ĠcimetiÃ¨re": 4921,
      "ĠInternational": 4922,
      "CA": 4923,
      "ĠÃ®les": 4924,
      "ĠRet": 4925,
      "tiÃ¨me": 4926,
      "isation": 4927,
      "Ġlabel": 4928,
      "ertÃ©": 4929,
      "2004": 4930,
      "airement": 4931,
      "Ġproxim": 4932,
      "viennent": 4933,
      "Ã£o": 4934,
      "-),": 4935,
      "ĠBrÃ©sil": 4936,
      "ES": 4937,
      "ĠdÃ©termin": 4938,
      "rement": 4939,
      "ĠAfrique": 4940,
      "Ġreprises": 4941,
      "Ġsemaine": 4942,
      "Ġcartes": 4943,
      "ĠBerg": 4944,
      "ĠChic": 4945,
      "Ġlic": 4946,
      "Ġperform": 4947,
      "Ġmett": 4948,
      "ĠMarg": 4949,
      "Ġmontre": 4950,
      "Ġdistin": 4951,
      "itÃ©e": 4952,
      "din": 4953,
      "Ġchose": 4954,
      "ĠStar": 4955,
      "Ġ1959": 4956,
      "Album": 4957,
      "Ġdos": 4958,
      "Ġcontinue": 4959,
      "pel": 4960,
      "wn": 4961,
      "ĠmathÃ©m": 4962,
      "ĠchaÃ®ne": 4963,
      "CI": 4964,
      "Ġartistes": 4965,
      "Ã´tel": 4966,
      "Ġprofessionnel": 4967,
      "roite": 4968,
      "trÃªme": 4969,
      "Ġgu": 4970,
      "ses": 4971,
      "''": 4972,
      "ophone": 4973,
      "anes": 4974,
      "ĠkilomÃ¨tres": 4975,
      "ĠlocalitÃ©": 4976,
      "Ġlyc": 4977,
      "ĠbÃ¢timents": 4978,
      "Ġintro": 4979,
      "ĠPatrick": 4980,
      "abs": 4981,
      "ĠÃ©crivain": 4982,
      "issent": 4983,
      "ĠKing": 4984,
      "ĠCommun": 4985,
      "rovi": 4986,
      "RS": 4987,
      "Ġveut": 4988,
      "Commune": 4989,
      "Ġcab": 4990,
      "rastru": 4991,
      "ĠMeilleur": 4992,
      "aritÃ©": 4993,
      "Ã©drale": 4994,
      "Laur": 4995,
      "Ġvote": 4996,
      "ĠBill": 4997,
      "Ġcapitaine": 4998,
      "BC": 4999,
      "Ġ1944": 5000,
      "amÃ¨tre": 5001,
      "ĠrÃ©giment": 5002,
      "ida": 5003,
      "ĠParc": 5004,
      "ĠproximitÃ©": 5005,
      "Ã©bÃ©c": 5006,
      "Ġreb": 5007,
      "Ġtend": 5008,
      "Ġaccompagn": 5009,
      "ĠprÃ©cipitations": 5010,
      "ĠchargÃ©": 5011,
      "ĠconÃ§": 5012,
      "Ġparlement": 5013,
      "Ġtel": 5014,
      "to": 5015,
      "ĠjournÃ©e": 5016,
      "ĠFern": 5017,
      "Ġchante": 5018,
      "ila": 5019,
      "Ġ42": 5020,
      "agnes": 5021,
      "ĠFred": 5022,
      "ĠArg": 5023,
      "naire": 5024,
      "ĠÃ©glise": 5025,
      "Ġalli": 5026,
      "Ġ49": 5027,
      "Ã©rÃ©e": 5028,
      "ĠAutres": 5029,
      "Parti": 5030,
      "Ġphase": 5031,
      "alisÃ©e": 5032,
      "ĠcÃ©leste": 5033,
      "zi": 5034,
      "ĠTemp": 5035,
      "fice": 5036,
      "yme": 5037,
      "ĠproblÃ¨mes": 5038,
      "ĠMoscou": 5039,
      "ĠAngeles": 5040,
      "istan": 5041,
      "entielle": 5042,
      "Char": 5043,
      "Ġcircul": 5044,
      "ĠsupÃ©rieure": 5045,
      "ĠSw": 5046,
      "ĠParmi": 5047,
      "omo": 5048,
      "ĠAntoine": 5049,
      "Ġscience": 5050,
      "ĠcÃ´tÃ©s": 5051,
      "ink": 5052,
      "Ġforte": 5053,
      "lare": 5054,
      "vaux": 5055,
      "ĠEspagne": 5056,
      "aure": 5057,
      "ĠMun": 5058,
      "Ġras": 5059,
      "Ġitalienne": 5060,
      "Ġrelative": 5061,
      "ĠRang": 5062,
      "ĠSeine": 5063,
      "Ġsites": 5064,
      "ĠToulouse": 5065,
      "umul": 5066,
      "ranche": 5067,
      "ilier": 5068,
      "iciel": 5069,
      "bl": 5070,
      "Ġpoly": 5071,
      "ĠMarcel": 5072,
      "Ġsh": 5073,
      "Ġpeuple": 5074,
      "Ġtours": 5075,
      "ĠMÃ©daille": 5076,
      "atherine": 5077,
      "ml": 5078,
      "Ġrendre": 5079,
      "Ġfestival": 5080,
      "Ġtraduction": 5081,
      "ashington": 5082,
      "Ġwik": 5083,
      "tÃ©e": 5084,
      "ĠÃ©vo": 5085,
      "Ġcentral": 5086,
      "Ġhaute": 5087,
      "Ġmur": 5088,
      "ĠcÃ©lÃ¨bre": 5089,
      "gen": 5090,
      "ĠdÃ©cid": 5091,
      "ĠImp": 5092,
      "Ġpied": 5093,
      "Ġsitue": 5094,
      "ĠPortug": 5095,
      "ĠÃ©limin": 5096,
      "enait": 5097,
      "Ġprojets": 5098,
      "oitation": 5099,
      "Ġvend": 5100,
      "autes": 5101,
      "erse": 5102,
      "Mont": 5103,
      "missibilitÃ©": 5104,
      "ĠChamp": 5105,
      "ĠliÃ©es": 5106,
      "ius": 5107,
      "inv": 5108,
      "Ġsuit": 5109,
      "andes": 5110,
      "owiat": 5111,
      "uation": 5112,
      "ĠcÅĵur": 5113,
      "OS": 5114,
      "Ã©roport": 5115,
      "ĠDivision": 5116,
      "Ġ41": 5117,
      "association": 5118,
      "Ġphysique": 5119,
      "ĠDiscussion": 5120,
      "alli": 5121,
      "ĠRel": 5122,
      "ĠElles": 5123,
      "raÃ®neur": 5124,
      "ĠdÃ©pend": 5125,
      "ward": 5126,
      "ĠRes": 5127,
      "Ġsen": 5128,
      "ader": 5129,
      "ĠRÃ©volution": 5130,
      "ĠCarol": 5131,
      "ĠsÃ©n": 5132,
      "ited": 5133,
      "ĠAlexandre": 5134,
      "rass": 5135,
      "Ġ1914": 5136,
      "anmoins": 5137,
      "Ġtransform": 5138,
      "Åĵurs": 5139,
      "Ġroyale": 5140,
      "Ġmorts": 5141,
      "opÃ©ration": 5142,
      "Groupe": 5143,
      "ĠHall": 5144,
      "riel": 5145,
      "ĠprÃ©par": 5146,
      "ĠHel": 5147,
      "atifs": 5148,
      "osition": 5149,
      "Ġcivile": 5150,
      "Jac": 5151,
      "ĠRap": 5152,
      "tification": 5153,
      "MP": 5154,
      "Ġait": 5155,
      "phe": 5156,
      "Ġ1957": 5157,
      "observ": 5158,
      "tiers": 5159,
      "ĠLÃ©": 5160,
      "Ġcanadien": 5161,
      "ĠQuel": 5162,
      "Ġpiano": 5163,
      "Ġsuperficie": 5164,
      "Ġencyclop": 5165,
      "ĠVienne": 5166,
      "Ã©crit": 5167,
      "times": 5168,
      "uff": 5169,
      "uelles": 5170,
      "oe": 5171,
      "ĠLem": 5172,
      "ĠendÃ©mique": 5173,
      "sen": 5174,
      "ĠCa": 5175,
      "ĠSand": 5176,
      "Ġquoi": 5177,
      "ĠMarseille": 5178,
      "zy": 5179,
      "Ġ39": 5180,
      "iction": 5181,
      "Ġpor": 5182,
      "ĠAlors": 5183,
      "Objet": 5184,
      "gyp": 5185,
      "ĠcritÃ¨res": 5186,
      "ĠmÃ©moire": 5187,
      "Ġfinal": 5188,
      "Ġant": 5189,
      "Ġdiverses": 5190,
      "illages": 5191,
      "ĠGau": 5192,
      "Ġ1948": 5193,
      "ĠMath": 5194,
      "Ã¼r": 5195,
      "thur": 5196,
      "ĠfrÃ©qu": 5197,
      "ropol": 5198,
      "Ã©ros": 5199,
      "ĠLÃ©on": 5200,
      "ella": 5201,
      "Ġsemaines": 5202,
      "Ãītudiant": 5203,
      "ĠMoh": 5204,
      "ridge": 5205,
      "Ġhom": 5206,
      "ĠmÃ©thode": 5207,
      "Ġdramatique": 5208,
      "ĠMass": 5209,
      "agu": 5210,
      "ĠdÃ©cÃ¨s": 5211,
      "ĠTit": 5212,
      "Ġfant": 5213,
      "struction": 5214,
      "Ġnaturel": 5215,
      "ĠFont": 5216,
      "ush": 5217,
      "osh": 5218,
      "ovie": 5219,
      "ĠdÃ©cor": 5220,
      "ĠNon": 5221,
      "Ġappro": 5222,
      "Ðº": 5223,
      "ĠrÃ©ponse": 5224,
      "Ġconflit": 5225,
      "ĠÃ©tude": 5226,
      "Ġbomb": 5227,
      "ĠUr": 5228,
      "ĠderriÃ¨re": 5229,
      "aptiste": 5230,
      "Can": 5231,
      "Ġ46": 5232,
      "atoires": 5233,
      "ival": 5234,
      "Ġcycliste": 5235,
      "ĠDomin": 5236,
      "uck": 5237,
      "quÃ©s": 5238,
      "ller": 5239,
      "amÃ©ric": 5240,
      "Ġ().": 5241,
      "Ġchinois": 5242,
      "ĠTch": 5243,
      "Ġimpos": 5244,
      "Ġdomin": 5245,
      "Ġ47": 5246,
      "ols": 5247,
      "Ġbasse": 5248,
      "cuit": 5249,
      "Ã©rant": 5250,
      "ĠSmith": 5251,
      "Ġgraph": 5252,
      "ĠDub": 5253,
      "ordeaux": 5254,
      "Ġinformations": 5255,
      "Ġ1955": 5256,
      "lir": 5257,
      "Ã©rard": 5258,
      "Ġcontraire": 5259,
      "ĠquÃ©bÃ©c": 5260,
      "Ġchansons": 5261,
      "intÃ©rÃªt": 5262,
      "ĠNat": 5263,
      "quiÃ¨me": 5264,
      "Ġproven": 5265,
      "ĠarchÃ©": 5266,
      "ĠGalerie": 5267,
      "ship": 5268,
      "ĠProduction": 5269,
      "ĠfaÃ§": 5270,
      "AssemblÃ©e": 5271,
      "ĠrÃ©gime": 5272,
      "à¸": 5273,
      "Äģ": 5274,
      "Ġbal": 5275,
      "aya": 5276,
      "lymp": 5277,
      "ĠCra": 5278,
      "issant": 5279,
      "nent": 5280,
      "Ġparle": 5281,
      "vice": 5282,
      "Ġ1954": 5283,
      "oses": 5284,
      "ctur": 5285,
      "Ã©volution": 5286,
      "Ã©rale": 5287,
      "get": 5288,
      "ĠBretagne": 5289,
      "ĠMary": 5290,
      "Ġcontra": 5291,
      "Ġ1952": 5292,
      "ĠJon": 5293,
      "Ã©mission": 5294,
      "Ġcontenu": 5295,
      "Ġreprend": 5296,
      "ĠSynopsis": 5297,
      "aign": 5298,
      "ĠLar": 5299,
      "yrÃ©": 5300,
      "Ġnavire": 5301,
      "Ġ1936": 5302,
      "ĠRacing": 5303,
      "ĠrÃ©gional": 5304,
      "arrondissement": 5305,
      "ĠCer": 5306,
      "euve": 5307,
      "AF": 5308,
      "nov": 5309,
      "Ġred": 5310,
      "ĠSources": 5311,
      "Ġexpos": 5312,
      "istant": 5313,
      "Ġpermettre": 5314,
      "ĠAv": 5315,
      "iÃ©s": 5316,
      "Ġtypes": 5317,
      "anson": 5318,
      "ild": 5319,
      "Ġdistance": 5320,
      "ĠTou": 5321,
      "Ġcompositeur": 5322,
      "abbaye": 5323,
      "Ġfou": 5324,
      "ĠColle": 5325,
      "Ġjeunesse": 5326,
      "ĠOff": 5327,
      "EN": 5328,
      "ocÃ¨se": 5329,
      "Ã¢t": 5330,
      "ĠXIXe": 5331,
      "ĠCre": 5332,
      "ãĥ": 5333,
      "Ã©pendant": 5334,
      "idÃ©e": 5335,
      "infanterie": 5336,
      "ĠÅĴuv": 5337,
      "Ã©tude": 5338,
      "Ġspectac": 5339,
      "Ġaccep": 5340,
      "Ġgrav": 5341,
      "Ġpoursui": 5342,
      "ĠWashington": 5343,
      "Ġcritiques": 5344,
      "ĠType": 5345,
      "ĠprocÃ©d": 5346,
      "ĠdÃ©di": 5347,
      "crits": 5348,
      "Ġdistribution": 5349,
      "Ġactuelle": 5350,
      "entiellement": 5351,
      "Alex": 5352,
      "ĠTout": 5353,
      "Ġinst": 5354,
      "ĠMusic": 5355,
      "Ġrecord": 5356,
      "Ġcell": 5357,
      "Ġentreprises": 5358,
      "ĠAlain": 5359,
      "ĠPublic": 5360,
      "Ġmassi": 5361,
      "bres": 5362,
      "Ġdiss": 5363,
      "Ġ[[": 5364,
      "ĠTok": 5365,
      "adie": 5366,
      "jan": 5367,
      "ĠMuseum": 5368,
      "Ġbour": 5369,
      "ĠnommÃ©e": 5370,
      "AM": 5371,
      "rons": 5372,
      "Ġinconn": 5373,
      "ĠDr": 5374,
      "Ġstr": 5375,
      "Ġ%)": 5376,
      "Ġmix": 5377,
      "heure": 5378,
      "ĠMatch": 5379,
      "ĠAcc": 5380,
      "Ġfront": 5381,
      "ics": 5382,
      "ĠrÃ©alise": 5383,
      "ĠChicago": 5384,
      "Ġsaisons": 5385,
      "ranger": 5386,
      "appel": 5387,
      "Ġarts": 5388,
      "ducteur": 5389,
      "back": 5390,
      "osa": 5391,
      ".|": 5392,
      "Ġlettre": 5393,
      "ĠSk": 5394,
      "Ġpost": 5395,
      "AmÃ©rique": 5396,
      "ety": 5397,
      "Ġmanifest": 5398,
      "Ġenfin": 5399,
      "bas": 5400,
      "Ġrecherches": 5401,
      "ĠprÃ©sentant": 5402,
      "uclÃ©": 5403,
      "Ġhauteur": 5404,
      "ĠKn": 5405,
      "ĠRock": 5406,
      "Ġext": 5407,
      "aissent": 5408,
      "BA": 5409,
      "2003": 5410,
      "alie": 5411,
      "Ġrepro": 5412,
      "ĠdÃ©buts": 5413,
      "importance": 5414,
      "ĠGer": 5415,
      "Ġmob": 5416,
      "Ġspati": 5417,
      "anni": 5418,
      "ĠGh": 5419,
      "round": 5420,
      "Ġoblig": 5421,
      "OR": 5422,
      "Ġavi": 5423,
      "Ġbasket": 5424,
      "view": 5425,
      "ĠjouÃ©": 5426,
      "Ġ1946": 5427,
      "ĠNorth": 5428,
      "ĠFrÃ©dÃ©ric": 5429,
      "Ġratt": 5430,
      "Ġarrive": 5431,
      "aka": 5432,
      "Ġreligieux": 5433,
      "Ġ08": 5434,
      "http": 5435,
      "ĠJÃ©r": 5436,
      "rime": 5437,
      "ĠGro": 5438,
      "ĠtournÃ©e": 5439,
      "ĠGren": 5440,
      "ĠBir": 5441,
      "attraction": 5442,
      "ĠDÃ©f": 5443,
      "ĠCamb": 5444,
      "quie": 5445,
      "tÃ©roÃ¯des": 5446,
      "Ġ500": 5447,
      "Ġconcours": 5448,
      "ilan": 5449,
      "uth": 5450,
      "Ġjouer": 5451,
      "Ġferrovi": 5452,
      "Ġutilise": 5453,
      "Ġpalais": 5454,
      "Ġenvironnement": 5455,
      "ĠDun": 5456,
      "ĠArn": 5457,
      "Ġsert": 5458,
      "ttes": 5459,
      "ĠMah": 5460,
      "Ġpersonnel": 5461,
      "Ġ1953": 5462,
      "hÃ´ne": 5463,
      "Ã©lect": 5464,
      "ba": 5465,
      "Ġ{{": 5466,
      "avis": 5467,
      "Michel": 5468,
      "Ġhui": 5469,
      "ĠCordialement": 5470,
      "yg": 5471,
      "verse": 5472,
      "Ġtrain": 5473,
      "lite": 5474,
      "uri": 5475,
      "','": 5476,
      "raient": 5477,
      "ĠÃĤge": 5478,
      "Ġconsult": 5479,
      "tÃ©rieure": 5480,
      "activitÃ©": 5481,
      "ĠPubli": 5482,
      "adel": 5483,
      "Ġalg": 5484,
      "Ġsimil": 5485,
      "ĠcrÃ©e": 5486,
      "CL": 5487,
      "ĠJim": 5488,
      "lam": 5489,
      "hn": 5490,
      "SÃ©rie": 5491,
      "Ġcaus": 5492,
      ".),": 5493,
      "Ġ1947": 5494,
      "ĠmodÃ¨les": 5495,
      "Ġconstruite": 5496,
      "Ġmandat": 5497,
      "Ġmanque": 5498,
      "Ġconstitution": 5499,
      "Ġobtenu": 5500,
      "Ġdispose": 5501,
      "ĠStat": 5502,
      "ayer": 5503,
      "ĠunitÃ©": 5504,
      "Ġformes": 5505,
      "Ġjuridi": 5506,
      "ardo": 5507,
      "Ġhon": 5508,
      "ĠdÃ©bat": 5509,
      "Ġagricoles": 5510,
      "Ġmagn": 5511,
      "landaise": 5512,
      "RÃ©s": 5513,
      "Hen": 5514,
      "ĠappelÃ©e": 5515,
      "ĠPap": 5516,
      "Ã©z": 5517,
      "Ġattein": 5518,
      "Ġinspi": 5519,
      "Ġexcl": 5520,
      "inaire": 5521,
      "TA": 5522,
      "ĠmÃ©tro": 5523,
      "ĠÃ©criv": 5524,
      "Ġquoti": 5525,
      "eri": 5526,
      "Ġcollaboration": 5527,
      "tain": 5528,
      "ĠInf": 5529,
      "ery": 5530,
      "rome": 5531,
      "Ġstade": 5532,
      "Ġuniquement": 5533,
      "utre": 5534,
      "Ġtoutefois": 5535,
      "ĠrÃ©public": 5536,
      "Ġdeme": 5537,
      "Ã©rÃ©s": 5538,
      "uro": 5539,
      "Ġchampionnats": 5540,
      "ĠforÃªt": 5541,
      "wan": 5542,
      "Ġfit": 5543,
      "ĠAngleterre": 5544,
      "2001": 5545,
      "vence": 5546,
      "semble": 5547,
      "ĠLis": 5548,
      "1990": 5549,
      "aki": 5550,
      "Ġprison": 5551,
      "ĠrÃ©publique": 5552,
      "obles": 5553,
      "Ġstudio": 5554,
      "ĠLee": 5555,
      "riculture": 5556,
      "Å«": 5557,
      "Ġsoldats": 5558,
      "asi": 5559,
      "arrivÃ©e": 5560,
      "ĠDÃ¨s": 5561,
      "Ġsang": 5562,
      "Ġlois": 5563,
      "avier": 5564,
      "Ġpublication": 5565,
      "Ġsauv": 5566,
      "Ġwidth": 5567,
      "Ġlimite": 5568,
      "assade": 5569,
      "Ġgarde": 5570,
      "irs": 5571,
      "Jacques": 5572,
      "ĠStre": 5573,
      "Ġsimplement": 5574,
      "Ġ1949": 5575,
      "2002": 5576,
      "Ġtextes": 5577,
      "Ġcourant": 5578,
      "ĠdurÃ©e": 5579,
      "Ġ52": 5580,
      "Ġriv": 5581,
      "istro": 5582,
      "Ġvir": 5583,
      "ocat": 5584,
      "eries": 5585,
      "ĠmÃ©trage": 5586,
      "ĠmatiÃ¨re": 5587,
      "Ġtelles": 5588,
      "oriz": 5589,
      "ĠthÃ©orie": 5590,
      "Ġcoupe": 5591,
      "ĠÃ©vÃªque": 5592,
      "ĠDo": 5593,
      "ĠdÃ©clare": 5594,
      "Ġsembl": 5595,
      "Ville": 5596,
      "osph": 5597,
      "Ġparents": 5598,
      "600": 5599,
      "ĠLaurent": 5600,
      "ston": 5601,
      "ĠDar": 5602,
      "ĠdÃ©lÃ©g": 5603,
      "Ġprincipales": 5604,
      "arer": 5605,
      "Ġ1942": 5606,
      "ĠDoc": 5607,
      "ĠSab": 5608,
      "ĠPic": 5609,
      "Ġauteurs": 5610,
      "tiqu": 5611,
      "ĠBordeaux": 5612,
      "cupe": 5613,
      "ĠSitu": 5614,
      "umÃ©": 5615,
      "Ġannuel": 5616,
      "lÃ©e": 5617,
      "ĠTw": 5618,
      "Ġcenter": 5619,
      "Ġfus": 5620,
      "Ġcomporte": 5621,
      "Ġmessage": 5622,
      "ms": 5623,
      "ĠSource": 5624,
      "industrie": 5625,
      "Ġdoll": 5626,
      "ĠderniÃ¨res": 5627,
      "Ġmic": 5628,
      "manie": 5629,
      "rans": 5630,
      "Ġmagazine": 5631,
      "ula": 5632,
      "Ġcroiss": 5633,
      "ĠlÃ©gislatives": 5634,
      "ĠHans": 5635,
      "ĠcaractÃ©ristiques": 5636,
      "ĠSou": 5637,
      "oleil": 5638,
      "vous": 5639,
      "Ġwith": 5640,
      "ĠChambre": 5641,
      "Cal": 5642,
      "Ġ1951": 5643,
      "ĠforÃªts": 5644,
      "Loire": 5645,
      "cessus": 5646,
      "Ġbout": 5647,
      "ows": 5648,
      "page": 5649,
      "ĠBor": 5650,
      "criptions": 5651,
      "Ġnavires": 5652,
      "ĠfrontiÃ¨re": 5653,
      "ello": 5654,
      "ĠprivÃ©e": 5655,
      "ĠRol": 5656,
      "ĠAh": 5657,
      "ij": 5658,
      "ĠAp": 5659,
      "unitÃ©": 5660,
      "install": 5661,
      "ĠSpe": 5662,
      "Arch": 5663,
      "ĠformÃ©": 5664,
      "uin": 5665,
      "Ġrevient": 5666,
      "icien": 5667,
      "Ġlutte": 5668,
      "Ġmorte": 5669,
      "Ġmauv": 5670,
      "ĠSuÃ¨de": 5671,
      "aga": 5672,
      "side": 5673,
      "Ġ1938": 5674,
      "Ġprincipe": 5675,
      "ĠTV": 5676,
      "Ġscol": 5677,
      "aliser": 5678,
      "Ġmaintenant": 5679,
      "Liste": 5680,
      "stron": 5681,
      "cteurs": 5682,
      "usement": 5683,
      "ĠCalifornie": 5684,
      "Ġorth": 5685,
      "ĠGas": 5686,
      "ĠSing": 5687,
      "ĠrÃ¨gles": 5688,
      "opÃ©ra": 5689,
      "ÃŃn": 5690,
      "ĠHan": 5691,
      "ĠrÃ©t": 5692,
      "Ġgard": 5693,
      "Ġesti": 5694,
      "fications": 5695,
      "ĠOrig": 5696,
      "Ã¸": 5697,
      "admissibilitÃ©": 5698,
      "rastructures": 5699,
      "Ġactuellement": 5700,
      "Ã©pisode": 5701,
      "Ġlargement": 5702,
      "Ġquant": 5703,
      "ĠremportÃ©": 5704,
      "ĠsupplÃ©ment": 5705,
      "Ġnotion": 5706,
      "Ġexpli": 5707,
      "Ġfamilles": 5708,
      "Ġconsomm": 5709,
      "ĠMilan": 5710,
      "uxemb": 5711,
      "miques": 5712,
      "Ġbesoin": 5713,
      "Ġ1943": 5714,
      "ull": 5715,
      "umiÃ¨re": 5716,
      "ĠMadrid": 5717,
      "empereur": 5718,
      "ĠXXIe": 5719,
      "Ġseront": 5720,
      "Ġsuivantes": 5721,
      "Ġorb": 5722,
      "ulÃ©e": 5723,
      "uent": 5724,
      "ĠCir": 5725,
      "\":": 5726,
      "Ġregroupe": 5727,
      "ĠPortugal": 5728,
      "mile": 5729,
      "ilipp": 5730,
      "row": 5731,
      "ĠfrÃ¨res": 5732,
      "Ġcommandant": 5733,
      "VF": 5734,
      "ĠTotal": 5735,
      "unal": 5736,
      "Ġ55": 5737,
      "ĠRadio": 5738,
      "ĠGall": 5739,
      "ĠnÃ©cessaire": 5740,
      "ĠimpÃ©ri": 5741,
      "ĠPhot": 5742,
      "Ġpron": 5743,
      "ĠsÅĵur": 5744,
      "ife": 5745,
      "Ġpaix": 5746,
      "Ġcommunication": 5747,
      "ĠcommencÃ©": 5748,
      "ology": 5749,
      "ĠdÃ©ten": 5750,
      "anda": 5751,
      "Ã©tend": 5752,
      "Ġ2026": 5753,
      "Ġ1937": 5754,
      "rasbourg": 5755,
      "Ġexterne": 5756,
      "auts": 5757,
      "Ġ51": 5758,
      "AP": 5759,
      "Ġfaci": 5760,
      "Ġ75": 5761,
      "Ġcalcul": 5762,
      "Ġcontient": 5763,
      "olis": 5764,
      "ĠMic": 5765,
      "ĠvÃ©ri": 5766,
      "Ġnote": 5767,
      "ĠLim": 5768,
      "tiens": 5769,
      "ĠZe": 5770,
      "ng": 5771,
      "Ġdiffusion": 5772,
      "tissement": 5773,
      "Ġpermis": 5774,
      "Ġconstitue": 5775,
      "Ġ1941": 5776,
      "Ġsignifie": 5777,
      "sivement": 5778,
      "DF": 5779,
      "Ġajout": 5780,
      "html": 5781,
      "Ġcandidat": 5782,
      "ize": 5783,
      "Ġchacun": 5784,
      "ĠToute": 5785,
      "ensitÃ©": 5786,
      "ĠstratÃ©g": 5787,
      "Ġ54": 5788,
      "RC": 5789,
      "ĠAz": 5790,
      "ĠdÃ©putÃ©s": 5791,
      "aisons": 5792,
      "Ġcouv": 5793,
      "yrÃ©nÃ©es": 5794,
      "Ġbot": 5795,
      "Ġprotest": 5796,
      "Ġtient": 5797,
      "late": 5798,
      "ĠimmÃ©di": 5799,
      "quin": 5800,
      "rograph": 5801,
      "sif": 5802,
      "field": 5803,
      "Ã©th": 5804,
      "Ġparoisse": 5805,
      "Ġchambre": 5806,
      "Ġrelation": 5807,
      "Orient": 5808,
      "dian": 5809,
      "ple": 5810,
      "Ġarrondissement": 5811,
      "ĠsiÃ¨ges": 5812,
      "Ġtre": 5813,
      "ĠlittÃ©raire": 5814,
      "Ġpape": 5815,
      "arre": 5816,
      "El": 5817,
      "Ġcouple": 5818,
      "Ġchiff": 5819,
      "Ġaccus": 5820,
      "Ġques": 5821,
      "ĠWall": 5822,
      "imm": 5823,
      "Ġimpli": 5824,
      ";\"": 5825,
      "Ġdiv": 5826,
      "Ġgouverneur": 5827,
      "ĠCommission": 5828,
      "ĠMaroc": 5829,
      "Ġjustice": 5830,
      "ĠarrÃªtÃ©": 5831,
      "illers": 5832,
      "Ġcroix": 5833,
      "Ã¨che": 5834,
      "ĠrÃ©serve": 5835,
      "ĠLove": 5836,
      "[\"": 5837,
      "Col": 5838,
      "ĠPopul": 5839,
      "Ġtoile": 5840,
      "aques": 5841,
      "Ã©nergie": 5842,
      "Premi": 5843,
      "Ġtherm": 5844,
      "ĠChris": 5845,
      "ief": 5846,
      "dir": 5847,
      "ails": 5848,
      "Ġneuf": 5849,
      "Ġlour": 5850,
      "Dis": 5851,
      "non": 5852,
      "Ġpuissance": 5853,
      "ĠAtt": 5854,
      "Ġmi": 5855,
      "Ġafric": 5856,
      "ĠpubliÃ©e": 5857,
      "ĠdÃ©veloppÃ©": 5858,
      "Ġdocumentaire": 5859,
      "ĠvÃ©rit": 5860,
      "Ð»": 5861,
      "Ġnotre": 5862,
      "Art": 5863,
      "ĠNations": 5864,
      "Mus": 5865,
      "Ġsingle": 5866,
      "Ġprocessus": 5867,
      "Ġlongtemps": 5868,
      "aniste": 5869,
      "Ġsocialiste": 5870,
      "RI": 5871,
      "Ġofficiellement": 5872,
      "ãĤ": 5873,
      "venir": 5874,
      "Ġdanse": 5875,
      "sibles": 5876,
      "ĠGrÃ¨ce": 5877,
      "Ã©tiques": 5878,
      "Ġaustral": 5879,
      "aceae": 5880,
      "ĠDieu": 5881,
      "Ġcomptait": 5882,
      "iant": 5883,
      "Ġterritoires": 5884,
      "Ġvandalisme": 5885,
      "ĠÃ©tape": 5886,
      "Ġpoids": 5887,
      "fecture": 5888,
      "ricitÃ©": 5889,
      "ĠPuis": 5890,
      "Ġtax": 5891,
      "ĠLeague": 5892,
      "ĠNGC": 5893,
      "Ġapparti": 5894,
      "aph": 5895,
      "mina": 5896,
      "Min": 5897,
      "ĠFootball": 5898,
      "Ġmajor": 5899,
      "ĠdessinÃ©e": 5900,
      "Ġphotos": 5901,
      "rimÃ©s": 5902,
      "arque": 5903,
      "Che": 5904,
      "Ġinaug": 5905,
      "ĠÃ©cole": 5906,
      "Ġautomobile": 5907,
      "ĠactivitÃ©": 5908,
      "Association": 5909,
      "vet": 5910,
      "oÃ¹": 5911,
      "dique": 5912,
      "ĠTÃ©lÃ©": 5913,
      "Comp": 5914,
      "ĠsÃ»": 5915,
      "Ġmusicale": 5916,
      "amique": 5917,
      "ĠGil": 5918,
      "Ġmach": 5919,
      "Ġbureau": 5920,
      "Ġretraite": 5921,
      "ĠnuclÃ©": 5922,
      "ĠUnion": 5923,
      "ĠBell": 5924,
      "ĠrÃ©guliÃ¨rement": 5925,
      "ĠcapacitÃ©": 5926,
      "iterran": 5927,
      "oxe": 5928,
      "recens": 5929,
      "ortant": 5930,
      "ĠScÃ©n": 5931,
      "FC": 5932,
      "onnement": 5933,
      "Ġquestions": 5934,
      "ableau": 5935,
      "Ġtombe": 5936,
      "Ġsoient": 5937,
      "kov": 5938,
      "ĠcomitÃ©": 5939,
      "ĠBud": 5940,
      "avait": 5941,
      "amme": 5942,
      "over": 5943,
      "ĠOp": 5944,
      "Ġ1935": 5945,
      "ĠNik": 5946,
      "Ġcontinent": 5947,
      "ĠcaractÃ¨re": 5948,
      "Ġchanteur": 5949,
      "Ġpublics": 5950,
      "quelles": 5951,
      "Ã©rite": 5952,
      "ĠJuan": 5953,
      "Ġsportif": 5954,
      "yb": 5955,
      "orph": 5956,
      "Ġtraitement": 5957,
      "Ġouvrage": 5958,
      "ĠFort": 5959,
      "Ġ@": 5960,
      "ĠBab": 5961,
      "Ġaliment": 5962,
      "Ġrock": 5963,
      "Ġtch": 5964,
      "Ġautoris": 5965,
      "Ġordre": 5966,
      "yer": 5967,
      "color": 5968,
      "ĠTar": 5969,
      "ĠBol": 5970,
      "Ġcontrib": 5971,
      "Ġplantes": 5972,
      "TV": 5973,
      "grand": 5974,
      "dom": 5975,
      "tiÃ¨res": 5976,
      "Ġmaisons": 5977,
      "ĠArm": 5978,
      "Ġidentif": 5979,
      "Ġweb": 5980,
      "ason": 5981,
      "Ġdispos": 5982,
      "Ġ1933": 5983,
      "Arg": 5984,
      "ĠPos": 5985,
      "ĠAdam": 5986,
      "150": 5987,
      "ĠDictionnaire": 5988,
      "ower": 5989,
      "Ġvoies": 5990,
      "ĠGenÃ¨ve": 5991,
      "ĠHo": 5992,
      "urant": 5993,
      "hom": 5994,
      "Ġrenfor": 5995,
      "Ġeffec": 5996,
      "Ġparall": 5997,
      "ylv": 5998,
      "ĠlycÃ©e": 5999,
      "Ġton": 6000,
      "Ġconcert": 6001,
      "omÃ©t": 6002,
      "ria": 6003,
      "Ġpolonais": 6004,
      "Ġpuisque": 6005,
      "ĠcÃ´te": 6006,
      "adap": 6007,
      "glom": 6008,
      "upp": 6009,
      "entitÃ©": 6010,
      "Ġparten": 6011,
      "Ġcombin": 6012,
      "500": 6013,
      "mil": 6014,
      "Martin": 6015,
      "Ġculturel": 6016,
      "Ġguer": 6017,
      "uÃ©e": 6018,
      "Ġpeint": 6019,
      "Ġsch": 6020,
      "Ġactuel": 6021,
      "ĠEug": 6022,
      "lÃł": 6023,
      "ustin": 6024,
      "ignon": 6025,
      "oria": 6026,
      "ĠSurvey": 6027,
      "ĠStrasbourg": 6028,
      "Ġchim": 6029,
      "ĠEng": 6030,
      "Ãªtres": 6031,
      "ĠmatÃ©rie": 6032,
      "ragon": 6033,
      "onge": 6034,
      "reuves": 6035,
      "ĠdÃ©taill": 6036,
      "ĠpoÃ¨te": 6037,
      "letin": 6038,
      "Ġlocaux": 6039,
      "Ġdollars": 6040,
      "gypte": 6041,
      "ĠrÃ¨gne": 6042,
      "ĠrÃ©sultat": 6043,
      "ĠphÃ©n": 6044,
      "Ġparf": 6045,
      "ĠBoy": 6046,
      "diens": 6047,
      "Ġperdu": 6048,
      "Ġrece": 6049,
      "dier": 6050,
      "__": 6051,
      "ĠNag": 6052,
      "Ġconnaissance": 6053,
      "Ġimages": 6054,
      "manuel": 6055,
      "oug": 6056,
      "Ġfaveur": 6057,
      "Ġfun": 6058,
      "AD": 6059,
      "Ġnouvel": 6060,
      "EC": 6061,
      "ĠAvant": 6062,
      "artiste": 6063,
      "Ġjuni": 6064,
      "Ġdifficile": 6065,
      "ĠUtilis": 6066,
      "Ġcrise": 6067,
      "ĠFÃ©dÃ©ration": 6068,
      "ouch": 6069,
      "Ġsport": 6070,
      "ĠSouth": 6071,
      "Membre": 6072,
      "Ġdevait": 6073,
      "Ġvillages": 6074,
      "Ã©pendance": 6075,
      "Ġouest": 6076,
      "lieu": 6077,
      "ĠKir": 6078,
      "andie": 6079,
      "cles": 6080,
      "itime": 6081,
      "ĠlancÃ©": 6082,
      "Ã©val": 6083,
      "ela": 6084,
      "Ġ400": 6085,
      "ĠutilisÃ©s": 6086,
      "ĠEli": 6087,
      "bach": 6088,
      "AL": 6089,
      "enus": 6090,
      "Autriche": 6091,
      "ĠDam": 6092,
      "ĠAux": 6093,
      "Ant": 6094,
      "ĠmÃ©tÃ©": 6095,
      "Ġgens": 6096,
      "hr": 6097,
      "Gar": 6098,
      "ĠAlle": 6099,
      "Ġtrouvent": 6100,
      "ĠVincent": 6101,
      "Ġcertaine": 6102,
      "ĠAnnÃ©e": 6103,
      "Ġcontributeurs": 6104,
      "atie": 6105,
      "intÃ©g": 6106,
      "Ġsenti": 6107,
      "Ġfle": 6108,
      "Ġ1934": 6109,
      "Ġinflu": 6110,
      "Ġretrouv": 6111,
      "Ġaction": 6112,
      "ardinal": 6113,
      "ĠAntonio": 6114,
      "kraine": 6115,
      "vez": 6116,
      "ĠÃ©tablis": 6117,
      "auc": 6118,
      "Ġfi": 6119,
      "ĠutilisÃ©es": 6120,
      "ĠMes": 6121,
      "Ġlaisse": 6122,
      "Ġsyndic": 6123,
      "ĠLien": 6124,
      "Ġmots": 6125,
      "lind": 6126,
      "ĠHill": 6127,
      "uaire": 6128,
      "Ġ1932": 6129,
      "2024": 6130,
      "aves": 6131,
      "orf": 6132,
      "yt": 6133,
      "hou": 6134,
      "long": 6135,
      "Ġbre": 6136,
      "Ġsculp": 6137,
      "Ġoriginaire": 6138,
      "agog": 6139,
      "ronyme": 6140,
      "ĠBig": 6141,
      "olet": 6142,
      "ĠHa": 6143,
      "uisseau": 6144,
      "lÃ¨ves": 6145,
      "eroun": 6146,
      "ĠSanta": 6147,
      "Ġindique": 6148,
      "athan": 6149,
      "ĠInd": 6150,
      "Ġsouff": 6151,
      "MS": 6152,
      "Ġpilote": 6153,
      "fl": 6154,
      "ĠrÃ©comp": 6155,
      "Con": 6156,
      "jon": 6157,
      "ĠGÃ©rard": 6158,
      "ĠdÃ©posÃ©": 6159,
      "ĠEv": 6160,
      "ĠSÃ©": 6161,
      "Ġfamili": 6162,
      "atri": 6163,
      "Ġenseign": 6164,
      "espÃ¨ce": 6165,
      "oiles": 6166,
      "Ġfro": 6167,
      "Ġresponsable": 6168,
      "ĠnÃ©erlandais": 6169,
      "ĠNouveau": 6170,
      "ĠmÃ©decin": 6171,
      "yan": 6172,
      "ĠVand": 6173,
      "Ġ53": 6174,
      "Ġconcerne": 6175,
      "Ġparler": 6176,
      "Ġdisque": 6177,
      "ĠAra": 6178,
      "Ġsubs": 6179,
      "ductions": 6180,
      "Ġlire": 6181,
      "Ġcart": 6182,
      "pole": 6183,
      "ĠMalgrÃ©": 6184,
      "ĠCass": 6185,
      "ĠmÃ©decine": 6186,
      "Ġanglaise": 6187,
      "ĠArts": 6188,
      "Ġfranch": 6189,
      "Ġsommet": 6190,
      "ĠlibertÃ©": 6191,
      "Ġtennis": 6192,
      "Ġfonde": 6193,
      "Ã©gÃ©t": 6194,
      "ĠTal": 6195,
      "amour": 6196,
      "Ġfilles": 6197,
      "ĠâĨĴ": 6198,
      "ĠEnfin": 6199,
      "Ġautant": 6200,
      "ĠastÃ©roÃ¯de": 6201,
      "EL": 6202,
      "ĠsuÃ©d": 6203,
      "sons": 6204,
      "Ġpermettent": 6205,
      "raÃ«l": 6206,
      "Ġtur": 6207,
      "Australie": 6208,
      "Ã©gal": 6209,
      "Ġartiste": 6210,
      "Ġgui": 6211,
      "Ġplein": 6212,
      "UR": 6213,
      "Ġsecondaires": 6214,
      "avance": 6215,
      "Ġobjets": 6216,
      "Insee": 6217,
      "Ġchangement": 6218,
      "Ġnor": 6219,
      "Ġpiste": 6220,
      "onnÃ©es": 6221,
      "ĠCaractÃ©ris": 6222,
      "ĠBois": 6223,
      "Ġvolume": 6224,
      "Ġpseud": 6225,
      "Ġaffaires": 6226,
      "elin": 6227,
      "ĠgÃ©ographique": 6228,
      "ĠDisc": 6229,
      "partement": 6230,
      "ĠDÃ©b": 6231,
      "Ġappare": 6232,
      "Ġextra": 6233,
      "Ġsuffis": 6234,
      "ĠcathÃ©drale": 6235,
      "ĠTeam": 6236,
      "exposition": 6237,
      "ĠSerb": 6238,
      "ĠSun": 6239,
      "ĠsÃ©ries": 6240,
      "Ġstand": 6241,
      "Ġcong": 6242,
      "Ġmarchand": 6243,
      "ĠMexique": 6244,
      "ancy": 6245,
      "ĠMos": 6246,
      "douard": 6247,
      "dal": 6248,
      "Ã©nie": 6249,
      "Ġrecomm": 6250,
      "inger": 6251,
      "ĠCollege": 6252,
      "onner": 6253,
      "Ġsignal": 6254,
      "ĠComitÃ©": 6255,
      "Ġ64": 6256,
      "hol": 6257,
      "Ġfavor": 6258,
      "ĠErn": 6259,
      "ĠarmÃ©es": 6260,
      "rus": 6261,
      "Ġfondateur": 6262,
      "ommÃ©e": 6263,
      "Ġsable": 6264,
      "onnÃ©e": 6265,
      "ĠDurÃ©e": 6266,
      "Ġparticiper": 6267,
      "ĠInde": 6268,
      "ĠTunis": 6269,
      "Ġ56": 6270,
      "rations": 6271,
      "ĠDra": 6272,
      "Ġprogres": 6273,
      "lÃ©ans": 6274,
      "met": 6275,
      "ĠentiÃ¨rement": 6276,
      "ĠfÃ©minine": 6277,
      "iciens": 6278,
      "matique": 6279,
      "Ã¢le": 6280,
      "Ġvoc": 6281,
      "Ġconduit": 6282,
      "Inter": 6283,
      "Nom": 6284,
      "ĠliÃ©e": 6285,
      "iga": 6286,
      "Ġfutur": 6287,
      "Ġmouvements": 6288,
      "Ir": 6289,
      "Ġmarche": 6290,
      "Ġremarqu": 6291,
      "Ġnat": 6292,
      "1982": 6293,
      "Ġpeine": 6294,
      "Ã´les": 6295,
      "ĠMonte": 6296,
      "Ġvainqueur": 6297,
      "ito": 6298,
      "Ġsuivants": 6299,
      "rine": 6300,
      "Ġvar": 6301,
      "ĠCab": 6302,
      "ĠCost": 6303,
      "ĠrÃ©di": 6304,
      "ĠDer": 6305,
      "hÃ´tel": 6306,
      "ĠMen": 6307,
      "Plan": 6308,
      "Ġtotale": 6309,
      "ĠMarine": 6310,
      "Ġ57": 6311,
      "Ġperman": 6312,
      "ror": 6313,
      "ĠRÃ©alisation": 6314,
      "Ġsculpt": 6315,
      "sa": 6316,
      "ĠdÃ©faite": 6317,
      "Ġinfrastructures": 6318,
      "Ġminim": 6319,
      "Ġdivis": 6320,
      "Ġmarine": 6321,
      "ĠparticipÃ©": 6322,
      "Ġferroviaire": 6323,
      "ĠNov": 6324,
      "Ġpou": 6325,
      "Ã§a": 6326,
      "saison": 6327,
      "ĠautoritÃ©s": 6328,
      "ĠintitulÃ©": 6329,
      "Ġtermes": 6330,
      "Ġvoiture": 6331,
      "tements": 6332,
      "Ġanciennes": 6333,
      "ĠPage": 6334,
      "Ġauton": 6335,
      "Ġreine": 6336,
      "ĠJoe": 6337,
      "por": 6338,
      "zan": 6339,
      "exploitation": 6340,
      "audi": 6341,
      "ĠClassi": 6342,
      "ĠUnited": 6343,
      "alys": 6344,
      "Ġel": 6345,
      "acte": 6346,
      "Ġoccasion": 6347,
      "vÃ©": 6348,
      "ĠDisney": 6349,
      "Ġvisite": 6350,
      "Ġtal": 6351,
      "Ġdimin": 6352,
      "veill": 6353,
      "ĠShe": 6354,
      "urÃ©e": 6355,
      "ĠMol": 6356,
      "Baptiste": 6357,
      "Ġfondation": 6358,
      "Ġscientifiques": 6359,
      "ĠrÃ©alitÃ©": 6360,
      "Ġrejoindre": 6361,
      "ĠindÃ©pendant": 6362,
      "ĠbÃ©nÃ©f": 6363,
      "nt": 6364,
      "Ġfabric": 6365,
      "lantique": 6366,
      "Ġ1928": 6367,
      "valier": 6368,
      "anna": 6369,
      "animation": 6370,
      "ĠQui": 6371,
      "ĠFrancisco": 6372,
      "ensis": 6373,
      "Bretagne": 6374,
      "Ġvais": 6375,
      "ĠpropriÃ©taire": 6376,
      "ĠVI": 6377,
      "ĠAmerican": 6378,
      "Phil": 6379,
      "Ġexc": 6380,
      "Ġrestauration": 6381,
      "ogle": 6382,
      "ĠtournÃ©": 6383,
      "Ġpourquoi": 6384,
      "Ġplate": 6385,
      "Ġparam": 6386,
      "Ã©ducation": 6387,
      "ĠSociety": 6388,
      "1998": 6389,
      "ĠrÃ©par": 6390,
      "ĠCaractÃ©ristiques": 6391,
      "Ġfaits": 6392,
      "ĠAlb": 6393,
      "terie": 6394,
      "ĠdÃ©mocratique": 6395,
      "ĠNam": 6396,
      "usses": 6397,
      "ĠconnaÃ®t": 6398,
      "Ġcommuniste": 6399,
      "oung": 6400,
      "Ġpetites": 6401,
      "ĠWeb": 6402,
      "ulg": 6403,
      "ramme": 6404,
      "win": 6405,
      "Ġvoire": 6406,
      "Ġmoin": 6407,
      "Ã©lie": 6408,
      "ĠintÃ©ress": 6409,
      "ĠFem": 6410,
      "Ġ1929": 6411,
      "Entre": 6412,
      "Ġpp": 6413,
      "Ġouvrages": 6414,
      "Ġcontexte": 6415,
      "ĠLÃ©gion": 6416,
      "Ġhyp": 6417,
      "ĠvÃ©gÃ©t": 6418,
      "olk": 6419,
      "Ġdiscip": 6420,
      "ĠdÃ©roule": 6421,
      "âĶ": 6422,
      "akh": 6423,
      "Ġpois": 6424,
      "Ġessentiellement": 6425,
      "Ġpan": 6426,
      "140": 6427,
      "ĠdiffusÃ©e": 6428,
      "Ġabsol": 6429,
      "ĠCatherine": 6430,
      "endra": 6431,
      "ipp": 6432,
      "CD": 6433,
      "str": 6434,
      "ĠMÃ©tÃ©": 6435,
      "ichier": 6436,
      "ortive": 6437,
      "Ġchanteuse": 6438,
      "ĠÃ©cl": 6439,
      "Ġdiplom": 6440,
      "mus": 6441,
      "enberg": 6442,
      "ĠHal": 6443,
      "Ġcommen": 6444,
      "uration": 6445,
      "ĠcÃ©rÃ©mon": 6446,
      "Ġdest": 6447,
      "telle": 6448,
      "Ġproducteur": 6449,
      "Il": 6450,
      "Ġdisponible": 6451,
      "fiÃ©": 6452,
      "Ġtravailler": 6453,
      "Ġlieutenant": 6454,
      "rateur": 6455,
      "mÃ©di": 6456,
      "Ġ1918": 6457,
      "Ġvictoires": 6458,
      "Port": 6459,
      "Ġ|}": 6460,
      "ĠCast": 6461,
      "ĠSin": 6462,
      "Ġ58": 6463,
      "ĠcÃ©lÃ©": 6464,
      "Ġpromotion": 6465,
      "ĠRaymond": 6466,
      "lip": 6467,
      "ĠprÃ©sentÃ©": 6468,
      "ionn": 6469,
      "lisme": 6470,
      "ĠBarcel": 6471,
      "astÃ©roÃ¯des": 6472,
      "Ã¼n": 6473,
      "rik": 6474,
      "ĠÃĹ": 6475,
      "pour": 6476,
      "peau": 6477,
      "reux": 6478,
      "ĠMai": 6479,
      "joint": 6480,
      "Ġdescend": 6481,
      "Ġcumul": 6482,
      "ĠdÃ»": 6483,
      "usage": 6484,
      "enis": 6485,
      "Ġaller": 6486,
      "Ġromaine": 6487,
      "1975": 6488,
      "ĠLog": 6489,
      "aptis": 6490,
      "Ġchapitre": 6491,
      "olÃ©": 6492,
      "Ġaltern": 6493,
      "zer": 6494,
      "Ġ1900": 6495,
      "Ġfonds": 6496,
      "ĠLam": 6497,
      "ĠMatt": 6498,
      "anga": 6499,
      "hel": 6500,
      "Av": 6501,
      "Claude": 6502,
      "mans": 6503,
      "Ġmesures": 6504,
      "Ġarmes": 6505,
      "Ġniveaux": 6506,
      "Ġphilosophie": 6507,
      "ĠNantes": 6508,
      "tÃ©ph": 6509,
      "ĠPa": 6510,
      "ĠAssociation": 6511,
      "ĠFamille": 6512,
      "Ġath": 6513,
      "ĠbloquÃ©": 6514,
      "ĠcomÃ©die": 6515,
      "Ġregard": 6516,
      "Ġpoursuit": 6517,
      "Ã©conomie": 6518,
      "dici": 6519,
      "ĠCorÃ©e": 6520,
      "stantin": 6521,
      "andre": 6522,
      "Ġnour": 6523,
      "accÃ¨s": 6524,
      "ĠÃ©lectrique": 6525,
      "liers": 6526,
      "Ġdite": 6527,
      "Ġpassant": 6528,
      "Ġimportants": 6529,
      "ortement": 6530,
      "120": 6531,
      "ĠLud": 6532,
      "anges": 6533,
      "Ġ1931": 6534,
      "ĠrÃ©ussi": 6535,
      "autom": 6536,
      "issue": 6537,
      "existence": 6538,
      "ĠmÃªmes": 6539,
      "Ġmaladie": 6540,
      "ĠAnth": 6541,
      "ierge": 6542,
      "ĠFilmographie": 6543,
      "ĠMaz": 6544,
      "Ġimage": 6545,
      "tics": 6546,
      "ĠLaur": 6547,
      "ĠAustralie": 6548,
      "Ġparu": 6549,
      "oulin": 6550,
      "eta": 6551,
      "Ġcommission": 6552,
      "ĠcinquiÃ¨me": 6553,
      "ĠPolitique": 6554,
      "Ã©nagement": 6555,
      "seaux": 6556,
      "Ã©der": 6557,
      "ĠmatÃ©ri": 6558,
      "ĠJeanne": 6559,
      "ĠMul": 6560,
      "ceau": 6561,
      "Ġ02": 6562,
      "ĠQuand": 6563,
      "ĠcaractÃ©risÃ©e": 6564,
      "Ġprofessionnelle": 6565,
      "altitude": 6566,
      "ĠAmÃ©rique": 6567,
      "ĠAward": 6568,
      "ĠWind": 6569,
      "AndrÃ©": 6570,
      "ĠthÃ¨me": 6571,
      "ĠdÃ©signer": 6572,
      "Ġaffich": 6573,
      "versaire": 6574,
      "ĠSteph": 6575,
      "ĠYe": 6576,
      "Ġbras": 6577,
      "division": 6578,
      "ĠScott": 6579,
      "Ath": 6580,
      "ĠÃ©crite": 6581,
      "Date": 6582,
      "architecture": 6583,
      "Ġferme": 6584,
      "Ġuniversitaire": 6585,
      "achÃ©": 6586,
      "Ġ07": 6587,
      "centre": 6588,
      "union": 6589,
      "Ġquin": 6590,
      "ĠMot": 6591,
      "Ġaxe": 6592,
      "hard": 6593,
      "Ġmeilleurs": 6594,
      "Ġbrig": 6595,
      "ried": 6596,
      "ĠBad": 6597,
      "ĠBrown": 6598,
      "ĠÅĴuvres": 6599,
      "ĠCertains": 6600,
      "Ġprisonn": 6601,
      "Ġrive": 6602,
      "ĠMons": 6603,
      "ĠPÃ©": 6604,
      "Par": 6605,
      "Ġ120": 6606,
      "ĠsystÃ¨mes": 6607,
      "Ġtome": 6608,
      "Ġ1910": 6609,
      "riers": 6610,
      "Ġ1919": 6611,
      "ĠrÃ©partition": 6612,
      "ĠrÃ©uss": 6613,
      "ĠFar": 6614,
      "Ġvente": 6615,
      "Ã©tudes": 6616,
      "Ġutiliser": 6617,
      "ĠaccÃ¨s": 6618,
      "ĠHor": 6619,
      "ĠOlivier": 6620,
      "well": 6621,
      "ĠCur": 6622,
      "Ġ59": 6623,
      "ĠÃ©coles": 6624,
      "Ġsouver": 6625,
      "cio": 6626,
      "ĠdÃ©ch": 6627,
      "ĠdÃ©mar": 6628,
      "ĠDistin": 6629,
      "ĠrÃ©cup": 6630,
      "Oise": 6631,
      "court": 6632,
      "Ġsorte": 6633,
      "Ġcomplet": 6634,
      "ĠrÃ©glement": 6635,
      "Val": 6636,
      "br": 6637,
      "Ã©quip": 6638,
      "Ġroyal": 6639,
      "Ġerre": 6640,
      "Ġconcent": 6641,
      "ĠÃ©vÃ©nements": 6642,
      "ĠorganisÃ©": 6643,
      "Ġvont": 6644,
      "ĠdÃ©cret": 6645,
      "vol": 6646,
      "Ġcompagn": 6647,
      "Ġmasse": 6648,
      "agon": 6649,
      "Ġguitare": 6650,
      "mpl": 6651,
      "Paris": 6652,
      "ĠrÃ©gionale": 6653,
      "Ã©ron": 6654,
      "Ġ1924": 6655,
      "jou": 6656,
      "auff": 6657,
      "ĠLille": 6658,
      "ricole": 6659,
      "ĠCÃ´te": 6660,
      "ariat": 6661,
      "Ġsouhait": 6662,
      "olÃ©on": 6663,
      "Ġparis": 6664,
      "Ġda": 6665,
      "aco": 6666,
      "ĠWilliams": 6667,
      "alem": 6668,
      "environnement": 6669,
      "ĠBelle": 6670,
      "Ġcoll": 6671,
      "Ġnavig": 6672,
      "ĠlumiÃ¨re": 6673,
      "Ġnul": 6674,
      "ĠPublication": 6675,
      "sentation": 6676,
      "uet": 6677,
      "ĠconstituÃ©": 6678,
      "Ġespagnole": 6679,
      "sch": 6680,
      "ĠGenre": 6681,
      "ulte": 6682,
      "ĠGreen": 6683,
      "auf": 6684,
      "paravant": 6685,
      "Ġentreprise": 6686,
      "ĠÃīpisode": 6687,
      "ĠLorsque": 6688,
      "Ġjardin": 6689,
      "ĠmÃ©thodes": 6690,
      "omes": 6691,
      "ĠMÃ©tÃ©o": 6692,
      "ĠCroix": 6693,
      "ĠAk": 6694,
      "Ġraisons": 6695,
      "Ġnu": 6696,
      "ĠmÃ©tropol": 6697,
      "haus": 6698,
      "udie": 6699,
      "ĠPlay": 6700,
      "ĠÃ©tabli": 6701,
      "IC": 6702,
      "Ġemploy": 6703,
      "lais": 6704,
      "300": 6705,
      "Ġchampions": 6706,
      "ĠocÃ©": 6707,
      "ĠdÃ©roulant": 6708,
      "Ġfaite": 6709,
      "glomÃ©ration": 6710,
      "):": 6711,
      "Ġmasculin": 6712,
      "wa": 6713,
      "Ġchangements": 6714,
      "Ã¨vre": 6715,
      "ĠSport": 6716,
      "rÃ©m": 6717,
      "Ġpropres": 6718,
      "1997": 6719,
      "Ã¨gre": 6720,
      "indÃ©pendance": 6721,
      "hor": 6722,
      "Ġparcours": 6723,
      "Ġcapt": 6724,
      "Ġutilisant": 6725,
      "Premier": 6726,
      "Ġregroup": 6727,
      "lent": 6728,
      "nÃ©s": 6729,
      "major": 6730,
      "ĠBarcelone": 6731,
      "Ġbourg": 6732,
      "ĠOtt": 6733,
      "ĠimmÃ©diate": 6734,
      "ĠmÃ©dias": 6735,
      "Ġfaisait": 6736,
      "Ġterritori": 6737,
      "ext": 6738,
      "Ġjaponaise": 6739,
      "Ġconcept": 6740,
      "ĠÃ©lector": 6741,
      "ĠFranc": 6742,
      "kins": 6743,
      "ĠBoul": 6744,
      "OC": 6745,
      "Ġtraduit": 6746,
      "ĠmÃ©tÃ©or": 6747,
      "Ġ1925": 6748,
      "ep": 6749,
      "ondes": 6750,
      "rem": 6751,
      "Ġoppos": 6752,
      "Ġcommandement": 6753,
      "Ġnobles": 6754,
      "Ġautrich": 6755,
      "ily": 6756,
      "ĠConf": 6757,
      "ĠScÃ©nario": 6758,
      "Ġcant": 6759,
      "aillon": 6760,
      "Ġenfant": 6761,
      "orient": 6762,
      "Ã©lande": 6763,
      "Ġdevrait": 6764,
      "oks": 6765,
      "ĠOl": 6766,
      "Ġamis": 6767,
      "ĠprocÃ¨s": 6768,
      "ĠBibliothÃ¨que": 6769,
      "ĠToutefois": 6770,
      "ussions": 6771,
      "ĠPau": 6772,
      "inguis": 6773,
      "ĠlÃ©gislature": 6774,
      "Ġretrait": 6775,
      "ground": 6776,
      "ador": 6777,
      "ctorat": 6778,
      "ĠCri": 6779,
      "ĠarriÃ¨re": 6780,
      "venue": 6781,
      "ĠprÃ©cÃ©dent": 6782,
      "IA": 6783,
      "Ã©nage": 6784,
      "ĠVirgin": 6785,
      "una": 6786,
      "attaque": 6787,
      "Ġconception": 6788,
      "ĠCup": 6789,
      "Ġpati": 6790,
      "Ġactions": 6791,
      "mid": 6792,
      "EP": 6793,
      "erte": 6794,
      "Ġvin": 6795,
      "eral": 6796,
      "lÃ©tisme": 6797,
      "ĠcompÃ©t": 6798,
      "Ġ65": 6799,
      "Ġ1926": 6800,
      "ople": 6801,
      "ator": 6802,
      "ĠHow": 6803,
      "ĠÃ©tudiants": 6804,
      "ser": 6805,
      "Ġreprise": 6806,
      "ĠProf": 6807,
      "ĠrÃ©alisÃ©e": 6808,
      "wick": 6809,
      "ĠÃ©lÃ¨ves": 6810,
      "igny": 6811,
      "ĠQuelques": 6812,
      "Ãİle": 6813,
      "esses": 6814,
      "orge": 6815,
      "ĠUl": 6816,
      "Ġcaval": 6817,
      "ĠHaut": 6818,
      "ĠWill": 6819,
      "front": 6820,
      "Ġ1912": 6821,
      "ĠMore": 6822,
      "ĠVoi": 6823,
      "astÃ¨re": 6824,
      "ĠcollÃ¨ge": 6825,
      "1968": 6826,
      "actions": 6827,
      "ĠgÃ©nÃ©r": 6828,
      "sc": 6829,
      "rains": 6830,
      "ĠAlfred": 6831,
      "ĠJacob": 6832,
      "ccident": 6833,
      "Ġ.,": 6834,
      "uj": 6835,
      "ĠTroisiÃ¨me": 6836,
      "agÃ©e": 6837,
      "ĠOpen": 6838,
      "Ġdon": 6839,
      "1866": 6840,
      "Ġâľ": 6841,
      "ĠspÃ©cial": 6842,
      "auss": 6843,
      "Ġvraiment": 6844,
      "ĠquÃ©bÃ©cois": 6845,
      "ĠbibliothÃ¨que": 6846,
      "ĠStatistiques": 6847,
      "ĠÃ©volue": 6848,
      "olie": 6849,
      "ĠArthur": 6850,
      "ĠRoche": 6851,
      "yst": 6852,
      "Ġcomplexe": 6853,
      "ĠÃ©levÃ©": 6854,
      "nels": 6855,
      "Ġpouvant": 6856,
      "ĠdÃ©li": 6857,
      "ĠJui": 6858,
      "Ã©ritÃ©": 6859,
      "ĠGust": 6860,
      "ĠSC": 6861,
      "lot": 6862,
      "ĠPopulation": 6863,
      "ĠWhite": 6864,
      "ium": 6865,
      "Ġfortement": 6866,
      "ĠTokyo": 6867,
      "RA": 6868,
      "ĠPeu": 6869,
      "Ġanimaux": 6870,
      "ulaires": 6871,
      "Ġlesquels": 6872,
      "hors": 6873,
      "ĠdiamÃ¨tre": 6874,
      "Ã©titions": 6875,
      "ĠJam": 6876,
      "Ġcui": 6877,
      "Ġformer": 6878,
      "Ġdirect": 6879,
      "endemain": 6880,
      "Ġparvient": 6881,
      "ĠPersonnalitÃ©s": 6882,
      "ount": 6883,
      "%\"": 6884,
      "dez": 6885,
      "1996": 6886,
      "dium": 6887,
      "ĠAct": 6888,
      "2025": 6889,
      "Ġscore": 6890,
      "ĠMike": 6891,
      "Ġrespect": 6892,
      "ĠMagn": 6893,
      "ĠMessage": 6894,
      "ĠdÃ©mont": 6895,
      "ĠtÃ©moign": 6896,
      "ĠMans": 6897,
      "Ġmajeur": 6898,
      "roix": 6899,
      "Ġnoire": 6900,
      "Ġprofonde": 6901,
      "top": 6902,
      "Pl": 6903,
      "ando": 6904,
      "1995": 6905,
      "oft": 6906,
      "ĠLeur": 6907,
      "Ġsociales": 6908,
      "ĠscÃ©nario": 6909,
      "ultÃ©s": 6910,
      "ĠKam": 6911,
      "Ġconstruire": 6912,
      "Ġappli": 6913,
      "Ġtente": 6914,
      "ĠJones": 6915,
      "rais": 6916,
      "aid": 6917,
      "Ġcomposition": 6918,
      "ĠHav": 6919,
      "ĠService": 6920,
      "ĠCy": 6921,
      "ĠdÃ©tr": 6922,
      "Ġconver": 6923,
      "Ġnationales": 6924,
      "ĠDol": 6925,
      "ĠpÃ©d": 6926,
      "geois": 6927,
      "ĠTak": 6928,
      "Ġoffici": 6929,
      "Ġruisseau": 6930,
      "opt": 6931,
      "Ġarabe": 6932,
      "nexe": 6933,
      "ĠDVD": 6934,
      "onto": 6935,
      "Ġ1927": 6936,
      "....": 6937,
      "ĠLie": 6938,
      "ĠopÃ©ration": 6939,
      "ographies": 6940,
      "mation": 6941,
      "lications": 6942,
      "ĠWalter": 6943,
      "ĠAle": 6944,
      "ibre": 6945,
      "Ġly": 6946,
      "ĠÃ©lÃ©ment": 6947,
      "ĠTu": 6948,
      "Ġcoh": 6949,
      "Ġagricole": 6950,
      "Ġproposition": 6951,
      "ĠÃ©mis": 6952,
      "NH": 6953,
      "ĠÃ©tudie": 6954,
      "Henri": 6955,
      "ĠGabriel": 6956,
      "Ġcanal": 6957,
      "ĠphÃ©nom": 6958,
      "ocrate": 6959,
      "ĠStan": 6960,
      "ieuses": 6961,
      "ĠVar": 6962,
      "ÃŁ": 6963,
      "ĠSel": 6964,
      "âĶĢ": 6965,
      "Ġmineures": 6966,
      "----": 6967,
      "ĠÃ©vent": 6968,
      "bÃ©": 6969,
      "ĠrÃ©alisation": 6970,
      "Ġoccupe": 6971,
      "Ġsin": 6972,
      "ĠJane": 6973,
      "ĠFr": 6974,
      "ĠÃ©trangÃ¨res": 6975,
      "ĠIt": 6976,
      "Ġbeaux": 6977,
      "Ġfleurs": 6978,
      "Ġ>": 6979,
      "Ġoffre": 6980,
      "ĠDor": 6981,
      "ĠTechn": 6982,
      "illÃ©": 6983,
      "ĠdÃ©bute": 6984,
      "Ġbiens": 6985,
      "tivitÃ©s": 6986,
      "ernes": 6987,
      "IG": 6988,
      "ĠdÃ©partemental": 6989,
      "ĠArchives": 6990,
      "sous": 6991,
      "ĠRÃ©c": 6992,
      "Ġinves": 6993,
      "ĠMort": 6994,
      "aissances": 6995,
      "Sport": 6996,
      "ĠBall": 6997,
      "Ġportug": 6998,
      "Ġlendemain": 6999,
      "asser": 7000,
      "Op": 7001,
      "Ed": 7002,
      "ĠSpr": 7003,
      "Ġmoyens": 7004,
      "nant": 7005,
      "link": 7006,
      "ualitÃ©": 7007,
      "via": 7008,
      "Ġpression": 7009,
      "ĠintÃ©gral": 7010,
      "ohn": 7011,
      "ĠexÃ©c": 7012,
      "tific": 7013,
      "uxembourg": 7014,
      "ĠSans": 7015,
      "Ã¶r": 7016,
      "Village": 7017,
      "ZÃ©lande": 7018,
      "Loc": 7019,
      "ĠingÃ©n": 7020,
      "ĠPaci": 7021,
      "Ġfleuve": 7022,
      "clam": 7023,
      "ĠunitÃ©s": 7024,
      "Man": 7025,
      "Ġdimen": 7026,
      "ĠencyclopÃ©di": 7027,
      "ĠNorv": 7028,
      "Ġattaque": 7029,
      "1962": 7030,
      "ermain": 7031,
      "Ġdocuments": 7032,
      "ĠMars": 7033,
      "ĠPublications": 7034,
      "dans": 7035,
      "rot": 7036,
      "unt": 7037,
      "ĠGod": 7038,
      "ĠDj": 7039,
      "ĠLangue": 7040,
      "avantage": 7041,
      "ĠcomplÃ¨": 7042,
      "ĠColombie": 7043,
      "Ġchoses": 7044,
      "ĠbasÃ©": 7045,
      "ĠProjet": 7046,
      "Ġsynth": 7047,
      "Ġang": 7048,
      "Ġromain": 7049,
      "ĠÃītat": 7050,
      "ĠGiov": 7051,
      "ĠFrances": 7052,
      "ierry": 7053,
      "ĠRevue": 7054,
      "cial": 7055,
      "Ġdevenue": 7056,
      "Ġmusul": 7057,
      "ĠMou": 7058,
      "Anne": 7059,
      "ĠDÃ©fense": 7060,
      "Ġsportive": 7061,
      "lÃ¨ne": 7062,
      "Ġremont": 7063,
      "Mari": 7064,
      "ĠManuel": 7065,
      "ĠMart": 7066,
      "zo": 7067,
      "ĠRis": 7068,
      "Asie": 7069,
      "enh": 7070,
      "ĠnaÃ®t": 7071,
      "ĠMari": 7072,
      "Ġchute": 7073,
      "Ġ1917": 7074,
      "Ġappartient": 7075,
      "affaires": 7076,
      "Ã©lev": 7077,
      "Ġorgan": 7078,
      "alo": 7079,
      "Ġlicence": 7080,
      "contre": 7081,
      "Ġsucces": 7082,
      "emark": 7083,
      "absence": 7084,
      "dessous": 7085,
      "aies": 7086,
      "ĠKen": 7087,
      "ĠTam": 7088,
      "ensus": 7089,
      "onnais": 7090,
      "ĠobservÃ©e": 7091,
      "gra": 7092,
      "Ġrurale": 7093,
      "acÃ©s": 7094,
      "ĠnumÃ©rique": 7095,
      "lia": 7096,
      "ĠLeon": 7097,
      "ĠKarl": 7098,
      "rak": 7099,
      "ĠprÃ©cÃ©dente": 7100,
      "Ġmains": 7101,
      "hin": 7102,
      "Ġaide": 7103,
      "Ġeut": 7104,
      "Ã©bas": 7105,
      "Ġpartage": 7106,
      "Ġmou": 7107,
      "mentation": 7108,
      "ĠEnt": 7109,
      "Ġbleu": 7110,
      "yclopÃ©die": 7111,
      "Ġvrai": 7112,
      "ĠPÃ©ri": 7113,
      "ĠMÃ©": 7114,
      "analyse": 7115,
      "gor": 7116,
      "ĠconsidÃ©ra": 7117,
      "ĠAbd": 7118,
      "Ġplaces": 7119,
      "ĠdÃ©signe": 7120,
      "uteur": 7121,
      "AlgÃ©rie": 7122,
      "cesseur": 7123,
      "lines": 7124,
      "Ġadministrative": 7125,
      "Ġvos": 7126,
      "IP": 7127,
      "utÃ©e": 7128,
      "iner": 7129,
      "ladi": 7130,
      "Ġinhum": 7131,
      "rane": 7132,
      "site": 7133,
      "ĠBrig": 7134,
      "ĠLag": 7135,
      "Ġsujets": 7136,
      "uÃ©s": 7137,
      "ĠDominique": 7138,
      "Her": 7139,
      "PrÃ©": 7140,
      "Ġinitialement": 7141,
      "Ġpropor": 7142,
      "jo": 7143,
      "fond": 7144,
      "Ġfid": 7145,
      "Ġtitulaire": 7146,
      "Ġcontributions": 7147,
      "ĠExp": 7148,
      "aria": 7149,
      "Monument": 7150,
      "Champion": 7151,
      "tish": 7152,
      "Ġinstitu": 7153,
      "Ġhong": 7154,
      "Ġouverte": 7155,
      "Ġofficier": 7156,
      "rob": 7157,
      "ĠtrouvÃ©": 7158,
      "ĠdiocÃ¨se": 7159,
      "ĠPalais": 7160,
      "ĠHub": 7161,
      "orges": 7162,
      "asses": 7163,
      "Ġsav": 7164,
      "ĠliÃ©s": 7165,
      "ayant": 7166,
      "angÃ©": 7167,
      "ĠGard": 7168,
      "aillÃ©": 7169,
      "ĠspÃ©cifique": 7170,
      "ĠportÃ©": 7171,
      "ĠTemps": 7172,
      "lises": 7173,
      "Ġ1922": 7174,
      "Ã¨ges": 7175,
      "Ġ68": 7176,
      "ĠNoÃ«l": 7177,
      "ganisation": 7178,
      "ĠLiÃ¨ge": 7179,
      "Ġfaud": 7180,
      "Ġ-||": 7181,
      "outi": 7182,
      "Ġmatin": 7183,
      "ĠAlph": 7184,
      "Ġaudi": 7185,
      "Ġcommunaut": 7186,
      "ComtÃ©": 7187,
      ");": 7188,
      "prÃ¨te": 7189,
      "Ġdomicile": 7190,
      "ĠBak": 7191,
      "ĠSchool": 7192,
      "Ġressources": 7193,
      "Ġportes": 7194,
      "Ġeffets": 7195,
      "ĠopÃ©rations": 7196,
      "ĠÃ©lus": 7197,
      "itte": 7198,
      "enez": 7199,
      "Ġmodifications": 7200,
      "Ġgmina": 7201,
      "ĠGT": 7202,
      "Ġnaturels": 7203,
      "ĠÃīconomie": 7204,
      "Ġdemander": 7205,
      "Ġhos": 7206,
      "Ġprintemps": 7207,
      "Ġ300": 7208,
      "ouvrage": 7209,
      "ĠcatÃ©goris": 7210,
      "ank": 7211,
      "ĠRose": 7212,
      "iden": 7213,
      "yclisme": 7214,
      "ĠAuteur": 7215,
      "Ã§ons": 7216,
      "rouillon": 7217,
      "Ġfinit": 7218,
      "Ġimportantes": 7219,
      "Ġmm": 7220,
      "ias": 7221,
      "ĠgÃ©nÃ©raux": 7222,
      "Ġvent": 7223,
      "ĠAlbum": 7224,
      "eron": 7225,
      "Ġ1913": 7226,
      "Ã³w": 7227,
      "Ġ1921": 7228,
      "ava": 7229,
      "aret": 7230,
      "ĠBruno": 7231,
      "SC": 7232,
      "Ã©bastien": 7233,
      "ĠfÃ©dÃ©ral": 7234,
      "ĠGon": 7235,
      "ĠConstitution": 7236,
      "Ã¨lement": 7237,
      "ĠKim": 7238,
      "ĠWood": 7239,
      "ĠnÃ©goci": 7240,
      "ĠKÃ¶": 7241,
      "ĠSix": 7242,
      "Ã¢ts": 7243,
      "ĠÃ©conomiques": 7244,
      "ventions": 7245,
      "ĠNombre": 7246,
      "ĠmarquÃ©e": 7247,
      "ĠbrÃ©sil": 7248,
      "ventaire": 7249,
      "ĠAffaires": 7250,
      "ĠCompagnie": 7251,
      "ĠMid": 7252,
      "ĠBut": 7253,
      "meub": 7254,
      "ĠcatÃ©gories": 7255,
      "Ġdouze": 7256,
      "ĠEss": 7257,
      "ouvenir": 7258,
      "ĠMeilleure": 7259,
      "ĠdÃ©riv": 7260,
      "ĠBac": 7261,
      "Ã©rou": 7262,
      "Ġhommage": 7263,
      "Ã©at": 7264,
      "ĠmÃ©dic": 7265,
      "consultÃ©": 7266,
      "Ġcivil": 7267,
      "ĠMerc": 7268,
      "Alpes": 7269,
      "mber": 7270,
      "Ġheure": 7271,
      "Ġjudici": 7272,
      "ĠStÃ©ph": 7273,
      "Ġsemi": 7274,
      "ĠfaÃ§ade": 7275,
      "ĠTy": 7276,
      "ouvel": 7277,
      "Ġcarb": 7278,
      "ĠStreet": 7279,
      "Ġmerci": 7280,
      "architecte": 7281,
      "ĠOne": 7282,
      "ĠrÃ©sistance": 7283,
      "ĠJud": 7284,
      "Ġdomaines": 7285,
      "ĠDistinctions": 7286,
      "obox": 7287,
      "php": 7288,
      "Ġvictimes": 7289,
      "Ġrac": 7290,
      "ĠvÃ©ritable": 7291,
      "hem": 7292,
      "ĠIP": 7293,
      "Ġlocales": 7294,
      "Inde": 7295,
      "1991": 7296,
      "ĠLeg": 7297,
      "Ġcouronne": 7298,
      "ultan": 7299,
      "Ġ66": 7300,
      "Ġ1923": 7301,
      "ĠTib": 7302,
      "ĠTous": 7303,
      "uge": 7304,
      "ĠFig": 7305,
      "Er": 7306,
      "Ġpouvait": 7307,
      "ĠamÃ©ricains": 7308,
      "Ġnations": 7309,
      "ĠHongrie": 7310,
      "prÃ©sident": 7311,
      "ĠreprÃ©sentations": 7312,
      "ez": 7313,
      "Ġ72": 7314,
      "ĠEric": 7315,
      "Ġatti": 7316,
      "etÃ©": 7317,
      "astie": 7318,
      "Ġnew": 7319,
      "mique": 7320,
      "ĠRa": 7321,
      "deux": 7322,
      "Ġ%).": 7323,
      "Ġclo": 7324,
      "ĠtÃ©l": 7325,
      "ĠSys": 7326,
      "ĠcomplÃ¨te": 7327,
      "Ġphoto": 7328,
      "Foot": 7329,
      "rection": 7330,
      "ologiste": 7331,
      "ĠpersonnalitÃ©s": 7332,
      "Ġcoord": 7333,
      "ĠWiki": 7334,
      "dae": 7335,
      "ĠPoints": 7336,
      "CC": 7337,
      "Voix": 7338,
      "lisabeth": 7339,
      "ermont": 7340,
      "ĠCr": 7341,
      "ĠHistory": 7342,
      "apes": 7343,
      "ĠAf": 7344,
      "ĠBus": 7345,
      "chevÃªque": 7346,
      "dont": 7347,
      "Ã©lu": 7348,
      "ĠÃ©viter": 7349,
      "ĠCarlos": 7350,
      "quÃ©es": 7351,
      "Ġcuis": 7352,
      "ĠMÃ©m": 7353,
      "ĠHab": 7354,
      "Ġversions": 7355,
      "ciation": 7356,
      "dite": 7357,
      "Ġespace": 7358,
      "ĠCaroline": 7359,
      "Ġcanadienne": 7360,
      "Sh": 7361,
      "ĠNice": 7362,
      "ĠFried": 7363,
      "Ġarchite": 7364,
      "ĠÃ©lab": 7365,
      "ĠLind": 7366,
      "ĠarmÃ©e": 7367,
      "ĠProg": 7368,
      "Ġreconnaissance": 7369,
      "Ġpauv": 7370,
      "Ġ(,": 7371,
      "ĠKon": 7372,
      "Ã©criture": 7373,
      "ĠLondon": 7374,
      "Ġsugg": 7375,
      "igu": 7376,
      "ĠdÃ©clarÃ©": 7377,
      "Ġaffec": 7378,
      "ĠCharl": 7379,
      "ĠCongrÃ¨s": 7380,
      "commun": 7381,
      "atures": 7382,
      "Ã©sar": 7383,
      "ject": 7384,
      "Ġautomatique": 7385,
      "ĠÃ©val": 7386,
      "mÃ©t": 7387,
      "ĠTay": 7388,
      "droite": 7389,
      "ĠGeorg": 7390,
      "Ġdispute": 7391,
      "ĠConstantin": 7392,
      "affaire": 7393,
      "Ġmanus": 7394,
      "ÅĦ": 7395,
      "istres": 7396,
      "ken": 7397,
      "ĠPra": 7398,
      "ourne": 7399,
      "Ġjustif": 7400,
      "ĠLy": 7401,
      "ĠIb": 7402,
      "1994": 7403,
      "ĠDre": 7404,
      "angle": 7405,
      "ĠcontrÃ´": 7406,
      "ĠNancy": 7407,
      "Ã©chal": 7408,
      "arth": 7409,
      "Ġinternes": 7410,
      "ĠVis": 7411,
      "ĠZh": 7412,
      "ĠfÃªte": 7413,
      "ĠHu": 7414,
      "fa": 7415,
      "Ã©lix": 7416,
      "ĠCli": 7417,
      "ciÃ¨re": 7418,
      "Ġmac": 7419,
      "ĠtuÃ©": 7420,
      "ĠXIII": 7421,
      "ĠCinÃ©ma": 7422,
      "Ġproches": 7423,
      "ĠÃīlections": 7424,
      "iance": 7425,
      "ĠTurquie": 7426,
      "Ġradic": 7427,
      "Ġjaune": 7428,
      "ĠMinistre": 7429,
      "Joseph": 7430,
      "ĠLan": 7431,
      "ĠPrÃ©sident": 7432,
      "ĠpersonnalitÃ©": 7433,
      "Ġenregistre": 7434,
      "ĠchÅĵur": 7435,
      "ĠTs": 7436,
      "ĠdÃ©couvre": 7437,
      "arte": 7438,
      "itan": 7439,
      "ĠLuis": 7440,
      "ĠRue": 7441,
      "ÃłS": 7442,
      "ĠUniversitÃ©": 7443,
      "Ġclassification": 7444,
      "ĠTru": 7445,
      "Ãītienne": 7446,
      "Ġfen": 7447,
      "Ġphotographie": 7448,
      "ĠscÃ©nariste": 7449,
      "Ġpuisqu": 7450,
      "Ent": 7451,
      "ĠdirigÃ©": 7452,
      "ĠrÃ¨gle": 7453,
      "ĠFinlande": 7454,
      "Ġacte": 7455,
      "Ġ03": 7456,
      "ĠaÃ©rienne": 7457,
      "Ġcandidats": 7458,
      "ĠLuxembourg": 7459,
      "Ġdisparu": 7460,
      "ĠFal": 7461,
      "Ġobtenir": 7462,
      "ough": 7463,
      "wis": 7464,
      "ĠconsidÃ¨re": 7465,
      "Az": 7466,
      "ĠliÃ©": 7467,
      "ĠFormat": 7468,
      "Ġrappel": 7469,
      "Ġpert": 7470,
      "Ġsauf": 7471,
      "-)": 7472,
      "roduction": 7473,
      "ĠpÃªche": 7474,
      "ĠDanemark": 7475,
      "Ġcord": 7476,
      "Ġpon": 7477,
      "Ġlecture": 7478,
      "ĠdÃ©couv": 7479,
      "ĠreprÃ©sentation": 7480,
      "chester": 7481,
      "ĠRio": 7482,
      "ĠAlexander": 7483,
      "yde": 7484,
      "Ġgagne": 7485,
      "inform": 7486,
      "Ġreligion": 7487,
      "uki": 7488,
      "ommages": 7489,
      "ĠdiffÃ©rence": 7490,
      "Ġpein": 7491,
      "Ġformat": 7492,
      "ĠÄ": 7493,
      "rophÃ©e": 7494,
      "ĠRC": 7495,
      "ĠJulien": 7496,
      "unk": 7497,
      "Ġchevalier": 7498,
      "Ġfranco": 7499,
      "Ġsoir": 7500,
      "ĠOu": 7501,
      "ĠCandid": 7502,
      "Ġlaisser": 7503,
      "now": 7504,
      "ĠMario": 7505,
      "Ġcondition": 7506,
      "Ġenne": 7507,
      "ĠNorvÃ¨ge": 7508,
      "Ãīquipe": 7509,
      "uisant": 7510,
      "Ġorganisation": 7511,
      "ĠdensitÃ©": 7512,
      "ĠconsacrÃ©": 7513,
      "ĠpubliÃ©s": 7514,
      "Ġski": 7515,
      "Ġ76": 7516,
      "ĠBÃ©": 7517,
      "ike": 7518,
      "ombre": 7519,
      "agers": 7520,
      "ologies": 7521,
      "aises": 7522,
      "Ġdiz": 7523,
      "Ġul": 7524,
      "Ġappari": 7525,
      "Ġexploit": 7526,
      "ĠTi": 7527,
      "ĠFel": 7528,
      "Ġ1911": 7529,
      "Ġsecondes": 7530,
      "oint": 7531,
      "ĠComb": 7532,
      "Ġray": 7533,
      "OM": 7534,
      "Ġcontact": 7535,
      "erry": 7536,
      "ĠRoss": 7537,
      "ĠannoncÃ©": 7538,
      "Ġisra": 7539,
      "ĠconfÃ©rence": 7540,
      "Ġfaux": 7541,
      "ĠrÃ©seaux": 7542,
      "rol": 7543,
      "vide": 7544,
      "lette": 7545,
      "Ġappartenant": 7546,
      "Ġsociaux": 7547,
      "ĠprÃ©t": 7548,
      "Arm": 7549,
      "pellier": 7550,
      "Ġpowiat": 7551,
      "ander": 7552,
      "Tra": 7553,
      "Ġachet": 7554,
      "ĠSerbie": 7555,
      "rague": 7556,
      "ĠKaz": 7557,
      "ĠBourgogne": 7558,
      "Seine": 7559,
      "ĠHaw": 7560,
      "ĠSalon": 7561,
      "agent": 7562,
      "Ġvieux": 7563,
      "ĠAnna": 7564,
      "ii": 7565,
      "Ġ63": 7566,
      "Ġart": 7567,
      "ĠSerge": 7568,
      "ĠRoi": 7569,
      "Ñĥ": 7570,
      "ĠToronto": 7571,
      "Ġstatue": 7572,
      "ilisation": 7573,
      "Ġtransports": 7574,
      "Ġrelativement": 7575,
      "ĠsociÃ©tÃ©s": 7576,
      "ĠCos": 7577,
      "ĠBoston": 7578,
      "arriÃ¨re": 7579,
      "Ġprofit": 7580,
      "endi": 7581,
      "ĠForce": 7582,
      "Ġ67": 7583,
      "Ð²": 7584,
      "250": 7585,
      "Ãītats": 7586,
      "mas": 7587,
      "otype": 7588,
      "ody": 7589,
      "appu": 7590,
      "Ġsolution": 7591,
      "rales": 7592,
      "enge": 7593,
      "Ġcomprendre": 7594,
      "rets": 7595,
      "Ã©preuve": 7596,
      "Ġpubliques": 7597,
      "Ġcolspan": 7598,
      "ĠpossibilitÃ©": 7599,
      "1993": 7600,
      "SP": 7601,
      "ĠentraÃ®neur": 7602,
      "nelles": 7603,
      "obe": 7604,
      "Ġinternationales": 7605,
      "ĠplanÃ¨tes": 7606,
      "expression": 7607,
      "ĠTan": 7608,
      "atus": 7609,
      "ĠreprÃ©sentants": 7610,
      "Ġexplique": 7611,
      "Ġcm": 7612,
      "illeur": 7613,
      "Ġlimit": 7614,
      "Ġyeux": 7615,
      "ĠIsland": 7616,
      "abelle": 7617,
      "wer": 7618,
      "Ã©ry": 7619,
      "Ġsil": 7620,
      "Ġvivant": 7621,
      "ĠCant": 7622,
      "Ġchron": 7623,
      "Ġplans": 7624,
      "xford": 7625,
      "udios": 7626,
      "ĠFondation": 7627,
      "avel": 7628,
      "Ġlogements": 7629,
      "initi": 7630,
      "Ġdevint": 7631,
      "Ġcru": 7632,
      "Ġtrad": 7633,
      "NI": 7634,
      "ĠStra": 7635,
      "ĠrÃ©aliser": 7636,
      "riÃ¨res": 7637,
      "Ġbaseball": 7638,
      "Ġfrag": 7639,
      "Ġsortant": 7640,
      "Ġcoloni": 7641,
      "utation": 7642,
      "ĠProm": 7643,
      "ĠfrÃ©quent": 7644,
      "Station": 7645,
      "Ġrevanche": 7646,
      "Ġ78": 7647,
      "ysique": 7648,
      "ĠEdward": 7649,
      "Ġ62": 7650,
      "ĠvÃ©hicules": 7651,
      "Ġsys": 7652,
      "alisateur": 7653,
      "ĠnÃ©anmoins": 7654,
      "ĠsignÃ©": 7655,
      "ĠJÃ©s": 7656,
      "enture": 7657,
      "Luc": 7658,
      "Ġciel": 7659,
      "Ġ77": 7660,
      "Ã©ran": 7661,
      "1992": 7662,
      "Pat": 7663,
      "Ġacces": 7664,
      "Ġcardinal": 7665,
      "Ġnaz": 7666,
      "roch": 7667,
      "ification": 7668,
      "Peintre": 7669,
      "Ġreligieuse": 7670,
      "Ġvo": 7671,
      "ĠRic": 7672,
      "Ġactes": 7673,
      "ĠChaque": 7674,
      "ĠJeff": 7675,
      "Ġate": 7676,
      "Ġeffic": 7677,
      "ĠDenis": 7678,
      "Ġriche": 7679,
      "ĠMis": 7680,
      "ĠConserv": 7681,
      "ree": 7682,
      "ĠFlori": 7683,
      "ĠJuifs": 7684,
      "Ã©en": 7685,
      "ĠAlpes": 7686,
      "tina": 7687,
      "ession": 7688,
      "ĠPin": 7689,
      "Ġpopulations": 7690,
      "Ġhumaine": 7691,
      "Nord": 7692,
      "ĠChristophe": 7693,
      "ĠPot": 7694,
      "ashi": 7695,
      "Ġcitoy": 7696,
      "Ġsouhaite": 7697,
      "Ġsuivre": 7698,
      "Ġblanche": 7699,
      "ĠMunich": 7700,
      "âĢĶâĢĶ": 7701,
      "ĠRub": 7702,
      "ĠFlorence": 7703,
      "baye": 7704,
      "ĠPed": 7705,
      "autÃ©s": 7706,
      "ĠClim": 7707,
      "ĠFi": 7708,
      "ĠVit": 7709,
      "gÃ©e": 7710,
      "Ġfabri": 7711,
      "ĠKi": 7712,
      "Ġsing": 7713,
      "ĠVous": 7714,
      "nez": 7715,
      "Ġmairie": 7716,
      "ĠprÃ©fecture": 7717,
      "venu": 7718,
      "Ordre": 7719,
      "delÃł": 7720,
      "ĠparamÃ¨tres": 7721,
      "Ġsecondaire": 7722,
      "ymn": 7723,
      "ĠvariÃ©tÃ©": 7724,
      "Ġportail": 7725,
      "Ġ85": 7726,
      "ĠprÃ©sidentielle": 7727,
      "ĠPÃłS": 7728,
      "Ġcommunal": 7729,
      "ĠSports": 7730,
      "yra": 7731,
      "ĠPhotographie": 7732,
      "hÃ´pital": 7733,
      "uler": 7734,
      "utions": 7735,
      "uper": 7736,
      "Ġauparavant": 7737,
      "ĠRoman": 7738,
      "tension": 7739,
      "ĠComment": 7740,
      "Ġassociation": 7741,
      "tor": 7742,
      "ĠTexas": 7743,
      "oke": 7744,
      "1946": 7745,
      "ĠFord": 7746,
      "rari": 7747,
      "Ġchercher": 7748,
      "ĠBow": 7749,
      "ĠVierge": 7750,
      "1950": 7751,
      "Ġconstructions": 7752,
      "ĠChamb": 7753,
      "Ġquanti": 7754,
      "ĠPier": 7755,
      "ĠRÃ©gion": 7756,
      "ĠJul": 7757,
      "amed": 7758,
      "agriculture": 7759,
      "ĠexÃ©cu": 7760,
      "Ġissu": 7761,
      "ĠtÃ´t": 7762,
      "Ġactif": 7763,
      "sace": 7764,
      "Ġproduire": 7765,
      "Marne": 7766,
      "Ġach": 7767,
      "Grand": 7768,
      "Ġru": 7769,
      "hal": 7770,
      "EspÃ¨ce": 7771,
      "fiction": 7772,
      "ĠsÃ©p": 7773,
      "ruits": 7774,
      "Ã¦": 7775,
      "ĠHouse": 7776,
      "Äĥ": 7777,
      "Ġmol": 7778,
      "ĠRon": 7779,
      "Ġcomptes": 7780,
      "Im": 7781,
      "ĠSituation": 7782,
      "ev": 7783,
      "ĠthÃ©or": 7784,
      "Ġtribunal": 7785,
      "Ġmess": 7786,
      "New": 7787,
      "ĠmÃ©ti": 7788,
      "Christ": 7789,
      "ĠexposÃ©": 7790,
      "ĠDim": 7791,
      "emples": 7792,
      "Ã©vÃªque": 7793,
      "Ġprovis": 7794,
      "ĠHay": 7795,
      "ĠSerg": 7796,
      "env": 7797,
      "ĠAub": 7798,
      "ĠSÃ©rie": 7799,
      "Ġassi": 7800,
      "cie": 7801,
      "ĠLas": 7802,
      "jamin": 7803,
      "ceaux": 7804,
      "Ġpleine": 7805,
      "Ġgrave": 7806,
      "cre": 7807,
      "tia": 7808,
      "acÃ©es": 7809,
      "Ġvaleurs": 7810,
      "Ġtrente": 7811,
      "Ġbritanniques": 7812,
      "1954": 7813,
      "ĠLaw": 7814,
      "enny": 7815,
      "ĠOuv": 7816,
      "oiseau": 7817,
      "Site": 7818,
      "ĠBistro": 7819,
      "assÃ©": 7820,
      "ĠState": 7821,
      "llerie": 7822,
      "cite": 7823,
      "ĠYoung": 7824,
      "Ġadmis": 7825,
      "ĠdÃ©mission": 7826,
      "ĠReich": 7827,
      "rase": 7828,
      "ĠrÃ©forme": 7829,
      "Ġenvi": 7830,
      "ĠNormandie": 7831,
      "Ġsomme": 7832,
      "CLC": 7833,
      "ouche": 7834,
      "Ġmit": 7835,
      "Ġvenir": 7836,
      "Ġ69": 7837,
      "nam": 7838,
      "Off": 7839,
      "lag": 7840,
      "Ġgalax": 7841,
      "Ġtoit": 7842,
      "Ġrejet": 7843,
      "OrlÃ©ans": 7844,
      "esc": 7845,
      "onymes": 7846,
      "Ġcomportement": 7847,
      "oser": 7848,
      "ueur": 7849,
      "ĠJeunesse": 7850,
      "ĠLamb": 7851,
      "ĠDÃ©t": 7852,
      "Ġaura": 7853,
      "ĠMand": 7854,
      "ĠSlov": 7855,
      "ĠAst": 7856,
      "Ġchoisi": 7857,
      "Ġrecru": 7858,
      "ĠprivÃ©": 7859,
      "Ġrues": 7860,
      "ĠPre": 7861,
      "background": 7862,
      "ĠDay": 7863,
      "Ġpouss": 7864,
      "ated": 7865,
      "ĠKy": 7866,
      "formes": 7867,
      "ArmÃ©e": 7868,
      "Ġreturn": 7869,
      "influence": 7870,
      "engage": 7871,
      "Ġprati": 7872,
      "ĠcÃ©rÃ©monie": 7873,
      "ĠDev": 7874,
      "ouri": 7875,
      "Bot": 7876,
      "ĠprÃªtre": 7877,
      "ĠJohnson": 7878,
      "ĠVenise": 7879,
      "Ġtemple": 7880,
      "ĠCompany": 7881,
      "ĠCle": 7882,
      "Ġmineure": 7883,
      "ĠVoix": 7884,
      "endie": 7885,
      "Ġlogiciel": 7886,
      "obten": 7887,
      "Vict": 7888,
      "Ġvot": 7889,
      "rade": 7890,
      "ĠrÃª": 7891,
      "ultures": 7892,
      "ĠcinÃ©m": 7893,
      "inal": 7894,
      "Ġcircuit": 7895,
      "Ġarchives": 7896,
      "Denis": 7897,
      "lish": 7898,
      "ieure": 7899,
      "oÃ®t": 7900,
      "ĠdÃ©velopper": 7901,
      "110": 7902,
      "Ã©tant": 7903,
      "Ġsupprimer": 7904,
      "Ġexclus": 7905,
      "ĠantÃ©rie": 7906,
      "Ġcontenant": 7907,
      "dent": 7908,
      "Ġcombats": 7909,
      "Ġexempl": 7910,
      "Ġbelle": 7911,
      "Ġfonctionnement": 7912,
      "ĠRep": 7913,
      "Ġcra": 7914,
      "ĠvolontÃ©": 7915,
      "ĠspÃ©cialiste": 7916,
      "Ġretrouver": 7917,
      "aÃ¯d": 7918,
      "ĠgÃ©nÃ©ration": 7919,
      "ĠmatÃ©riel": 7920,
      "oliques": 7921,
      "Ġnage": 7922,
      "Footballeur": 7923,
      "Ġ1915": 7924,
      "tiennent": 7925,
      "Ġclair": 7926,
      "DA": 7927,
      "ĠconsidÃ©rÃ©e": 7928,
      "ĠEff": 7929,
      "Ġscru": 7930,
      "ymologie": 7931,
      "ĠprÃ©d": 7932,
      "Ġrares": 7933,
      "Ġexception": 7934,
      "</": 7935,
      "ĠmonastÃ¨re": 7936,
      "Ġrencontres": 7937,
      "uan": 7938,
      "ĠapprÃ©": 7939,
      "ĠKal": 7940,
      "Ġ1908": 7941,
      "endrier": 7942,
      "Ġten": 7943,
      "Ġdatant": 7944,
      "ĠGilles": 7945,
      "agi": 7946,
      "sia": 7947,
      "Ġspectacle": 7948,
      "ĠLivre": 7949,
      "die": 7950,
      "ĠPop": 7951,
      "achÃ©e": 7952,
      "ĠnÃ©o": 7953,
      "Ġcommercial": 7954,
      "uisent": 7955,
      "ameau": 7956,
      "uter": 7957,
      "Ġdiscours": 7958,
      "Ãīcrivain": 7959,
      "Ġplateau": 7960,
      "ĠassociÃ©": 7961,
      "ĠDal": 7962,
      "ĠprÃ©cise": 7963,
      "naires": 7964,
      "Ġ74": 7965,
      "ĠdonnÃ©e": 7966,
      "Ġmilit": 7967,
      "Ministre": 7968,
      "Ġconvain": 7969,
      "tellig": 7970,
      "ĠLigne": 7971,
      "ĠVic": 7972,
      "Ġentou": 7973,
      "ĠCelui": 7974,
      "Irlande": 7975,
      "ĠÃīvolution": 7976,
      "rophe": 7977,
      "Ġdemeure": 7978,
      "Ġgrat": 7979,
      "Ø§": 7980,
      "MA": 7981,
      "Ġmajeure": 7982,
      "ĠHarry": 7983,
      "Ġhoriz": 7984,
      "ĠSir": 7985,
      "Ġ82": 7986,
      "ĠHou": 7987,
      "OT": 7988,
      "incl": 7989,
      "Ġrendu": 7990,
      "Ġ61": 7991,
      "1936": 7992,
      "Ġneut": 7993,
      "ilson": 7994,
      "Î¿": 7995,
      "He": 7996,
      "Ġfour": 7997,
      "ĠInt": 7998,
      "Ã¥": 7999,
      "ophones": 8000,
      "leine": 8001,
      "orÃ©e": 8002,
      "tem": 8003,
      "afÃ©": 8004,
      "Ġvac": 8005,
      "Aug": 8006,
      "ĠTony": 8007,
      "ĠdÃ©cenn": 8008,
      "sm": 8009,
      "Ġ1870": 8010,
      "ĠHigh": 8011,
      "Entreprise": 8012,
      "allon": 8013,
      "ĠLorraine": 8014,
      "appr": 8015,
      "sile": 8016,
      "ally": 8017,
      "Ġcombatt": 8018,
      "observatoire": 8019,
      "fait": 8020,
      "itat": 8021,
      "artillerie": 8022,
      "ĠMt": 8023,
      "Ġrespectivement": 8024,
      "Ġfrais": 8025,
      "1945": 8026,
      "Ġlun": 8027,
      "Ġdiman": 8028,
      "Ġcolonel": 8029,
      "Ġatteindre": 8030,
      "Ġpose": 8031,
      "istique": 8032,
      "lat": 8033,
      "post": 8034,
      "Ġchevaux": 8035,
      "uerite": 8036,
      "ĠOlymp": 8037,
      "Ġfacteurs": 8038,
      "ogo": 8039,
      "Ġbranche": 8040,
      "ĠÃ©dit": 8041,
      "ĠAmb": 8042,
      "ĠSteve": 8043,
      "ĠidÃ©": 8044,
      "ergne": 8045,
      "Roy": 8046,
      "ĠGiovanni": 8047,
      "itter": 8048,
      "ĠGare": 8049,
      "ĠrÃ©fug": 8050,
      "Ġbio": 8051,
      "extÃ©rieur": 8052,
      "esprit": 8053,
      "Blan": 8054,
      "ĠCN": 8055,
      "auph": 8056,
      "ĠYves": 8057,
      "opposition": 8058,
      "ĠKat": 8059,
      "Ġremport": 8060,
      "Ġcroissance": 8061,
      "Ġreconnu": 8062,
      "ĠFou": 8063,
      "Ġvien": 8064,
      "vit": 8065,
      "irst": 8066,
      "levard": 8067,
      "ĠCode": 8068,
      "ĠrÃ©pondre": 8069,
      "ĠCÃ©sar": 8070,
      "istÃ©": 8071,
      "Ġretourne": 8072,
      "Ġrenv": 8073,
      "Ġvite": 8074,
      "Ã©riques": 8075,
      "Ġcre": 8076,
      "Ġmixte": 8077,
      "CN": 8078,
      "ĠCommunes": 8079,
      "ĠÃ©vid": 8080,
      "ancement": 8081,
      "ĠBes": 8082,
      "ĠmarquÃ©": 8083,
      "ĠenvoyÃ©": 8084,
      "ĠModÃ¨le": 8085,
      "bus": 8086,
      "euros": 8087,
      "Ġlesquelles": 8088,
      "Ġbaron": 8089,
      "ĠtchÃ¨que": 8090,
      "Ġ1916": 8091,
      "Ġaccueilli": 8092,
      "Si": 8093,
      "amo": 8094,
      "Ġsor": 8095,
      "ĠdÃ©gÃ¢ts": 8096,
      "ĠPlace": 8097,
      "Ġtenu": 8098,
      "ĠdemandÃ©": 8099,
      "Ġrecue": 8100,
      "hl": 8101,
      "Ġcompose": 8102,
      "ĠeuropÃ©ens": 8103,
      "ĠdÃ©cÃ©dÃ©": 8104,
      "ĠdiffusÃ©": 8105,
      "Ġfeuilles": 8106,
      "pa": 8107,
      "Ġconserve": 8108,
      "Ġrepris": 8109,
      "eni": 8110,
      "Ġchefs": 8111,
      "ĠhÃ©ros": 8112,
      "Ġobtenus": 8113,
      "))": 8114,
      "Ä±": 8115,
      "Ġrefuse": 8116,
      "ĠrÃ©sidence": 8117,
      "Ġaspect": 8118,
      "Ġpanne": 8119,
      "Ġhydrograph": 8120,
      "Ġ73": 8121,
      "ĠdiplÃ´me": 8122,
      "Ġ04": 8123,
      "ĠthÃ¨se": 8124,
      "Ã©taires": 8125,
      "Ġmettant": 8126,
      "arin": 8127,
      "installe": 8128,
      "ĠsuÃ©dois": 8129,
      "ĠItal": 8130,
      "ĠChi": 8131,
      "Ġretourn": 8132,
      "usalem": 8133,
      "ĠJackson": 8134,
      "ĠBonn": 8135,
      "ĠNot": 8136,
      "ĠaÃ®": 8137,
      "Ġorthod": 8138,
      "ombe": 8139,
      "annes": 8140,
      "Ġsait": 8141,
      "Ġcontributeur": 8142,
      "ĠpÃ©tro": 8143,
      "Ġpromu": 8144,
      "ĠMontpellier": 8145,
      "Ġtraverse": 8146,
      "ĠrÃ©fÃ©r": 8147,
      "ĠBlue": 8148,
      "ĠalgÃ©ri": 8149,
      "Ġbus": 8150,
      "Ġcourte": 8151,
      "reau": 8152,
      "ĠTro": 8153,
      "tÃ©matique": 8154,
      "dan": 8155,
      "amÃ©li": 8156,
      "ĠPascal": 8157,
      "ĠStock": 8158,
      "Ġ1905": 8159,
      "Ġprovisoire": 8160,
      "1989": 8161,
      "ĠPil": 8162,
      "ĠGaz": 8163,
      "Ġdan": 8164,
      "ĠGreg": 8165,
      "Ġ71": 8166,
      "ĠDeuxiÃ¨me": 8167,
      "ĠlÃ©gende": 8168,
      "ingen": 8169,
      "ĠdÃ©finie": 8170,
      "Sc": 8171,
      "Ġkg": 8172,
      "ukrain": 8173,
      "Ãīp": 8174,
      "Homme": 8175,
      "Ġtrains": 8176,
      "Club": 8177,
      "Ġbud": 8178,
      "Ġdescription": 8179,
      "ĠPen": 8180,
      "ĠBonne": 8181,
      "organis": 8182,
      "Ġmurs": 8183,
      "Ġpertin": 8184,
      "expÃ©ri": 8185,
      "univers": 8186,
      "ĠLitt": 8187,
      "Ġpourtant": 8188,
      "Ġrecommand": 8189,
      "Ġprimaire": 8190,
      "ĠGran": 8191,
      "ĠPhilipp": 8192,
      "Ġblancs": 8193,
      "xic": 8194,
      "Ġcontinu": 8195,
      "utt": 8196,
      "ĠnuclÃ©aire": 8197,
      "gon": 8198,
      "Ġnationaux": 8199,
      "ignÃ©e": 8200,
      "uba": 8201,
      "unn": 8202,
      "ĠSavoie": 8203,
      "archie": 8204,
      "amen": 8205,
      "ĠSciences": 8206,
      "ĠMade": 8207,
      "ĠlittÃ©ra": 8208,
      "Ġconcurr": 8209,
      "ims": 8210,
      "Ġ88": 8211,
      "Ġryth": 8212,
      "Ġgro": 8213,
      "Ġlinguis": 8214,
      "emploi": 8215,
      "ĠGrenoble": 8216,
      "PR": 8217,
      "ika": 8218,
      "Ġnotes": 8219,
      "Ġmyth": 8220,
      "Ġrester": 8221,
      "omen": 8222,
      "Ġhabitu": 8223,
      "Ġrisques": 8224,
      "ĠWolf": 8225,
      "ĠbasÃ©e": 8226,
      "Acteur": 8227,
      "Ġgran": 8228,
      "ĠprÃ©sidence": 8229,
      "Charles": 8230,
      "Ġalbums": 8231,
      "Ġpatri": 8232,
      "rates": 8233,
      "FI": 8234,
      "SA": 8235,
      "Ġsurn": 8236,
      "182": 8237,
      "Ġcycle": 8238,
      "ouvement": 8239,
      "ĠCameroun": 8240,
      "Ġvesti": 8241,
      "ritÃ©": 8242,
      "finale": 8243,
      "aquant": 8244,
      "ĠKong": 8245,
      "endue": 8246,
      "uvi": 8247,
      "obi": 8248,
      "ĠHyd": 8249,
      "Ġvoitures": 8250,
      "Ġguerres": 8251,
      "ĠLemmon": 8252,
      "ĠCongo": 8253,
      "Ġaffirme": 8254,
      "ĠcommÃ©m": 8255,
      "ĠopÃ©ra": 8256,
      "ĠrÃ©cit": 8257,
      "articles": 8258,
      "Ġvoyageurs": 8259,
      "oque": 8260,
      "ĠOuest": 8261,
      "Ġfoss": 8262,
      "ilitÃ©s": 8263,
      "ĠTown": 8264,
      "ĠNet": 8265,
      "Ġabs": 8266,
      "ĠPyrÃ©nÃ©es": 8267,
      "Ġquar": 8268,
      "Te": 8269,
      "hyd": 8270,
      "ĠLion": 8271,
      "Ġcommunale": 8272,
      "Ġ81": 8273,
      "ĠMu": 8274,
      "shire": 8275,
      "ĠInternet": 8276,
      "ropri": 8277,
      "Ġdestru": 8278,
      "ĠMak": 8279,
      "cience": 8280,
      "UE": 8281,
      "onction": 8282,
      "ĠRennes": 8283,
      "ĠMetz": 8284,
      "Ġquitter": 8285,
      "acre": 8286,
      "oslav": 8287,
      "Ġâĩ": 8288,
      "Ġhor": 8289,
      "Ġadministration": 8290,
      "Ġprolong": 8291,
      "luent": 8292,
      "ĠGroup": 8293,
      "Ġdesserv": 8294,
      "ĠproposÃ©": 8295,
      "ĠLife": 8296,
      "ĠDiff": 8297,
      "ĠRaison": 8298,
      "ĠRad": 8299,
      "ĠconnaÃ®tre": 8300,
      "1926": 8301,
      "Ã©tablissement": 8302,
      "Ġmines": 8303,
      "ista": 8304,
      "ĠCommunautÃ©": 8305,
      "Ġpointe": 8306,
      "ĠGouver": 8307,
      "ĠprÃ©nom": 8308,
      "montre": 8309,
      "ĠSupp": 8310,
      "ĠThierry": 8311,
      "Ġseuls": 8312,
      "Ġquart": 8313,
      "ĠtÃ©lÃ©ph": 8314,
      "Ġcrimin": 8315,
      "Ġmunicipales": 8316,
      "gi": 8317,
      "Ġenvis": 8318,
      "ilton": 8319,
      "ĠRenaissance": 8320,
      "Ġajou": 8321,
      "Ġremplacer": 8322,
      "Ġ110": 8323,
      "Pal": 8324,
      "sson": 8325,
      "sterdam": 8326,
      "ĠrÃ©guliÃ¨re": 8327,
      "ĠLot": 8328,
      "ĠMach": 8329,
      "ĠLet": 8330,
      "issaire": 8331,
      "elly": 8332,
      "ĠPou": 8333,
      "Ġchemins": 8334,
      "ĠBataille": 8335,
      "Ġ92": 8336,
      "Ãīcosse": 8337,
      "ĠmÃ©tropolitaine": 8338,
      "Ġ84": 8339,
      "ĠprÃ©sents": 8340,
      "Ġtotalement": 8341,
      "onda": 8342,
      "cepti": 8343,
      "ĠToponymie": 8344,
      "ensive": 8345,
      "Ġnuls": 8346,
      "Ġfiction": 8347,
      "ĠÃ©pous": 8348,
      "ĠrÃ©vol": 8349,
      "Ġcollabor": 8350,
      "nis": 8351,
      "ĠBlo": 8352,
      "Exp": 8353,
      "ĠCath": 8354,
      "ĠProvence": 8355,
      "med": 8356,
      "ĠisraÃ©li": 8357,
      "Ã¡s": 8358,
      "ĠInc": 8359,
      "ĠexpÃ©riment": 8360,
      "âĢĿ": 8361,
      "Ġeffectue": 8362,
      "ĠSamuel": 8363,
      "ĠDemandÃ©e": 8364,
      "Ġcous": 8365,
      "ĠKo": 8366,
      "ĠVictoria": 8367,
      "ermann": 8368,
      "viv": 8369,
      "adis": 8370,
      "Ġbatterie": 8371,
      "Ġouvre": 8372,
      "ĠHand": 8373,
      "Ġpratiques": 8374,
      "ĠmÃ¨ne": 8375,
      "Ġfisc": 8376,
      "ĠQuatre": 8377,
      "ĠorganisÃ©e": 8378,
      "ĠÃ©gyp": 8379,
      "Ren": 8380,
      "ocÃ©": 8381,
      "ĠAmerica": 8382,
      "arrÃªt": 8383,
      "ĠChron": 8384,
      "ĠCenter": 8385,
      "Ġstandard": 8386,
      "Ġ1906": 8387,
      "Ġpreuve": 8388,
      "ĠAuguste": 8389,
      "ĠLouise": 8390,
      "Ġavanc": 8391,
      "ĠscÃ¨nes": 8392,
      "Ġ06": 8393,
      "ĠdiplÃ´": 8394,
      "Ġcourses": 8395,
      "ĠDum": 8396,
      "Ġtort": 8397,
      "Ġcens": 8398,
      "Ġchanti": 8399,
      "Ġdistribu": 8400,
      "Ġrense": 8401,
      "erge": 8402,
      "Ġsusp": 8403,
      "igi": 8404,
      "ĠMontage": 8405,
      "Ġopposition": 8406,
      "inves": 8407,
      "ĠaÃ©riennes": 8408,
      "Ġenvoy": 8409,
      "irurg": 8410,
      "No": 8411,
      "Ġoui": 8412,
      "rel": 8413,
      "Ġcouvrant": 8414,
      ":#": 8415,
      "ĠAS": 8416,
      "Ġunies": 8417,
      "ĠEnter": 8418,
      "ĠprÃ©senter": 8419,
      "Ġoccidentale": 8420,
      "fiÃ©e": 8421,
      "gny": 8422,
      "Ã©che": 8423,
      "Ġserbe": 8424,
      "Ġclimatique": 8425,
      "ĠRoumanie": 8426,
      "ĠAri": 8427,
      "commune": 8428,
      "Ġenvers": 8429,
      "Ġ79": 8430,
      "ED": 8431,
      "inson": 8432,
      "Ġtiers": 8433,
      "Ġ1907": 8434,
      "ignant": 8435,
      "onal": 8436,
      "ĠmathÃ©matiques": 8437,
      "armes": 8438,
      "Ġmassif": 8439,
      "ĠBulletin": 8440,
      "etti": 8441,
      "Ġvendre": 8442,
      "Ġvisant": 8443,
      "onds": 8444,
      "eller": 8445,
      "Ġspir": 8446,
      "ĠNous": 8447,
      "alisÃ©s": 8448,
      "aÃ©roport": 8449,
      "ĠAfric": 8450,
      "ĠUrb": 8451,
      "ĠRÃ©partition": 8452,
      "Ġtrue": 8453,
      "tesse": 8454,
      "arme": 8455,
      ".).": 8456,
      "Ġressort": 8457,
      "Ġcouvert": 8458,
      "ĠTournoi": 8459,
      "Ġorbite": 8460,
      "tir": 8461,
      "ellation": 8462,
      "Ġaccueille": 8463,
      "1931": 8464,
      "Ġastron": 8465,
      "Ġthermique": 8466,
      "Ġfavoris": 8467,
      "Ġ95": 8468,
      "Fer": 8469,
      "Ġdehors": 8470,
      "ĠGood": 8471,
      "IT": 8472,
      "Ġfili": 8473,
      "cin": 8474,
      "ĠcatÃ©gorisÃ©e": 8475,
      "ĠWat": 8476,
      "Ġromans": 8477,
      "ĠFinaliste": 8478,
      "ĠGame": 8479,
      "ĠintÃ¨gre": 8480,
      "Ġlancer": 8481,
      "Ġmissions": 8482,
      "organ": 8483,
      "ĠFilms": 8484,
      "Ġroutes": 8485,
      "ĠBÃ©n": 8486,
      "Ġpersonnelle": 8487,
      "ĠEur": 8488,
      "Ġconseillers": 8489,
      "ĠTableau": 8490,
      "rophes": 8491,
      "ual": 8492,
      "dep": 8493,
      "Ġordres": 8494,
      "acher": 8495,
      "orchestre": 8496,
      "ĠEmpire": 8497,
      "Ġantique": 8498,
      "Ġprivil": 8499,
      "Ġmaritime": 8500,
      "ÅĴuv": 8501,
      "Ġ86": 8502,
      "Ġculte": 8503,
      "ĠÂ»),": 8504,
      "Ġoub": 8505,
      "Ġrej": 8506,
      "Ġdynastie": 8507,
      "Os": 8508,
      "Ġvision": 8509,
      "ĠprotÃ©ger": 8510,
      "oma": 8511,
      "oriÃ©tÃ©": 8512,
      "ĠsÃ»r": 8513,
      "Ġvaste": 8514,
      "ĠentrÃ©e": 8515,
      "ĠNapolÃ©on": 8516,
      "Ġprises": 8517,
      "Ġstock": 8518,
      "ĠpossÃ©d": 8519,
      "Ġtournage": 8520,
      "Ġ1909": 8521,
      "1921": 8522,
      "owski": 8523,
      "ĠPres": 8524,
      "ĠBrian": 8525,
      "Ġsouverain": 8526,
      "ĠprÃ©p": 8527,
      "Ġallemands": 8528,
      "ĠÃ©b": 8529,
      "1988": 8530,
      "positeur": 8531,
      "enreg": 8532,
      "ĠBla": 8533,
      "rÃ©sor": 8534,
      "Laurent": 8535,
      "Ġ$": 8536,
      "direction": 8537,
      "ĠRab": 8538,
      "Ġoise": 8539,
      "Mil": 8540,
      "ĠÃ©toiles": 8541,
      "ĠScience": 8542,
      "Ġdevi": 8543,
      "ĠAllemand": 8544,
      "Ġservir": 8545,
      "Ġmilieux": 8546,
      "Ġpuisse": 8547,
      "ĠplacÃ©": 8548,
      "ĠAuc": 8549,
      "Ġacquis": 8550,
      "ĠCanton": 8551,
      "Ġachev": 8552,
      "ĠSN": 8553,
      "Ġperformance": 8554,
      "ĠinfÃ©rieur": 8555,
      "ĠrÃ©pert": 8556,
      "=|": 8557,
      "ĠCru": 8558,
      "ĠprÃ©serv": 8559,
      "'Â«": 8560,
      "Ġconsiste": 8561,
      "ĠPrince": 8562,
      "ding": 8563,
      "ĠlibÃ©ration": 8564,
      "ĠAnti": 8565,
      "Ġgalerie": 8566,
      "ĠSl": 8567,
      "ĠconservÃ©": 8568,
      "Ġmunicipale": 8569,
      "Ġutilisateur": 8570,
      "Ġprennent": 8571,
      "1980": 8572,
      "wig": 8573,
      "Ġstations": 8574,
      "ĠAsh": 8575,
      "Ġparticul": 8576,
      "ĠSus": 8577,
      "ĠTaylor": 8578,
      "Ġscrutin": 8579,
      "eh": 8580,
      ".--": 8581,
      "ĠimmÃ©diatement": 8582,
      "ĠBand": 8583,
      "ĠsiÃ¨cles": 8584,
      "pement": 8585,
      "len": 8586,
      "bot": 8587,
      "Ã©matique": 8588,
      "ĠMig": 8589,
      "ĠEmmanuel": 8590,
      "urie": 8591,
      "tile": 8592,
      "diction": 8593,
      "Ġden": 8594,
      "ĠTimes": 8595,
      "Ġdimanche": 8596,
      "cass": 8597,
      "ĠTest": 8598,
      "Antoine": 8599,
      "dÃ©m": 8600,
      "Ġconsommation": 8601,
      "ĠprÃ©vu": 8602,
      "Ġvivre": 8603,
      "ĠMcC": 8604,
      "Ġcontemporaine": 8605,
      "Ġinterne": 8606,
      "uman": 8607,
      "adelph": 8608,
      "ĠSong": 8609,
      "sten": 8610,
      "ĠKer": 8611,
      "Ġdocteur": 8612,
      "Ġmass": 8613,
      "ĠLub": 8614,
      "Sec": 8615,
      "ulsion": 8616,
      "ĠBosnie": 8617,
      "jectifs": 8618,
      "ingÃ©n": 8619,
      "Ġtentative": 8620,
      "Albert": 8621,
      "ĠFant": 8622,
      "board": 8623,
      "alition": 8624,
      "Ġculturelle": 8625,
      "Ġfabrication": 8626,
      "ĠEnc": 8627,
      "ĠinspirÃ©": 8628,
      "Ġvaut": 8629,
      "Ġflotte": 8630,
      "ĠNick": 8631,
      "Ġmodernes": 8632,
      "ĠidÃ©es": 8633,
      "bie": 8634,
      "Ġconservation": 8635,
      "ĠDern": 8636,
      "aron": 8637,
      "IIIe": 8638,
      "igan": 8639,
      "ĠLieux": 8640,
      "Ġobjectif": 8641,
      "etz": 8642,
      "ĠJÃ©sus": 8643,
      "Ġwiki": 8644,
      "173": 8645,
      "ffe": 8646,
      "ĠconsÃ©quence": 8647,
      "ĠparallÃ¨le": 8648,
      "Ġquelqu": 8649,
      "thumb": 8650,
      "accueil": 8651,
      "ĠFront": 8652,
      "Ġmultiples": 8653,
      "ĠRouen": 8654,
      "Ġacteurs": 8655,
      "mberg": 8656,
      "ĠdÃ©finition": 8657,
      "ĠRud": 8658,
      "ĠfÃ©dÃ©ration": 8659,
      "Ġhumains": 8660,
      "raux": 8661,
      "gan": 8662,
      "tille": 8663,
      "ĠGri": 8664,
      "ĠÃīdouard": 8665,
      "tist": 8666,
      "ĠBenjamin": 8667,
      "entrer": 8668,
      "Ġtouch": 8669,
      "Ġ05": 8670,
      "Ã©difice": 8671,
      "ĠprÃ©sentation": 8672,
      "ĠÃ©crits": 8673,
      "ĠdÃ©truit": 8674,
      "??": 8675,
      "ĠLive": 8676,
      "Ġfe": 8677,
      "Ġcabinet": 8678,
      "Ã©raux": 8679,
      "Ġeau": 8680,
      "ĠReal": 8681,
      "Journ": 8682,
      "ĠBau": 8683,
      "ĠSac": 8684,
      "ÅĴuvre": 8685,
      "rison": 8686,
      "mise": 8687,
      "Ã¨ses": 8688,
      "Ġproch": 8689,
      "Ġmaximum": 8690,
      "Ġhumain": 8691,
      "Ġforment": 8692,
      "roits": 8693,
      "Ġpatron": 8694,
      "'t": 8695,
      "ĠJord": 8696,
      "ultes": 8697,
      "Ġcouverture": 8698,
      "Ġproje": 8699,
      "ĠPrague": 8700,
      "Ġgrecque": 8701,
      "ĠconÃ§u": 8702,
      "Maur": 8703,
      "Ġdessins": 8704,
      "Ġjazz": 8705,
      "ĠfÃ©dÃ©rale": 8706,
      "ĠclassÃ©e": 8707,
      "ĠStef": 8708,
      "ĠrÃ´les": 8709,
      "Ġvolumes": 8710,
      "Ġestime": 8711,
      "df": 8712,
      "ĠRoute": 8713,
      "ĠGoogle": 8714,
      "Ġfrapp": 8715,
      "Fin": 8716,
      "ĠdÃ©te": 8717,
      "ĠLewis": 8718,
      "ĠdÃ©cidÃ©": 8719,
      "Ġ1904": 8720,
      "Ġparticipants": 8721,
      "1987": 8722,
      "Ġcollections": 8723,
      "Ġisl": 8724,
      "ĠSau": 8725,
      "mat": 8726,
      "ĠRoland": 8727,
      "lave": 8728,
      "zig": 8729,
      "Ġpav": 8730,
      "Ġporter": 8731,
      "Ġ83": 8732,
      "ĠCastel": 8733,
      "ilÃ©": 8734,
      "ĠHy": 8735,
      "ases": 8736,
      "ĠYam": 8737,
      "Ġconnus": 8738,
      "1986": 8739,
      "exception": 8740,
      "reb": 8741,
      "Ġmentionn": 8742,
      "Ġukrain": 8743,
      "ctobre": 8744,
      "Ġhydrographique": 8745,
      "enfant": 8746,
      "Ã©crivain": 8747,
      "ĠChapelle": 8748,
      "Ġterrains": 8749,
      "mel": 8750,
      "vince": 8751,
      "Ġdisposition": 8752,
      "cÃ©e": 8753,
      "Ancien": 8754,
      "ĠJr": 8755,
      "ĠboÃ®": 8756,
      "ĠServ": 8757,
      "ĠÃ¢ge": 8758,
      "uvergne": 8759,
      "ĠHun": 8760,
      "ĠBritish": 8761,
      "ĠspÃ©ciale": 8762,
      "PD": 8763,
      "oper": 8764,
      "Ġment": 8765,
      "ĠConst": 8766,
      "ĠChampionship": 8767,
      "Ġvictime": 8768,
      "ditÃ©": 8769,
      "ĠhÃ´tel": 8770,
      "Ġexposition": 8771,
      "alph": 8772,
      "Ġespaces": 8773,
      "aquie": 8774,
      "leg": 8775,
      "ouvern": 8776,
      "ĠBertrand": 8777,
      "Ġbaie": 8778,
      "Ġcontemporain": 8779,
      "Ġpapier": 8780,
      "ĠeuropÃ©ennes": 8781,
      "ĠPD": 8782,
      "Ġhuile": 8783,
      "andon": 8784,
      "ĠFra": 8785,
      "Nic": 8786,
      "314": 8787,
      "128": 8788,
      "Ġprogrammes": 8789,
      "isÃ©": 8790,
      "ĠLNH": 8791,
      "ĠlatÃ©": 8792,
      "Ġ87": 8793,
      "inÃ©e": 8794,
      "ĠIsraÃ«l": 8795,
      "ĠSum": 8796,
      "ĠTours": 8797,
      "ĠimpÃ©riale": 8798,
      "dus": 8799,
      "ĠSÃ©nat": 8800,
      "ĠFland": 8801,
      "ĠÃ©tablissements": 8802,
      "ĠOui": 8803,
      "ĠRoad": 8804,
      "Ġrepos": 8805,
      "1985": 8806,
      "Ġgerm": 8807,
      "ranch": 8808,
      "cadre": 8809,
      "Ġessais": 8810,
      "ther": 8811,
      "ĠAlli": 8812,
      "utiliser": 8813,
      "ns": 8814,
      "Ġusage": 8815,
      "Stade": 8816,
      "ĠidÃ©e": 8817,
      "ĠÃ©quival": 8818,
      "Ġtempor": 8819,
      "Ġà¤": 8820,
      "Ġrusses": 8821,
      "ĠmenÃ©es": 8822,
      "rices": 8823,
      "Ġmig": 8824,
      "Ġimag": 8825,
      "mad": 8826,
      "Ġrelais": 8827,
      "ĠprÃªt": 8828,
      "ĠCana": 8829,
      "Ġprofessionnels": 8830,
      "SE": 8831,
      "Ġmos": 8832,
      "Ãªcher": 8833,
      "inde": 8834,
      "Aqu": 8835,
      "ĠâĢł": 8836,
      "ĠBrad": 8837,
      "Ġmodern": 8838,
      "ĠportÃ©e": 8839,
      "Ġnomme": 8840,
      "ĠdÃ©pos": 8841,
      "Ġdoctorat": 8842,
      "ovo": 8843,
      "fesseur": 8844,
      "ID": 8845,
      "ĠLev": 8846,
      "ĠPoi": 8847,
      "Ġrecueil": 8848,
      "1906": 8849,
      "IIe": 8850,
      "elop": 8851,
      "ĠVoy": 8852,
      "etta": 8853,
      "ĠStÃ©phane": 8854,
      "Pas": 8855,
      "Ġsolo": 8856,
      "athlÃ©tisme": 8857,
      "ĠSub": 8858,
      "Ġcroise": 8859,
      "ĠBach": 8860,
      "erto": 8861,
      "Ġprogressivement": 8862,
      "Ġperte": 8863,
      "Ġinond": 8864,
      "annÃ©es": 8865,
      "Ġsignific": 8866,
      "irent": 8867,
      "oro": 8868,
      "Ġsouvenir": 8869,
      "ĠPenn": 8870,
      "Ġ1901": 8871,
      "ĠChristoph": 8872,
      "Occident": 8873,
      "ĠRiviÃ¨re": 8874,
      "Gu": 8875,
      "Ġpolonaise": 8876,
      "Ġvide": 8877,
      "Ġcontest": 8878,
      "ĠFed": 8879,
      "Ġwww": 8880,
      "ĠcommunautÃ©s": 8881,
      "mine": 8882,
      "Ġauxquels": 8883,
      "ĠBasse": 8884,
      "ĠVel": 8885,
      "ĠLit": 8886,
      "duits": 8887,
      "Ġmarquis": 8888,
      "ĠrÃ©daction": 8889,
      "iquement": 8890,
      "Ã¨dent": 8891,
      "ĠHon": 8892,
      "ĠrÃ©action": 8893,
      "ĠRugby": 8894,
      "AA": 8895,
      "ĠBart": 8896,
      "ĠTo": 8897,
      "orce": 8898,
      "Å¾": 8899,
      "Ð´": 8900,
      "Ġattest": 8901,
      "ciers": 8902,
      "rov": 8903,
      "ĠAy": 8904,
      "Ġsimilaire": 8905,
      "Gal": 8906,
      "ĠColumb": 8907,
      "mier": 8908,
      "usine": 8909,
      "ĠTunisie": 8910,
      "Ġ89": 8911,
      "Actrice": 8912,
      "Ġpublications": 8913,
      "conte": 8914,
      "ĠPict": 8915,
      "ĠNE": 8916,
      "sans": 8917,
      "Ġcommunautaire": 8918,
      "ĠexposÃ©e": 8919,
      "Ġsuscepti": 8920,
      "Sa": 8921,
      "pective": 8922,
      "Ġesc": 8923,
      "ĠJÃ©rusalem": 8924,
      "Ġcorrespondant": 8925,
      "avais": 8926,
      "Ġamical": 8927,
      "Ġprovenant": 8928,
      "atine": 8929,
      "Ġtrafic": 8930,
      "Ġfrancophone": 8931,
      "ĠIndi": 8932,
      "aignÃ©es": 8933,
      "rum": 8934,
      "ĠâĢľ": 8935,
      "ĠocÃ©anique": 8936,
      "lez": 8937,
      "Ġpie": 8938,
      "Ġnaturelles": 8939,
      "Ġtiss": 8940,
      "1911": 8941,
      "last": 8942,
      "ĠcohÃ©r": 8943,
      "ĠsixiÃ¨me": 8944,
      "Ġ1890": 8945,
      "hen": 8946,
      "Ã©lÃ¨ve": 8947,
      "Mer": 8948,
      "ĪĴ": 8949,
      "Ġinterdit": 8950,
      "omÃ©trie": 8951,
      "ĠPu": 8952,
      "ĠÃģ": 8953,
      "Ġdonnant": 8954,
      "ĠPri": 8955,
      "ouge": 8956,
      "Ġbateau": 8957,
      "ĠWol": 8958,
      "ĠRu": 8959,
      "ĠmÃ©lan": 8960,
      "Ġinten": 8961,
      "Ġsupport": 8962,
      "Ġabrite": 8963,
      "ĠHein": 8964,
      "Ġmoteurs": 8965,
      "ĠFÃ©lix": 8966,
      "Ġdistingue": 8967,
      "astron": 8968,
      "ĠOk": 8969,
      "ĠÃīmile": 8970,
      "ĠrÃ©nov": 8971,
      "tellect": 8972,
      "ĠHard": 8973,
      "Ġparent": 8974,
      "ĠmÃ©diÃ©v": 8975,
      "ĠMill": 8976,
      "1983": 8977,
      "ĠlibÃ©ral": 8978,
      "ĠÃ©cologique": 8979,
      "vres": 8980,
      "ĠDeb": 8981,
      "Ġmajoritaire": 8982,
      "quÃªtes": 8983,
      "aus": 8984,
      "ĠFace": 8985,
      "Ġinconnu": 8986,
      "jp": 8987,
      "Ukraine": 8988,
      "Ġorganise": 8989,
      "ĠVladi": 8990,
      "Philippe": 8991,
      "ĠIvan": 8992,
      "ĠRiv": 8993,
      "ĠOut": 8994,
      "house": 8995,
      "Ñı": 8996,
      "ends": 8997,
      "Ġallant": 8998,
      "ĠrÃ©ussit": 8999,
      "zen": 9000,
      "ĠcomplÃ¨tement": 9001,
      "ĠBeaux": 9002,
      "jus": 9003,
      "ĠPatrimoine": 9004,
      "...)": 9005,
      "LocalitÃ©": 9006,
      "Ġfaute": 9007,
      "ĠLocalisation": 9008,
      "cies": 9009,
      "Ġmicro": 9010,
      "Ġauquel": 9011,
      "onna": 9012,
      "ĠFormule": 9013,
      "Cou": 9014,
      "aou": 9015,
      "ĠWilson": 9016,
      "Ġ1903": 9017,
      "fran": 9018,
      "Ġvain": 9019,
      "not": 9020,
      "Ġorientale": 9021,
      "Ġfondament": 9022,
      "ĠdifficultÃ©s": 9023,
      "ĠGilbert": 9024,
      "zÃ©": 9025,
      "amÃ©nagement": 9026,
      "ĠDiscographie": 9027,
      "ĠMam": 9028,
      "ĠFontaine": 9029,
      "Ġnoblesse": 9030,
      "ĠSchw": 9031,
      "lige": 9032,
      "ĠmaÃ®tres": 9033,
      "ĠMess": 9034,
      "ĠlÃ©gÃ¨rement": 9035,
      "erst": 9036,
      "ĠSqu": 9037,
      "Ġphysiques": 9038,
      "ĠalÃ©": 9039,
      "rÃªts": 9040,
      "asp": 9041,
      "ĠSo": 9042,
      "wikipedia": 9043,
      "Ġestim": 9044,
      "doc": 9045,
      "ĠBah": 9046,
      "ergÃ©": 9047,
      "Ġviolon": 9048,
      "ĠEast": 9049,
      "Ġenseigne": 9050,
      "Ġissus": 9051,
      "cade": 9052,
      "omique": 9053,
      "ted": 9054,
      "ĠJes": 9055,
      "ouÃ©": 9056,
      "ĠÂ»..": 9057,
      "ĠprocÃ©dure": 9058,
      "ĠdÃ©finitivement": 9059,
      "mÃ©s": 9060,
      "Ã¨ques": 9061,
      "Ġconfond": 9062,
      "chesse": 9063,
      "Ġadjoint": 9064,
      "ĠMinistÃ¨re": 9065,
      "ĠAlgÃ©rie": 9066,
      "ĠEugÃ¨ne": 9067,
      "ĠTÃ©lÃ©vision": 9068,
      "atÃ©": 9069,
      "Ãīv": 9070,
      "Ġmodification": 9071,
      "nik": 9072,
      "drome": 9073,
      "ignan": 9074,
      "titre": 9075,
      "Ġprincipes": 9076,
      "Ġaccident": 9077,
      "Ġpeux": 9078,
      "ĠPhiladelph": 9079,
      "cemment": 9080,
      "dinand": 9081,
      "monte": 9082,
      "Sch": 9083,
      "Ġtir": 9084,
      "Ġbrigade": 9085,
      "Ġprincesse": 9086,
      "ĠcoÃ»": 9087,
      "ĠAcade": 9088,
      "bonne": 9089,
      "atel": 9090,
      "Une": 9091,
      "ĠDup": 9092,
      "ĠPers": 9093,
      "ĠarchÃ©ologique": 9094,
      "Ġsalles": 9095,
      "istoires": 9096,
      "orisation": 9097,
      "Ġarab": 9098,
      "Ġinfluence": 9099,
      "ĠdÃ©v": 9100,
      "ĠdÃ©clen": 9101,
      "Ġjuridique": 9102,
      "ĠcondamnÃ©": 9103,
      "mÃ©diaire": 9104,
      "Ġinscrits": 9105,
      "ĠErnest": 9106,
      "Ind": 9107,
      "aches": 9108,
      "ĠMarch": 9109,
      "ĠÃ©trangers": 9110,
      "ĠFriedrich": 9111,
      "Ġspe": 9112,
      "ĠcÃ©lÃ©b": 9113,
      "Ġlangage": 9114,
      "Ġethn": 9115,
      "ĠtravaillÃ©": 9116,
      "Ġcorrig": 9117,
      "ĠpoÃ©sie": 9118,
      "Ġsaut": 9119,
      "ĠcomÃ©di": 9120,
      "orgie": 9121,
      "km": 9122,
      "ione": 9123,
      "ĠnotoriÃ©tÃ©": 9124,
      "ĠÅĵ": 9125,
      "Ġfaudrait": 9126,
      "GB": 9127,
      "oncer": 9128,
      "Ġautonome": 9129,
      "ĠBritann": 9130,
      "rise": 9131,
      "Ġcontribution": 9132,
      "Ġchanger": 9133,
      "ĠcomplÃ©": 9134,
      "ĠenregistrÃ©": 9135,
      "fils": 9136,
      "ingue": 9137,
      "ĠGene": 9138,
      "ouvez": 9139,
      "ĠTig": 9140,
      "ovine": 9141,
      "ortie": 9142,
      "Ġapprend": 9143,
      "ĠHerb": 9144,
      "Ġ93": 9145,
      "Ġliaison": 9146,
      "Ġsurveill": 9147,
      "ÏĦ": 9148,
      "Ã©raire": 9149,
      "ĠCad": 9150,
      "Ġ%,": 9151,
      "loc": 9152,
      "ĠWay": 9153,
      "agglomÃ©ration": 9154,
      "ĠMembre": 9155,
      "Ġlabor": 9156,
      "tifiÃ©": 9157,
      "stra": 9158,
      "Ġtableaux": 9159,
      "Ġ~": 9160,
      "tent": 9161,
      "ĠamÃ©liorer": 9162,
      "fiques": 9163,
      "1984": 9164,
      "eneur": 9165,
      "order": 9166,
      "Ã©velop": 9167,
      "130": 9168,
      "espÃ¨ces": 9169,
      "ism": 9170,
      "ĠLeb": 9171,
      "ĠBle": 9172,
      "Georges": 9173,
      "lits": 9174,
      "Ġsoup": 9175,
      "ĠvÃ©hicule": 9176,
      "onel": 9177,
      "ĠMarguerite": 9178,
      "ĠDuc": 9179,
      "Ġprisonniers": 9180,
      "anny": 9181,
      "ties": 9182,
      "Ġinternationaux": 9183,
      "Ġassure": 9184,
      "opold": 9185,
      "Ã©tranger": 9186,
      "ĠSuz": 9187,
      "ĠDirection": 9188,
      "Ġgrille": 9189,
      "Ġaccept": 9190,
      "bin": 9191,
      "ĠhÃ´": 9192,
      "ĠrÃ©flex": 9193,
      "quette": 9194,
      "mbourg": 9195,
      "odore": 9196,
      "Ġquartiers": 9197,
      "ĠcaractÃ¨res": 9198,
      "ĠCond": 9199,
      "Ġ96": 9200,
      "ĠAnthony": 9201,
      "ustre": 9202,
      "ĠdÃ©nom": 9203,
      "Total": 9204,
      "ĠAngl": 9205,
      "ĠintÃ©rÃªt": 9206,
      "ĠextrÃªme": 9207,
      "TS": 9208,
      "pit": 9209,
      "Ġlancement": 9210,
      "ĠDark": 9211,
      "Ãªques": 9212,
      "ĠJi": 9213,
      "Ġlimites": 9214,
      "Ġcomprenant": 9215,
      "iev": 9216,
      "Ġmodifier": 9217,
      "Ġfoi": 9218,
      "ardins": 9219,
      "athlon": 9220,
      "ĠdestinÃ©": 9221,
      "Ġbul": 9222,
      "ĠSyl": 9223,
      "ppen": 9224,
      "vÃ©g": 9225,
      "anglais": 9226,
      "Ġpatrou": 9227,
      "ĠChili": 9228,
      "ĠÃ©coss": 9229,
      "quier": 9230,
      "asa": 9231,
      "ĠGib": 9232,
      "inateur": 9233,
      "ĠÃ©ditÃ©": 9234,
      "ĠCorn": 9235,
      "Ġappelle": 9236,
      "Ġgall": 9237,
      "Ġadministratif": 9238,
      "Ġorigines": 9239,
      "Ġbarrage": 9240,
      "tÃ©rieures": 9241,
      "quante": 9242,
      "Ġmontagnes": 9243,
      "Ġ1880": 9244,
      "Ġaqu": 9245,
      "rano": 9246,
      "agh": 9247,
      "assadeur": 9248,
      "inage": 9249,
      "attle": 9250,
      "Aub": 9251,
      "Ã¢tel": 9252,
      "Ġ99": 9253,
      "Ġbandeau": 9254,
      "tils": 9255,
      "code": 9256,
      "Ġmagas": 9257,
      "pÃ¨re": 9258,
      "Ġer": 9259,
      "Ġhol": 9260,
      "mosph": 9261,
      "Ġvisible": 9262,
      "Ġ250": 9263,
      "Ġenter": 9264,
      "ĠCommune": 9265,
      "ĠMir": 9266,
      "IV": 9267,
      "gcolor": 9268,
      "Ġterritorial": 9269,
      "reurs": 9270,
      "igueur": 9271,
      "Ġquotidien": 9272,
      "ĠSS": 9273,
      "Ġrig": 9274,
      "BS": 9275,
      "icon": 9276,
      "Ġsouter": 9277,
      "ĠcompÃ©titions": 9278,
      "entraÃ®": 9279,
      "Ã©lÃ¨ne": 9280,
      "illo": 9281,
      "Ġem": 9282,
      "ĠKevin": 9283,
      "semb": 9284,
      "ĠBuc": 9285,
      "ĠRot": 9286,
      "Ġbaptis": 9287,
      "329": 9288,
      "Ġcultiv": 9289,
      "ĠMau": 9290,
      "001": 9291,
      "Ġtourisme": 9292,
      "hyp": 9293,
      "1880": 9294,
      "ingham": 9295,
      "Ãīgypte": 9296,
      "ture": 9297,
      "rai": 9298,
      "Arts": 9299,
      "pent": 9300,
      "aver": 9301,
      "Ã©rÃ©es": 9302,
      "Ġfournir": 9303,
      "RhÃ´ne": 9304,
      "Ġportent": 9305,
      "ĠÃ©lectronique": 9306,
      "Ġconcerts": 9307,
      "ĠRhÃ´ne": 9308,
      "romp": 9309,
      "Ġsymp": 9310,
      "Ġtendance": 9311,
      "lire": 9312,
      "Ġentier": 9313,
      "irie": 9314,
      "Ġsports": 9315,
      "Ġcontrain": 9316,
      "Ġpen": 9317,
      "ĠSantÃ©": 9318,
      "Ġscolaire": 9319,
      "Ġcanon": 9320,
      "Ġdiscuter": 9321,
      "Ġdange": 9322,
      "Ġofficiers": 9323,
      "ruption": 9324,
      "Ġdavantage": 9325,
      "ĠÃ©diteur": 9326,
      "{{": 9327,
      "Ġ91": 9328,
      "ĠCS": 9329,
      "asy": 9330,
      "Ara": 9331,
      "Division": 9332,
[...]
